{"vocab": {"0": "Ā", "1": "ā", "2": "Ă", "3": "ă", "4": "Ą", "5": "ą", "6": "Ć", "7": "ć", "8": "Ĉ", "9": "ĉ", "10": "Ċ", "11": "ċ", "12": "Č", "13": "č", "14": "Ď", "15": "ď", "16": "Đ", "17": "đ", "18": "Ē", "19": "ē", "20": "Ĕ", "21": "ĕ", "22": "Ė", "23": "ė", "24": "Ę", "25": "ę", "26": "Ě", "27": "ě", "28": "Ĝ", "29": "ĝ", "30": "Ğ", "31": "ğ", "32": "Ġ", "33": "!", "34": "\"", "35": "#", "36": "$", "37": "%", "38": "&", "39": "'", "40": "(", "41": ")", "42": "*", "43": "+", "44": ",", "45": "-", "46": ".", "47": "/", "48": "0", "49": "1", "50": "2", "51": "3", "52": "4", "53": "5", "54": "6", "55": "7", "56": "8", "57": "9", "58": ":", "59": ";", "60": "<", "61": "=", "62": ">", "63": "?", "64": "@", "65": "A", "66": "B", "67": "C", "68": "D", "69": "E", "70": "F", "71": "G", "72": "H", "73": "I", "74": "J", "75": "K", "76": "L", "77": "M", "78": "N", "79": "O", "80": "P", "81": "Q", "82": "R", "83": "S", "84": "T", "85": "U", "86": "V", "87": "W", "88": "X", "89": "Y", "90": "Z", "91": "[", "92": "\\", "93": "]", "94": "^", "95": "_", "96": "`", "97": "a", "98": "b", "99": "c", "100": "d", "101": "e", "102": "f", "103": "g", "104": "h", "105": "i", "106": "j", "107": "k", "108": "l", "109": "m", "110": "n", "111": "o", "112": "p", "113": "q", "114": "r", "115": "s", "116": "t", "117": "u", "118": "v", "119": "w", "120": "x", "121": "y", "122": "z", "123": "{", "124": "|", "125": "}", "126": "~", "127": "ġ", "128": "Ģ", "129": "ģ", "130": "Ĥ", "131": "ĥ", "132": "Ħ", "133": "ħ", "134": "Ĩ", "135": "ĩ", "136": "Ī", "137": "ī", "138": "Ĭ", "139": "ĭ", "140": "Į", "141": "į", "142": "İ", "143": "ı", "144": "Ĳ", "145": "ĳ", "146": "Ĵ", "147": "ĵ", "148": "Ķ", "149": "ķ", "150": "ĸ", "151": "Ĺ", "152": "ĺ", "153": "Ļ", "154": "ļ", "155": "Ľ", "156": "ľ", "157": "Ŀ", "158": "ŀ", "159": "Ł", "160": "ł", "161": "¡", "162": "¢", "163": "£", "164": "¤", "165": "¥", "166": "¦", "167": "§", "168": "¨", "169": "©", "170": "ª", "171": "«", "172": "¬", "173": "Ń", "174": "®", "175": "¯", "176": "°", "177": "±", "178": "²", "179": "³", "180": "´", "181": "µ", "182": "¶", "183": "·", "184": "¸", "185": "¹", "186": "º", "187": "»", "188": "¼", "189": "½", "190": "¾", "191": "¿", "192": "À", "193": "Á", "194": "Â", "195": "Ã", "196": "Ä", "197": "Å", "198": "Æ", "199": "Ç", "200": "È", "201": "É", "202": "Ê", "203": "Ë", "204": "Ì", "205": "Í", "206": "Î", "207": "Ï", "208": "Ð", "209": "Ñ", "210": "Ò", "211": "Ó", "212": "Ô", "213": "Õ", "214": "Ö", "215": "×", "216": "Ø", "217": "Ù", "218": "Ú", "219": "Û", "220": "Ü", "221": "Ý", "222": "Þ", "223": "ß", "224": "à", "225": "á", "226": "â", "227": "ã", "228": "ä", "229": "å", "230": "æ", "231": "ç", "232": "è", "233": "é", "234": "ê", "235": "ë", "236": "ì", "237": "í", "238": "î", "239": "ï", "240": "ð", "241": "ñ", "242": "ò", "243": "ó", "244": "ô", "245": "õ", "246": "ö", "247": "÷", "248": "ø", "249": "ù", "250": "ú", "251": "û", "252": "ü", "253": "ý", "254": "þ", "255": "ÿ", "256": "<|endoftext|>", "257": "Ġt", "258": "Ġth", "259": "Ġthe", "260": "Ġto", "261": "Ġtha", "262": "Ġthat", "263": "Ġa", "264": "Ġan", "265": "Ġand", "266": "Ġar", "267": "Ġas", "268": "Ġal", "269": "Ġthi", "270": "Ġat", "271": "Ġare", "272": "Ġtr", "273": "Ġthis", "274": "in", "275": "ing", "276": "Ġin", "277": "ain", "278": "ting", "279": "ine", "280": "Ġte", "281": "Ġint", "282": "on", "283": "ion", "284": "tion", "285": "Ġon", "286": "ation", "287": "con", "288": "Ġcon", "289": "Ġab", "290": "ding", "291": "Ġac", "292": "Ġs", "293": "Ġst", "294": "Ġse", "295": "Ġsa", "296": "Ġso", "297": "Ġsu", "298": "Ġsh", "299": "Ġsta", "300": "one", "301": "Ġta", "302": "Ġsp", "303": "Ġw", "304": "Ġwi", "305": "Ġwh", "306": "Ġwa", "307": "Ġwe", "308": "Ġwit", "309": "Ġwith", "310": "Ġwas", "311": "Ġwo", "312": "Ġwor", "313": "Ġwhi", "314": "Ġthey", "315": "Ġall", "316": "Ġwil", "317": "Ġsi", "318": "ring", "319": "Ġsai", "320": "Ġwill", "321": "Ġsaid", "322": "Ġwhe", "323": "Ġwho", "324": "king", "325": "son", "326": "sion", "327": "Ġsho", "328": "Ġthei", "329": "Ġtheir", "330": "Ġabo", "331": "ong", "332": "Ġti", "333": "ction", "334": "Ġsom", "335": "Ġsome", "336": "Ġad", "337": "Ġone", "338": "Ġabou", "339": "Ġabout", "340": "hing", "341": "Ġag", "342": "Ġwer", "343": "Ġwere", "344": "Ġb", "345": "Ġbe", "346": "Ġbu", "347": "Ġby", "348": "Ġba", "349": "Ġbut", "350": "Ġbo", "351": "ina", "352": "Ġwou", "353": "Ġwoul", "354": "Ġwould", "355": "Ġbee", "356": "Ġf", "357": "Ġfo", "358": "Ġfor", "359": "Ġfr", "360": "Ġfro", "361": "Ġfrom", "362": "Ġfa", "363": "Ġfi", "364": "Ġfe", "365": "Ġwhic", "366": "Ġwhich", "367": "Ġp", "368": "Ġpr", "369": "Ġpro", "370": "Ġpo", "371": "Ġpa", "372": "Ġpe", "373": "Ġpl", "374": "Ġpla", "375": "Ġpre", "376": "Ġper", "377": "Ġpu", "378": "Ġpar", "379": "Ġcont", "380": "Ġh", "381": "Ġha", "382": "Ġhe", "383": "Ġhi", "384": "Ġhav", "385": "Ġhave", "386": "Ġho", "387": "Ġhis", "388": "Ġhas", "389": "Ġher", "390": "Ġhad", "391": "Ġsc", "392": "Ġbeen", "393": "ini", "394": "Ġthr", "395": "ind", "396": "Ġtim", "397": "Ġinc", "398": "Ġinte", "399": "Ġtime", "400": "Ġap", "401": "sing", "402": "Ġfu", "403": "ning", "404": "ling", "405": "Ġsee", "406": "Ġbi", "407": "Ġm", "408": "Ġma", "409": "Ġmo", "410": "Ġme", "411": "Ġmor", "412": "Ġmi", "413": "Ġmore", "414": "Ġmu", "415": "Ġman", "416": "int", "417": "Ġthin", "418": "Ġther", "419": "Ġbr", "420": "Ġwha", "421": "ations", "422": "Ġtra", "423": "Ġthere", "424": "Ġwhat", "425": "Ġstr", "426": "Ġals", "427": "Ġalso", "428": "Ġthan", "429": "Ġbec", "430": "Ġfir", "431": "Ġthem", "432": "Ġaf", "433": "Ġtho", "434": "Ġapp", "435": "Ġpart", "436": "Ġwhen", "437": "Ġpeo", "438": "Ġpeop", "439": "Ġpeopl", "440": "Ġpeople", "441": "ition", "442": "Ġhea", "443": "Ġany", "444": "Ġd", "445": "Ġde", "446": "Ġdi", "447": "Ġdo", "448": "Ġda", "449": "Ġdis", "450": "Ġdr", "451": "Ġspe", "452": "Ġsay", "453": "Ġmy", "454": "âĢ", "455": "âĢĻ", "456": "ĠâĢ", "457": "âĢĿ", "458": "ĠâĢľ", "459": "Ġpol", "460": "Ġinto", "461": ".âĢĿ", "462": "Ġcons", "463": "Ġtw", "464": "Ġacc", "465": "Ġplay", "466": "Ġinter", "467": "Ġonl", "468": "ont", "469": "Ġr", "470": "Ġre", "471": "Ġres", "472": "Ġrea", "473": "Ġra", "474": "Ġrec", "475": "Ġri", "476": "Ġrep", "477": "Ġro", "478": "Ġrel", "479": "Ġpos", "480": "Ġstat", "481": "of", "482": "Ġof", "483": "Ġoff", "484": "Ġwork", "485": "thing", "486": "Ġins", "487": "Ġshe", "488": "inc", "489": "Ġaft", "490": "Ġafte", "491": "Ġafter", "492": ",âĢĿ", "493": "ons", "494": "Ġfirs", "495": "Ġfirst", "496": "Ġpoli", "497": "Ġhow", "498": "Ġmak", "499": "Ġsto", "500": "Ġmake", "501": "Ġhim", "502": "Ġdes", "503": "Ġe", "504": "Ġex", "505": "Ġen", "506": "Ġev", "507": "Ġeve", "508": "Ġexp", "509": "Ġea", "510": "Ġeven", "511": "Ġever", "512": "Ġonly", "513": "Ġbeca", "514": "Ġatt", "515": "Ġl", "516": "Ġli", "517": "Ġle", "518": "Ġla", "519": "Ġlo", "520": "Ġlik", "521": "Ġlike", "522": "Ġlea", "523": "Ġru", "524": "Ġreal", "525": "ains", "526": "Ġbl", "527": "Ġtwo", "528": "ssion", "529": "Ġsup", "530": "âĢľ", "531": "Ġdec", "532": "Ġser", "533": "Ġbac", "534": "Ġpres", "535": "Ġel", "536": "Ġmos", "537": "Ġbet", "538": "ving", "539": "Ġmost", "540": "Ġback", "541": "Ġsuc", "542": "Ġstate", "543": "Ġpri", "544": "Ġem", "545": "Ġfou", "546": "ĠâĢĵ", "547": "Ġam", "548": "Ġdid", "549": "Ġwan", "550": "Ġdu", "551": "Ġfac", "552": "ines", "553": "Ġexpe", "554": "ration", "555": "Ġway", "556": "Ġfl", "557": "Ġtak", "558": "Ġtake", "559": "ming", "560": "ĠâĢĶ", "561": "Ġhu", "562": "Ġact", "563": "Ġbecau", "564": "Ġbecaus", "565": "Ġbecause", "566": "Ġwant", "567": "Ġpi", "568": "ying", "569": "Ġinv", "570": "Ġn", "571": "Ġno", "572": "Ġne", "573": "Ġnot", "574": "Ġnew", "575": "Ġna", "576": "Ġnow", "577": "Ġnee", "578": "Ġtea", "579": "Ġind", "580": "Ġmil", "581": "ond", "582": "Ġthro", "583": "Ġneed", "584": "ton", "585": "Ġsur", "586": "Ġwr", "587": "Ġloo", "588": "Ġstar", "589": "Ġstu", "590": "Ġtoo", "591": "ection", "592": "Ġmea", "593": "Ġevery", "594": "Ġhel", "595": "Ġsupp", "596": "Ġthes", "597": "tain", "598": "Ġthese", "599": "inal", "600": "Ġinf", "601": "Ġwher", "602": "Ġwhere", "603": "Ġshow", "604": "Ġrig", "605": "Ġthre", "606": "ationa", "607": "ational", "608": "Ġwel", "609": "Ġbeing", "610": "Ġmar", "611": "Ġincl", "612": "Ġadd", "613": "Ġnu", "614": "Ġday", "615": "Ġdon", "616": "Ġcontr", "617": "Ġhig", "618": "Ġhigh", "619": "inu", "620": "Ġinclu", "621": "Ġrem", "622": "Ġrigh", "623": "Ġright", "624": "Ġmay", "625": "Ġdef", "626": "Ġthen", "627": "Ġmany", "628": "Ġg", "629": "Ġgo", "630": "Ġgr", "631": "Ġge", "632": "Ġga", "633": "Ġget", "634": "Ġgro", "635": "Ġgi", "636": "Ġgam", "637": "Ġgame", "638": "Ġgu", "639": "Ġdif", "640": "Ġdiff", "641": "Ġshou", "642": "ince", "643": "Ġrepo", "644": "Ġlas", "645": "nding", "646": "Ġsti", "647": "Ġreg", "648": "Ġthrou", "649": "Ġthroug", "650": "Ġthrough", "651": "Ġrece", "652": "Ġph", "653": "Ġrepor", "654": "wing", "655": "Ġsea", "656": "Ġsy", "657": "Ġoffi", "658": "Ġdev", "659": "Ġoffic", "660": "Ġshoul", "661": "Ġshould", "662": "Ġdow", "663": "Ġass", "664": "Ġthing", "665": "Ġdown", "666": "Ġthos", "667": "Ġthose", "668": "lion", "669": "Ġmuc", "670": "Ġmuch", "671": "Ġlast", "672": "Ġbel", "673": "Ġsen", "674": "Ġpub", "675": "ating", "676": "Ġgen", "677": "Ġwell", "678": "ution", "679": "Ġpubl", "680": "Ġpubli", "681": "Ġreport", "682": "Ġdea", "683": "Ġdoe", "684": "Ġdoes", "685": "Ġpas", "686": "Ġthink", "687": "Ġau", "688": "Ġthou", "689": "Ġgov", "690": "Ġlong", "691": "Ġgove", "692": "Ġgover", "693": "Ġgrou", "694": "Ġes", "695": "Ġbef", "696": "Ġform", "697": "ainst", "698": "Ġsuppo", "699": "Ġbefo", "700": "Ġbefor", "701": "Ġbefore", "702": "Ġgre", "703": "inis", "704": "Ġmad", "705": "Ġgovern", "706": "Ġprov", "707": "ĠT", "708": "ĠTh", "709": "ĠThe", "710": "ĠTr", "711": "ĠThi", "712": "ĠThis", "713": "ĠTo", "714": "Ġplan", "715": "Ġend", "716": "Ġbas", "717": "ption", "718": "Ġmade", "719": "Ġteam", "720": "ron", "721": "Ġlat", "722": "Ġsam", "723": "Ġstor", "724": "Ġsuch", "725": "ĠI", "726": "ĠIn", "727": "ĠIt", "728": "Ġgoo", "729": "Ġsm", "730": "Ġreco", "731": "âĢĶ", "732": "Ġwee", "733": "Ġgoing", "734": "Ġbot", "735": "Ġworl", "736": "Ġworld", "737": "Ġmov", "738": "Ġstud", "739": "Ġgood", "740": "ĠTe", "741": "Ġpolic", "742": "Ġprob", "743": "Ġef", "744": "Ġsub", "745": "Ġfee", "746": "Ġref", "747": "Ġmat", "748": "Ġeff", "749": "Ġsha", "750": "Ġweek", "751": "Ġagainst", "752": "Ġfil", "753": "ĠS", "754": "ĠSt", "755": "ĠSe", "756": "ĠSo", "757": "ĠSa", "758": "ĠSh", "759": "ĠSta", "760": "ĠSu", "761": "Ġset", "762": "Ġsl", "763": "Ġear", "764": "ping", "765": "Ġent", "766": "Ġtu", "767": "ering", "768": "Ġwhil", "769": "Ġplaye", "770": "Ġsig", "771": "Ġstil", "772": "Ġgovernm", "773": "Ġgovernme", "774": "Ġgovernmen", "775": "Ġgovernment", "776": "Ġstill", "777": "Ġacco", "778": "Ġpoint", "779": "Ġlate", "780": "Ġwhile", "781": "Ġsuppor", "782": "Ġstart", "783": "Ġprod", "784": "Ġconc", "785": "Ġsays", "786": "Ġprodu", "787": "cation", "788": "Ġconf", "789": "Ġfre", "790": "Ġdiffe", "791": "Ġdiffer", "792": "Ġlook", "793": "Ġgiv", "794": "Ġrev", "795": "Ġgive", "796": "Ġinst", "797": "Ġsou", "798": "Ġresp", "799": "Ġsim", "800": "ision", "801": "lling", "802": "Ġserv", "803": "Ġsame", "804": "Ġdiffere", "805": "ĠTru", "806": "Ġbetw", "807": "Ġbetwe", "808": "Ġbetwee", "809": "Ġthoug", "810": "Ġthough", "811": "Ġbetween", "812": "Ġspec", "813": "Ġaw", "814": "Ġdifferen", "815": "Ġlaw", "816": "Ġmus", "817": "rding", "818": "ĠSc", "819": "Ġed", "820": "Ġdisc", "821": "Ġgra", "822": "Ġfol", "823": "Ġnum", "824": "Ġtri", "825": "Ġav", "826": "Ġhom", "827": "ging", "828": "Ġhar", "829": "Ġhan", "830": "ĠA", "831": "ĠAn", "832": "ĠAm", "833": "ĠAl", "834": "ĠAnd", "835": "ĠAme", "836": "ĠAmer", "837": "ĠAmeri", "838": "ĠAmeric", "839": "ĠAmerica", "840": "ĠAs", "841": "ĠAr", "842": "Ġhelp", "843": "Ġsupport", "844": "Ġaro", "845": "ins", "846": "Ġtran", "847": "Ġfun", "848": "Ġter", "849": "Ġrun", "850": "Ġtrans", "851": "Ġplac", "852": "Ġext", "853": "Ġarou", "854": "Ġhere", "855": "Ġthree", "856": "Ġmem", "857": "Ġaroun", "858": "Ġaround", "859": "Ġmed", "860": "using", "861": "Ġsys", "862": "Ġfoun", "863": "nin", "864": "Ġlif", "865": "Ġsyst", "866": "Ġbro", "867": "Ġwar", "868": "Ġsyste", "869": "Ġfound", "870": "Ġsystem", "871": "Ġsch", "872": "ĠC", "873": "ĠCo", "874": "ĠCh", "875": "ĠCa", "876": "ĠCl", "877": "ĠCom", "878": "Ġreall", "879": "Ġgene", "880": "Ġreally", "881": "Ġret", "882": "Ġplace", "883": "Ġexa", "884": "Ġmod", "885": "Ġsign", "886": "Ġexc", "887": "onth", "888": "Ġgroup", "889": "Ġdat", "890": "ĠIs", "891": "Ġtol", "892": "Ġboth", "893": "cond", "894": "Ġsec", "895": "sting", "896": "ĠSp", "897": "ĠStat", "898": "Ġfam", "899": "Ġgrea", "900": "ĠTha", "901": "Ġmen", "902": "Ġsit", "903": "Ġnumb", "904": "Ġmean", "905": "Ġhome", "906": "Ġgreat", "907": "Ġhand", "908": "Ġmedi", "909": "Ġpow", "910": "Ġnumbe", "911": "Ġnumber", "912": "Ġhap", "913": "Ġadv", "914": "ĠTrum", "915": "Ġwat", "916": "Ġbui", "917": "Ġbuil", "918": "Ġlead", "919": "Ġsol", "920": "Ġtal", "921": "Ġdir", "922": "Ġhapp", "923": "Ġexper", "924": "ĠTrump", "925": "ĠThey", "926": "Ġperson", "927": "Ġwom", "928": "Ġlit", "929": "Ġy", "930": "Ġyo", "931": "Ġyou", "932": "Ġye", "933": "Ġyea", "934": "Ġyear", "935": "Ġyour", "936": "Ġyears", "937": "Ġdep", "938": "inist", "939": "Ġrat", "940": "Ġawa", "941": "Ġinve", "942": "Ġmove", "943": "Ġprop", "944": "Ġpowe", "945": "Ġpower", "946": "Ġpublic", "947": "ĠState", "948": "Ġparti", "949": "Ġduring", "950": "Ġlife", "951": "lation", "952": "Ġfact", "953": "Ġprot", "954": "Ġfoll", "955": "Ġai", "956": "Ġmonth", "957": "Ġdeve", "958": "Ġbig", "959": "Ġdevel", "960": "Ġfig", "961": "Ġdevelo", "962": "Ġfollo", "963": "Ġmig", "964": "Ġsince", "965": "Ġtold", "966": "Ġtru", "967": "ĠAmerican", "968": "ĠAu", "969": "Ġprog", "970": "Ġpolit", "971": "Ġspeci", "972": "Ġhou", "973": "Ġproduc", "974": "Ġlar", "975": "Ġfew", "976": "stion", "977": "Ġperc", "978": "Ġleg", "979": "Ġprogr", "980": "Ġtur", "981": "Ġspo", "982": "Ġaut", "983": "Ġincr", "984": "Ġage", "985": "Ġlarg", "986": "Ġlarge", "987": "Ġincre", "988": "Ġpoliti", "989": "Ġpolitic", "990": "Ġblo", "991": "mon", "992": "Ġart", "993": "Ġfar", "994": "Ġexpl", "995": "estion", "996": "Ġperce", "997": "Ġdet", "998": "Ġbeli", "999": "Ġano", "1000": "Ġmillion", "1001": "Ġwri", "1002": "Ġplayer", "1003": "Ġbelie", "1004": "Ġlot", "1005": "mation", "1006": "Ġproc", "1007": "Ġreq", "1008": "Ġsma", "1009": "Ġrequ", "1010": "Ġboo", "1011": "Ġnam", "1012": "Ġappe", "1013": "Ġname", "1014": "ĠTa", "1015": "Ġprovi", "1016": "ĠM", "1017": "ĠMa", "1018": "ĠMi", "1019": "ĠMo", "1020": "ĠMe", "1021": "ĠMar", "1022": "Ġsoc", "1023": "Ġput", "1024": "ĠIf", "1025": "tation", "1026": "Ġsev", "1027": "Ġanot", "1028": "Ġanoth", "1029": "Ġanothe", "1030": "Ġanother", "1031": "Ġseve", "1032": "ink", "1033": "Ġsomething", "1034": "Ġrele", "1035": "Ġbes", "1036": "Ġbeg", "1037": "Ġban", "1038": "Ġloc", "1039": "Ġdifferent", "1040": "Ġste", "1041": "Ġconce", "1042": "Ġallo", "1043": "ĠCha", "1044": "Ġconsi", "1045": "Ġfami", "1046": "Ġfamil", "1047": "Ġtre", "1048": "Ġni", "1049": "Ġbus", "1050": "ĠMu", "1051": "Ġwea", "1052": "Ġcontinu", "1053": "Ġmark", "1054": "Ġpat", "1055": "Ġposs", "1056": "Ġthings", "1057": "line", "1058": "Ġresu", "1059": "Ġatte", "1060": "Ġdevelop", "1061": "Ġmet", "1062": "Ġappea", "1063": "Ġappr", "1064": "Ġdefe", "1065": "ĠCr", "1066": "Ġproce", "1067": "iness", "1068": "Ġmigh", "1069": "Ġmight", "1070": "Ġfea", "1071": "Ġeac", "1072": "Ġeach", "1073": "Ġinves", "1074": "Ġinvest", "1075": "Ġnev", "1076": "Ġfai", "1077": "Ġneve", "1078": "Ġnever", "1079": "Ġnex", "1080": "Ġmis", "1081": "Ġearl", "1082": "uestion", "1083": "Ġnext", "1084": "aine", "1085": "Ġmode", "1086": "Ġsecond", "1087": "Ġgot", "1088": "Ġoffe", "1089": "Ġfoo", "1090": "Ġseason", "1091": "Ġfree", "1092": "ĠCou", "1093": "Ġinfo", "1094": "Ġbeco", "1095": "Ġindi", "1096": "ĠâĢĺ", "1097": "Ġbest", "1098": "Ġsel", "1099": "Ġdem", "1100": "Ġstre", "1101": "Ġliv", "1102": "Ġacce", "1103": "Ġsoci", "1104": "ĠThat", "1105": "Ġlet", "1106": "Ġlive", "1107": "ession", "1108": "cono", "1109": "Ġhead", "1110": "Ġtop", "1111": "Ġele", "1112": "Ġatta", "1113": "Ġattac", "1114": "question", "1115": "Ġpercen", "1116": "Ġpercent", "1117": "Ġbre", "1118": "conom", "1119": "Ġlan", "1120": "Ġrese", "1121": "Ġexperi", "1122": "ĠAf", "1123": "Ġbase", "1124": "ĠB", "1125": "ĠBu", "1126": "ĠBa", "1127": "ĠBr", "1128": "ĠBe", "1129": "ĠBut", "1130": "ĠBo", "1131": "ĠBi", "1132": "Ġgl", "1133": "Ġcontro", "1134": "Ġquestion", "1135": "ĠBl", "1136": "shing", "1137": "Ġdata", "1138": "rmation", "1139": "Ġdire", "1140": "Ġles", "1141": "Ġperf", "1142": "Ġoffice", "1143": "Ġread", "1144": "Ġfind", "1145": "Ġgener", "1146": "Ġresul", "1147": "Ġhard", "1148": "Ġincrea", "1149": "Ġwitho", "1150": "Ġhum", "1151": "Ġwithou", "1152": "Ġwithout", "1153": "Ġdesi", "1154": "dition", "1155": "Ġincluding", "1156": "Ġconv", "1157": "Ġprovid", "1158": "Ġprovide", "1159": "Ġmemb", "1160": "Ġeas", "1161": "Ġevent", "1162": "Ġpost", "1163": "Ġdirec", "1164": "Ġseri", "1165": "Ġprobl", "1166": "Ġproble", "1167": "Ġproblem", "1168": "ĠSi", "1169": "Ġful", "1170": "Ġhappe", "1171": "oney", "1172": "Ġmembe", "1173": "Ġmember", "1174": "Ġlos", "1175": "Ġask", "1176": "Ġran", "1177": "Ġseem", "1178": "Ġrelea", "1179": "Ġdist", "1180": "Ġinclud", "1181": "Ġinclude", "1182": "Ġbeh", "1183": "Ġscho", "1184": "Ġdirect", "1185": "Ġbeliev", "1186": "Ġlitt", "1187": "Ġfour", "1188": "Ġlev", "1189": "ntion", "1190": "Ġbett", "1191": "Ġpop", "1192": "ĠTher", "1193": "Ġtel", "1194": "Ġbelieve", "1195": "Ġbette", "1196": "Ġbetter", "1197": "Ġpartic", "1198": "Ġdri", "1199": "Ġforc", "1200": "Ġrecen", "1201": "Ġrecent", "1202": "Ġintere", "1203": "ĠTi", "1204": "rtain", "1205": "Ġturn", "1206": "Ġlittl", "1207": "Ġlittle", "1208": "Ġdra", "1209": "Ġbil", "1210": "Ġappro", "1211": "Ġann", "1212": "Ġexam", "1213": "Ġdel", "1214": "ertain", "1215": "Ġleve", "1216": "Ġprev", "1217": "Ġnea", "1218": "Ġpic", "1219": "ĠThere", "1220": "Ġtec", "1221": "Ġpossi", "1222": "Ġpossib", "1223": "ĠShe", "1224": "Ġtech", "1225": "Ġemp", "1226": "ĠInd", "1227": "Ġlef", "1228": "Ġreleas", "1229": "Ġleft", "1230": "Ġrelease", "1231": "ĠAp", "1232": "Ġmarke", "1233": "Ġhear", "1234": "ĠP", "1235": "ĠPa", "1236": "ĠPr", "1237": "ĠPo", "1238": "ĠPe", "1239": "ĠPre", "1240": "ĠPar", "1241": "ĠPro", "1242": "ĠPres", "1243": "ona", "1244": "Ġresult", "1245": "Ġred", "1246": "Ġarr", "1247": "Ġpresi", "1248": "ching", "1249": "Ġactu", "1250": "Ġfull", "1251": "Ġdidn", "1252": "Ġactua", "1253": "Ġpresid", "1254": "Ġoffici", "1255": "Ġpreside", "1256": "ĠTu", "1257": "Ġpolice", "1258": "Ġrest", "1259": "Ġofficia", "1260": "Ġbla", "1261": "Ġeffe", "1262": "Ġactual", "1263": "Ġofficial", "1264": "Ġcontinue", "1265": "Ġeffec", "1266": "Ġeffect", "1267": "ĠAt", "1268": "Ġpresiden", "1269": "Ġhol", "1270": "Ġprogra", "1271": "Ġprogram", "1272": "Ġusing", "1273": "Ġnear", "1274": "Ġlis", "1275": "ĠCar", "1276": "Ġallow", "1277": "Ġpass", "1278": "Ġlist", "1279": "Ġtow", "1280": "Ġpur", "1281": "Ġspa", "1282": "Ġbecom", "1283": "Ġprote", "1284": "Ġbecome", "1285": "Ġforce", "1286": "Ġsk", "1287": "ĠMan", "1288": "Ġeconom", "1289": "Ġnews", "1290": "Ġstan", "1291": "ĠCan", "1292": "Ġlow", "1293": "Ġlevel", "1294": "Ġtou", "1295": "Ġservi", "1296": "ĠPl", "1297": "Ġsmal", "1298": "Ġsmall", "1299": "Ġschoo", "1300": "Ġwrit", "1301": "Ġservic", "1302": "Ġprese", "1303": "Ġscr", "1304": "Ġv", "1305": "Ġvi", "1306": "Ġve", "1307": "Ġver", "1308": "Ġva", "1309": "Ġvo", "1310": "Ġvery", "1311": "Ġvot", "1312": "Ġvote", "1313": "Ġval", "1314": "Ġschool", "1315": "Ġfri", "1316": "Ġservice", "1317": "ĠAc", "1318": "Ġconte", "1319": "Ġattack", "1320": "Ġarea", "1321": "Ġless", "1322": "ined", "1323": "Ġappear", "1324": "Ġacti", "1325": "Ġactiv", "1326": "Ġsimp", "1327": "Ġwome", "1328": "Ġsimpl", "1329": "Ġwomen", "1330": "Ġproces", "1331": "Ġarti", "1332": "Ġprom", "1333": "Ġhist", "1334": "Ġalr", "1335": "Ġrecei", "1336": "Ġpresident", "1337": "Ġhuma", "1338": "Ġbrea", "1339": "Ġhuman", "1340": "Ġsid", "1341": "Ġgenera", "1342": "Ġvar", "1343": "ĠInt", "1344": "Ġhisto", "1345": "ino", "1346": "Ġside", "1347": "cing", "1348": "Ġhistor", "1349": "Ġhappen", "1350": "Ġheal", "1351": "Ġalre", "1352": "Ġalrea", "1353": "Ġalread", "1354": "Ġalready", "1355": "Ġeno", "1356": "Ġsw", "1357": "Ġstra", "1358": "ĠPh", "1359": "Ġreason", "1360": "Ġty", "1361": "Ġwhy", "1362": "Ġmaj", "1363": "Ġloca", "1364": "Ġmoney", "1365": "ĠCe", "1366": "Ġalw", "1367": "Ġalwa", "1368": "Ġalway", "1369": "Ġconsid", "1370": "Ġalways", "1371": "Ġlater", "1372": "Ġexpec", "1373": "Ġtechn", "1374": "ones", "1375": "Ġbusiness", "1376": "ĠCol", "1377": "Ġmajo", "1378": "Ġmajor", "1379": "Ġstand", "1380": "Ġedi", "1381": "Ġleas", "1382": "Ġproj", "1383": "ĠIr", "1384": "Ġrequi", "1385": "ĠBri", "1386": "Ġcontrol", "1387": "Ġinformation", "1388": "Ġagain", "1389": "Ġexperie", "1390": "Ġexperien", "1391": "ĠChr", "1392": "Ġabl", "1393": "kind", "1394": "Ġdesig", "1395": "Ġsever", "1396": "Ġmain", "1397": "Ġforme", "1398": "ĠCi", "1399": "Ġprof", "1400": "Ġdefen", "1401": "Ġable", "1402": "Ġstory", "1403": "Ġbook", "1404": "ĠW", "1405": "ĠWe", "1406": "ĠWh", "1407": "ĠWa", "1408": "ĠWi", "1409": "ĠWo", "1410": "ĠWhi", "1411": "Ġpopu", "1412": "ĠWhe", "1413": "Ġhealt", "1414": "Ġhealth", "1415": "ĠAd", "1416": "Ġpay", "1417": "Ġpast", "1418": "Ġbea", "1419": "Ġpra", "1420": "Ġreporte", "1421": "Ġvis", "1422": "Ġaway", "1423": "Ġpolitica", "1424": "Ġauth", "1425": "Ġpolitical", "1426": "Ġadm", "1427": "Ġmust", "1428": "Ġshar", "1429": "Ġline", "1430": "Ġei", "1431": "ĠH", "1432": "ĠHe", "1433": "ĠHo", "1434": "ĠHa", "1435": "ĠHi", "1436": "ĠHow", "1437": "ĠHu", "1438": "inan", "1439": "Ġdesign", "1440": "Ġest", "1441": "Ġmana", "1442": "ĠSan", "1443": "Ġfeel", "1444": "Ġdoesn", "1445": "Ġwin", "1446": "Ġprocess", "1447": "ĠInte", "1448": "Ġappl", "1449": "Ġproje", "1450": "Ġrespons", "1451": "ctions", "1452": "Ġretu", "1453": "Ġprojec", "1454": "inte", "1455": "Ġleast", "1456": "Ġretur", "1457": "Ġmas", "1458": "Ġexperienc", "1459": "Ġexperience", "1460": "Ġfrie", "1461": "Ġshi", "1462": "Ġfigh", "1463": "Ġvie", "1464": "Ġtyp", "1465": "Ġproject", "1466": "Ġdays", "1467": "Ġlov", "1468": "Ġfinal", "1469": "Ġnor", "1470": "Ġair", "1471": "Ġaff", "1472": "Ġsucc", "1473": "Ġedit", "1474": "Ġconst", "1475": "Ġpossibl", "1476": "Ġsecu", "1477": "Ġlove", "1478": "Ġenou", "1479": "Ġenoug", "1480": "Ġenough", "1481": "Ġreve", "1482": "Ġextr", "1483": "Ġworke", "1484": "Ġrou", "1485": "Ġkind", "1486": "Ġrequir", "1487": "Ġrequire", "1488": "Ġmaking", "1489": "oming", "1490": "Ġbit", "1491": "Ġtes", "1492": "Ġexpect", "1493": "Ġexamp", "1494": "Ġexampl", "1495": "Ġexample", "1496": "ĠD", "1497": "ĠDe", "1498": "ĠDa", "1499": "ĠDi", "1500": "ĠDo", "1501": "ĠDr", "1502": "ĠHou", "1503": "Ġtest", "1504": "ication", "1505": "Ġface", "1506": "Ġant", "1507": "Ġfamily", "1508": "Ġfrien", "1509": "Ġfriend", "1510": "ĠDu", "1511": "âĢ¦", "1512": "Ġfan", "1513": "Ġleade", "1514": "Ġleader", "1515": "Ġdoc", "1516": "ĠChri", "1517": "certain", "1518": "ĠChris", "1519": "Ġten", "1520": "Ġtax", "1521": "Ġvid", "1522": "Ġresea", "1523": "ĠComm", "1524": "Ġworking", "1525": "Ġresear", "1526": "Ġhal", "1527": "ĠWor", "1528": "Ġvide", "1529": "tin", "1530": "Ġris", "1531": "Ġvideo", "1532": "ĠSou", "1533": "Ġrecor", "1534": "Ġpresen", "1535": "Ġrecord", "1536": "Ġvari", "1537": "Ġsucce", "1538": "Ġdeb", "1539": "ĠR", "1540": "ĠRe", "1541": "ĠRo", "1542": "ĠRa", "1543": "ĠRu", "1544": "ĠRi", "1545": "ĠRep", "1546": "ĠRus", "1547": "ĠRuss", "1548": "ĠRepu", "1549": "ĠRepub", "1550": "ĠRepubl", "1551": "ĠRepubli", "1552": "ĠRepublic", "1553": "Ġreceiv", "1554": "Ġtook", "1555": "Ġautho", "1556": "Ġreceive", "1557": "Ġshor", "1558": "Ġ1", "1559": "Ġ19", "1560": "Ġ10", "1561": "Ġ12", "1562": "Ġ18", "1563": "Ġ15", "1564": "Ġauthor", "1565": "Ġthought", "1566": "Ġagr", "1567": "Ġresearc", "1568": "Ġresearch", "1569": "Ġintern", "1570": "Ġincreas", "1571": "Ġfeat", "1572": "Ġincrease", "1573": "Ġoft", "1574": "Ġfore", "1575": "Ġview", "1576": "Ġdeal", "1577": "Ġmedia", "1578": "Ġactuall", "1579": "Ġvalu", "1580": "Ġactually", "1581": "Ġmarket", "1582": "cking", "1583": "Ġofte", "1584": "Ġoften", "1585": "Ġwal", "1586": "Ġrol", "1587": "Ġformer", "1588": "Ġterm", "1589": "ĠAll", "1590": "Ġmanag", "1591": "Ġmanage", "1592": "Ġexe", "1593": "Ġwate", "1594": "Ġwater", "1595": "ission", "1596": "Ġagen", "1597": "Ġconside", "1598": "Ġ2", "1599": "Ġ20", "1600": "Ġ201", "1601": "Ġ200", "1602": "Ġwon", "1603": "aining", "1604": "Ġaccording", "1605": "Ġmee", "1606": "Ġflo", "1607": "Ġsecur", "1608": "Ġterr", "1609": "Ġtimes", "1610": "ĠCu", "1611": "ĠHous", "1612": "Ġgames", "1613": "Ġ11", "1614": "Ġperfo", "1615": "Ġperfor", "1616": "Ġstru", "1617": "Ġstude", "1618": "Ġstuden", "1619": "Ġstudent", "1620": "Ġtod", "1621": "Ġreturn", "1622": "Ġfra", "1623": "zation", "1624": "Ġsocia", "1625": "ization", "1626": "Ġrepr", "1627": "Ġsocial", "1628": "Ġreli", "1629": "Ġenti", "1630": "Ġsing", "1631": "Ġinvo", "1632": "Ġsens", "1633": "Ġfla", "1634": "Ġsug", "1635": "ĠSte", "1636": "Ġinteres", "1637": "Ġbat", "1638": "Ġconfi", "1639": "ĠMc", "1640": "Ġlikel", "1641": "Ġword", "1642": "Ġ(", "1643": "Ġnig", "1644": "Ġinterest", "1645": "ĠF", "1646": "ĠFo", "1647": "ĠFr", "1648": "ĠFor", "1649": "ĠFa", "1650": "ĠFi", "1651": "ĠFe", "1652": "ĠFl", "1653": "oin", "1654": "Ġ199", "1655": "Ġresi", "1656": "ĠSy", "1657": "Ġshort", "1658": "ĠDem", "1659": "Ġben", "1660": "Ġrai", "1661": "Ġhop", "1662": "Ġnat", "1663": "ĠMay", "1664": "ĠTw", "1665": "Ġlocal", "1666": "ained", "1667": "ĠFra", "1668": "ĠRussi", "1669": "Ġdoing", "1670": "ĠRussia", "1671": "Ġoffer", "1672": "Ġnigh", "1673": "Ġsci", "1674": "Ġplayers", "1675": "Ġroo", "1676": "ĠPresi", "1677": "ĠPresid", "1678": "iting", "1679": "Ġlear", "1680": "Ġnight", "1681": "Ġfeatu", "1682": "Ġtoda", "1683": "Ġbal", "1684": "ĠPreside", "1685": "Ġconve", "1686": "ĠPresiden", "1687": "coming", "1688": "Ġrac", "1689": "Ġbar", "1690": "ĠWar", "1691": "Ġtoday", "1692": "Ġsca", "1693": "Ġfollow", "1694": "Ġearly", "1695": "Ġseen", "1696": "Ġhaving", "1697": "Ġsevera", "1698": "Ġfut", "1699": "Ġvic", "1700": "Ġacr", "1701": "Ġwhet", "1702": "off", "1703": "Ġstop", "1704": "ĠPresident", "1705": "Ġwheth", "1706": "Ġwhethe", "1707": "Ġwhether", "1708": "Ġpot", "1709": "Ġseveral", "1710": "Ġalt", "1711": "Ġtalk", "1712": "Ġmili", "1713": "ĠMic", "1714": "Ġwen", "1715": "Ġaction", "1716": "Ġfel", "1717": "Ġfilm", "1718": "Ġfiv", "1719": "Ġfive", "1720": "Ġmilit", "1721": "Ġwent", "1722": "Ġsubs", "1723": "ĠWil", "1724": "Ġeq", "1725": "Ġsure", "1726": "Ġyoun", "1727": "Ġyoung", "1728": "Ġexi", "1729": "Ġequ", "1730": "Ġdesc", "1731": "inat", "1732": "Ġfutu", "1733": "Ġfutur", "1734": "Ġlikely", "1735": "Ġconsider", "1736": "Ġanno", "1737": "Ġmembers", "1738": "Ġeng", "1739": "Ġene", "1740": "Ġcertain", "1741": "Ġmot", "1742": "Ġscie", "1743": "Ġscien", "1744": "Ġarg", "1745": "Ġcontra", "1746": "Ġindu", "1747": "Ġdone", "1748": "Ġava", "1749": "ĠMr", "1750": "Ġinvol", "1751": "ĠStr", "1752": "Ġdriv", "1753": "ĠStates", "1754": "Ġdrive", "1755": "ĠN", "1756": "ĠNo", "1757": "ĠNe", "1758": "ĠNew", "1759": "ĠNa", "1760": "ĠNor", "1761": "Ġalong", "1762": "ĠSen", "1763": "Ġfuture", "1764": "Ġmonths", "1765": "Ġsex", "1766": "ĠHar", "1767": "Ġhour", "1768": "Ġagre", "1769": "ĠNi", "1770": "Ġrela", "1771": "ĠRepublica", "1772": "Ġagree", "1773": "ĠRepublican", "1774": "Ġshare", "1775": "Ġhope", "1776": "Ġperform", "1777": "inanc", "1778": "Ġlau", "1779": "Ġlig", "1780": "Ġfire", "1781": "Ġple", "1782": "Ġstarte", "1783": "Ġonc", "1784": "Ġwithin", "1785": "Ġdecision", "1786": "oni", "1787": "Ġargu", "1788": "Ġgeneral", "1789": "Ġhit", "1790": "Ġdisp", "1791": "Ġamong", "1792": "Ġinsi", "1793": "âĢĵ", "1794": "Ġonce", "1795": "Ġregu", "1796": "Ġbod", "1797": "Ġhos", "1798": "Ġinvesti", "1799": "Ġsucces", "1800": "ginal", "1801": "Ġinvestig", "1802": "ĠIndi", "1803": "Ġsuccess", "1804": "Ġpossible", "1805": "Ġreali", "1806": "Ġsus", "1807": "Ġconcer", "1808": "Ġvio", "1809": "ĠWhen", "1810": "Ġvalue", "1811": "Ġpress", "1812": "Ġpriv", "1813": "Ġmilita", "1814": "Ġelec", "1815": "Ġligh", "1816": "Ġmeans", "1817": "Ġsal", "1818": "ĠInter", "1819": "Ġgoa", "1820": "Ġavai", "1821": "Ġacro", "1822": "Ġavail", "1823": "Ġana", "1824": "Ġnote", "1825": "Ġdiv", "1826": "zing", "1827": "Ġdisa", "1828": "ĠWes", "1829": "Ġgrow", "1830": "Ġyet", "1831": "Ġelect", "1832": "Ġacros", "1833": "Ġacross", "1834": "ĠMor", "1835": "ions", "1836": "ĠPu", "1837": "ĠWha", "1838": "Ġrul", "1839": "Ġrule", "1840": "Ġrate", "1841": "Ġanti", "1842": "Ġstrong", "1843": "Ġmid", "1844": "Ġavaila", "1845": "Ġavailab", "1846": "Ġsugg", "1847": "ĠFre", "1848": "Ġtrea", "1849": "Ġconse", "1850": "Ġmakes", "1851": "ĠG", "1852": "ĠGo", "1853": "ĠGr", "1854": "ĠGe", "1855": "ĠGa", "1856": "ĠGre", "1857": "ĠGu", "1858": "Ġfeatur", "1859": "Ġfeature", "1860": "Ġproduct", "1861": "Ġtell", "1862": "ĠDemo", "1863": "Ġevi", "1864": "ĠNort", "1865": "Ġfal", "1866": "Ġ2016", "1867": "Ġaske", "1868": "Ġet", "1869": "iron", "1870": "ĠNorth", "1871": "Ġasked", "1872": "Ġdeci", "1873": "Ġreported", "1874": "Ġbring", "1875": "ĠCoun", "1876": "Ġgiven", "1877": "ĠHouse", "1878": "Ġdete", "1879": "Ġnational", "1880": "ening", "1881": "Ġthrea", "1882": "Ġserve", "1883": "Ġgoal", "1884": "Ġfas", "1885": "ĠHer", "1886": "ĠFran", "1887": "Ġreac", "1888": "ĠCen", "1889": "Ġlim", "1890": "Ġinsta", "1891": "lution", "1892": "ĠCal", "1893": "Ġweb", "1894": "ĠWhat", "1895": "Ġgetting", "1896": "Ġannou", "1897": "Ġannoun", "1898": "ĠDemoc", "1899": "'s", "1900": "ĠDemocr", "1901": "Ġexte", "1902": "ĠSch", "1903": "Ġarm", "1904": "ĠDemocra", "1905": "ĠPol", "1906": "Ġmatt", "1907": "onst", "1908": "Ġbri", "1909": "Ġinterv", "1910": "ĠIns", "1911": "Ġsco", "1912": "inn", "1913": "Ġsent", "1914": "inut", "1915": "ĠChrist", "1916": "Ġnet", "1917": "ĠWest", "1918": "Ġwrite", "1919": "Ġsour", "1920": "Ġlight", "1921": "Ġdescr", "1922": "Ġparticu", "1923": "Ġtog", "1924": "Ġparticul", "1925": "ĠChi", "1926": "Ġdescri", "1927": "Ġparticula", "1928": "Ġnon", "1929": "Ġmatte", "1930": "ĠPi", "1931": "Ġposition", "1932": "ination", "1933": "Ġfur", "1934": "inute", "1935": "onde", "1936": "eration", "1937": "Ġalm", "1938": "ĠBro", "1939": "Ġparticular", "1940": "Ġdie", "1941": "Ġsaf", "1942": "ĠSha", "1943": "Ġeconomi", "1944": "Ġfat", "1945": "Ġmatter", "1946": "Ġstarted", "1947": "Ġstri", "1948": "Ġdeat", "1949": "Ġdeath", "1950": "ĠL", "1951": "ĠLa", "1952": "ĠLe", "1953": "ĠLi", "1954": "ĠLo", "1955": "Ġpric", "1956": "Ġavailabl", "1957": "Ġavailable", "1958": "iginal", "1959": "riginal", "1960": "Ġspac", "1961": "Ġsafe", "1962": "Ġfight", "1963": "uction", "1964": "ĠCit", "1965": "ĠBar", "1966": "Ġhighe", "1967": "Ġland", "1968": "Ġbased", "1969": "Ġhous", "1970": "Ġhouse", "1971": "Ġindus", "1972": "Ġindust", "1973": "Ġviol", "1974": "Ġindustr", "1975": "ĠDemocrat", "1976": "Ġfollowing", "1977": "Ġaccou", "1978": "Ġempl", "1979": "Ġaccoun", "1980": "Ġago", "1981": "Ġrepre", "1982": "ĠCent", "1983": "Ġspace", "1984": "Ġ2015", "1985": "Ġemplo", "1986": "ĠTim", "1987": "Ġhistory", "1988": "Ġexce", "1989": "Ġprice", "1990": "Ġmom", "1991": "Ġnatu", "1992": "Ġnatur", "1993": "ĠSout", "1994": "ĠPla", "1995": "Ġparty", "1996": "ĠSouth", "1997": "Ġregul", "1998": "Ġspee", "1999": "Ġrepres", "2000": "Ġsite", "2001": "ĠIndia", "2002": "Ġserie", "2003": "Ġseries", "2004": "Ġtrying", "2005": "Ġannounc", "2006": "Ġannounce", "2007": "Ġalmo", "2008": "Ġalmos", "2009": "Ġalmost", "2010": "Ġsourc", "2011": "Ġsource", "2012": "Ġglo", "2013": "Ġtoge", "2014": "Ġtoget", "2015": "Ġtogeth", "2016": "Ġtogethe", "2017": "Ġtogether", "2018": "cting", "2019": "Ġstatem", "2020": "Ġstateme", "2021": "Ġstatemen", "2022": "Ġstatement", "2023": "Ġfoc", "2024": "Ġactivi", "2025": "ĠIra", "2026": "ĠCana", "2027": "Ġbor", "2028": "Ġreso", "2029": "Ġproba", "2030": "Ġhalf", "2031": "Ġemploy", "2032": "aint", "2033": "Ġinde", "2034": "Ġprobab", "2035": "Ġsix", "2036": "Ġacces", "2037": "Ġrelat", "2038": "Ġaddition", "2039": "pon", "2040": "Ġprope", "2041": "Ġadde", "2042": "Ġrefe", "2043": "Ġer", "2044": "Ġrefer", "2045": "Ġ16", "2046": "Ġstep", "2047": "Ġpote", "2048": "Ġpho", "2049": "Ġinvolv", "2050": "Ġreprese", "2051": "Ġrepresen", "2052": "Ġprevi", "2053": "Ġinvolve", "2054": "Ġprac", "2055": "Ġpoten", "2056": "Ġpersona", "2057": "Ġdru", "2058": "Ġpract", "2059": "Ġadded", "2060": "Ġbra", "2061": "tting", "2062": "Ġfile", "2063": "ising", "2064": "Ġtype", "2065": "iniste", "2066": "inister", "2067": "Ġmilitar", "2068": "Ġsingl", "2069": "Ġdeli", "2070": "Ġsingle", "2071": "Ġdro", "2072": "Ġanal", "2073": "Ġmes", "2074": "Ġfail", "2075": "Ġenc", "2076": "Ġpotent", "2077": "Ġsecuri", "2078": "Ġsecurit", "2079": "Ġspen", "2080": "Ġtar", "2081": "ĠGi", "2082": "Ġ2014", "2083": "Ġlega", "2084": "Ġlooking", "2085": "Ġsurv", "2086": "Ġproduce", "2087": "Ġpriva", "2088": "inton", "2089": "Ġanything", "2090": "ĠGer", "2091": "Ġindiv", "2092": "Ġfav", "2093": "Ġbuilding", "2094": "Ġindivi", "2095": "Ġaccount", "2096": "Ġconsu", "2097": "Ġmul", "2098": "Ġdistr", "2099": "ĠSun", "2100": "Ġaccess", "2101": "Ġindivid", "2102": "Ġindividu", "2103": "Ġindividua", "2104": "Ġindividual", "2105": "Ġtreat", "2106": "Ġsugge", "2107": "Ġelection", "2108": "Ġsaying", "2109": "Ġfavo", "2110": "ĠE", "2111": "ĠEn", "2112": "ĠEa", "2113": "ĠEu", "2114": "ĠEv", "2115": "ĠEur", "2116": "ĠEuro", "2117": "ĠEl", "2118": "ĠEurop", "2119": "ĠEurope", "2120": "ĠEve", "2121": "ĠEx", "2122": "Ġpor", "2123": "Ġeffo", "2124": "Ġeffor", "2125": "Ġeffort", "2126": "Ġfed", "2127": "Ġ13", "2128": "Ġvisi", "2129": "Ġversion", "2130": "Ġbene", "2131": "Ġwid", "2132": "Ġrole", "2133": "ĠCanad", "2134": "Ġpersonal", "2135": "Ġvict", "2136": "Ġbad", "2137": "Ġthir", "2138": "Ġtaken", "2139": "Ġsimi", "2140": "Ġentir", "2141": "Ġentire", "2142": "Ġsimil", "2143": "Ġpracti", "2144": "ĠMus", "2145": "ĠEng", "2146": "cations", "2147": "Ġsimila", "2148": "rations", "2149": "Ġsimilar", "2150": "Ġspea", "2151": "Ġbehind", "2152": "Ġfund", "2153": "ĠWit", "2154": "inate", "2155": "Ġbur", "2156": "Ġrepl", "2157": "Ġtry", "2158": "Ġmilitary", "2159": "Ġpotenti", "2160": "ony", "2161": "Ġ14", "2162": "Ġsecurity", "2163": "Ġfie", "2164": "Ġpotentia", "2165": "Ġdiscu", "2166": "ĠMarc", "2167": "Ġguy", "2168": "Ġtot", "2169": "Ġpotential", "2170": "Ġphot", "2171": "Ġbasi", "2172": "ression", "2173": "Ġspecia", "2174": "Ġspecial", "2175": "ĠDav", "2176": "Ġproper", "2177": "ĠHis", "2178": "Ġdecid", "2179": "Ġtechno", "2180": "Ġthreat", "2181": "ĠLea", "2182": "Ġdecide", "2183": "Ġstudy", "2184": "Ġpropo", "2185": "Ġrath", "2186": "ĠDep", "2187": "Ġrathe", "2188": "Ġrather", "2189": "Ġdee", "2190": "Ġconcern", "2191": "rson", "2192": "ĠTra", "2193": "ssing", "2194": "Ġpret", "2195": "ĠGoo", "2196": "Ġphoto", "2197": "Ġartic", "2198": "Ġspecif", "2199": "ĠWal", "2200": "Ġprevio", "2201": "Ġpreviou", "2202": "Ġprevious", "2203": "Ġmind", "2204": "Ġpolicy", "2205": "Ġofficer", "2206": "ĠAb", "2207": "Ġwante", "2208": "Ġwanted", "2209": "Ġprobabl", "2210": "Ġblac", "2211": "Ġblack", "2212": "Ġtota", "2213": "Ġmult", "2214": "Ġsum", "2215": "original", "2216": "Ġfood", "2217": "Ġsomeone", "2218": "Ġwhol", "2219": "Ġprim", "2220": "Ġspok", "2221": "Ġtechnol", "2222": "Ġspoke", "2223": "Ġtechnolo", "2224": "Ġmulti", "2225": "Ġtechnolog", "2226": "Ġremo", "2227": "Ġpopul", "2228": "ĠTho", "2229": "ĠEd", "2230": "Ġconn", "2231": "Ġmess", "2232": "Ġpresent", "2233": "ĠIsl", "2234": "tution", "2235": "Ġdeta", "2236": "itution", "2237": "Ġlimi", "2238": "option", "2239": "ĠCor", "2240": "pping", "2241": "Ġminute", "2242": "Ġboa", "2243": "uring", "2244": "Ġrevi", "2245": "Ġasse", "2246": "Ġenv", "2247": "Ġ17", "2248": "Ġattem", "2249": "ĠAus", "2250": "Ġattemp", "2251": "ĠNational", "2252": "Ġbatt", "2253": "ono", "2254": "Ġlearn", "2255": "Ġtaking", "2256": "Ġmodel", "2257": "Ġsigni", "2258": "ĠSer", "2259": "Ġsignif", "2260": "Ġtotal", "2261": "Ġexplo", "2262": "ĠGra", "2263": "ĠAss", "2264": "Ġtro", "2265": "Ġmome", "2266": "Ġmomen", "2267": "Ġmoment", "2268": "Ġpractic", "2269": "Ġ25", "2270": "Ġdevelopm", "2271": "Ġdevelopme", "2272": "Ġdevelopmen", "2273": "Ġdevelopment", "2274": "Ġden", "2275": "Ġlu", "2276": "Ġels", "2277": "ĠIm", "2278": "Ġtowa", "2279": "Ġbody", "2280": "Ġevid", "2281": "Ġtowar", "2282": "Ġtoward", "2283": "Ġevide", "2284": "Ġeviden", "2285": "Ġelse", "2286": "ironm", "2287": "Ġhun", "2288": "ironme", "2289": "ironmen", "2290": "ironment", "2291": "ĠJ", "2292": "ĠJa", "2293": "ĠJu", "2294": "ĠJo", "2295": "ĠJe", "2296": "ĠJoh", "2297": "ĠJohn", "2298": "ĠJan", "2299": "ĠSom", "2300": "Ġfoot", "2301": "ĠFu", "2302": "Ġinj", "2303": "Ġmusi", "2304": "Ġprobably", "2305": "Ġsignifi", "2306": "Ġfront", "2307": "Ġmusic", "2308": "Ġ100", "2309": "Ġdevi", "2310": "ĠFri", "2311": "Ġnothing", "2312": "Ġalle", "2313": "ĠWorl", "2314": "Ġlimit", "2315": "Ġfocu", "2316": "shington", "2317": "Ġanaly", "2318": "ĠIsla", "2319": "Ġwhole", "2320": "ĠWorld", "2321": "Ġfocus", "2322": "mmon", "2323": "ĠCity", "2324": "Ġcoming", "2325": "ĠIsr", "2326": "ĠClinton", "2327": "ĠSup", "2328": "Ġadva", "2329": "ĠIsra", "2330": "Ġmass", "2331": "Ġadvan", "2332": "Ġdue", "2333": "ĠIsrae", "2334": "Ġpoints", "2335": "ĠIsrael", "2336": "Ġhowe", "2337": "Ġaccu", "2338": "Ġhowev", "2339": "Ġhoweve", "2340": "Ġhowever", "2341": "Ġfinanc", "2342": "Ġarticl", "2343": "Ġarticle", "2344": "Ġoriginal", "2345": "Ġdescrib", "2346": "lin", "2347": "Ġintr", "2348": "ĠBla", "2349": "ĠRes", "2350": "Ġdetai", "2351": "Ġsignific", "2352": "Ġsignifica", "2353": "Ġbenef", "2354": "Ġsignifican", "2355": "ĠBra", "2356": "Ġsupe", "2357": "Ġeit", "2358": "Ġeith", "2359": "Ġeithe", "2360": "Ġeither", "2361": "Ġdam", "2362": "ĠCon", "2363": "ĠJul", "2364": "Ġabs", "2365": "Ġtarg", "2366": "Ġtarge", "2367": "Ġfurt", "2368": "Ġsuper", "2369": "nsion", "2370": "Ġu", "2371": "Ġun", "2372": "Ġus", "2373": "Ġup", "2374": "Ġuse", "2375": "Ġund", "2376": "Ġunde", "2377": "Ġunder", "2378": "Ġused", "2379": "Ġuni", "2380": "Ġunt", "2381": "Ġunders", "2382": "Ġunti", "2383": "Ġuntil", "2384": "Ġunderst", "2385": "Ġundersta", "2386": "Ġuser", "2387": "Ġwro", "2388": "iation", "2389": "Ġlegal", "2390": "Ġdou", "2391": "Ġfurth", "2392": "Ġsce", "2393": "Ġlib", "2394": "Ġeconomic", "2395": "ommon", "2396": "Ġ2013", "2397": "Ġgui", "2398": "ĠHowe", "2399": "Ġfede", "2400": "Ġlaun", "2401": "Ġrights", "2402": "Ġfurthe", "2403": "Ġreach", "2404": "ĠJun", "2405": "Ġfeder", "2406": "Ġfedera", "2407": "ĠO", "2408": "ĠOn", "2409": "ĠOb", "2410": "ĠOr", "2411": "ĠOba", "2412": "ĠObam", "2413": "ĠObama", "2414": "ĠOf", "2415": "ĠOne", "2416": "ĠOc", "2417": "Ġwhit", "2418": "Ġwrot", "2419": "Ġwrote", "2420": "Ġfederal", "2421": "Ġslo", "2422": "Ġthird", "2423": "Ġperi", "2424": "Ġpick", "2425": "Ġsli", "2426": "Ġshot", "2427": "Ġfurther", "2428": "ĠWith", "2429": "Ġdisco", "2430": "Ġbenefi", "2431": "Ġave", "2432": "Ġrisk", "2433": "Ġfiel", "2434": "Ġpac", "2435": "ĠDis", "2436": "Ġmeas", "2437": "ications", "2438": "Ġsugges", "2439": "Ġsuggest", "2440": "Ġleav", "2441": "Ġbill", "2442": "Ġleave", "2443": "Ġwhite", "2444": "Ġdetail", "2445": "Ġrelations", "2446": "Ġseems", "2447": "Ġunl", "2448": "Ġtem", "2449": "common", "2450": "Ġexec", "2451": "Ġscen", "2452": "Ġeverything", "2453": "ĠGerm", "2454": "Ġcond", "2455": "Ġfield", "2456": "Ġbillion", "2457": "Ġstates", "2458": "Ġamo", "2459": "Ġey", "2460": "Ġpublis", "2461": "Ġpublish", "2462": "ĠDec", "2463": "ĠFac", "2464": "Ġroom", "2465": "Ġeye", "2466": "ĠWhit", "2467": "Ġj", "2468": "Ġju", "2469": "Ġjus", "2470": "Ġjust", "2471": "Ġjo", "2472": "Ġjob", "2473": "Ġbelo", "2474": "Ġleaders", "2475": "ĠHowev", "2476": "ĠHoweve", "2477": "ĠHowever", "2478": "ĠHea", "2479": "Ġconten", "2480": "Ġpros", "2481": "ĠWashington", "2482": "Ġscre", "2483": "Ġself", "2484": "Ġtemp", "2485": "ĠGerma", "2486": "Ġlab", "2487": "ĠGerman", "2488": "ĠThu", "2489": "Ġwide", "2490": "Ġofficials", "2491": "Ġnec", "2492": "Ġ2012", "2493": "Ġreleased", "2494": "Ġpai", "2495": "Ġbega", "2496": "ĠInst", "2497": "Ġesp", "2498": "Ġbegan", "2499": "ĠLu", "2500": "Ġini", "2501": "ĠApp", "2502": "Ġren", "2503": "Ġsusp", "2504": "Ġbuild", "2505": "ĠPri", "2506": "Ġani", "2507": "ĠNov", "2508": "Ġstudents", "2509": "Ġbegin", "2510": "Ġpag", "2511": "Ġspecifi", "2512": "ĠEm", "2513": "Ġunderstan", "2514": "Ġunderstand", "2515": "Ġregula", "2516": "Ġener", "2517": "Ġdocu", "2518": "onen", "2519": "Ġema", "2520": "Ġenerg", "2521": "Ġlonge", "2522": "Ġdocum", "2523": "Ġdocume", "2524": "Ġdocumen", "2525": "Ġhims", "2526": "Ġhimse", "2527": "Ġhimsel", "2528": "Ġhimself", "2529": "Ġsor", "2530": "Ġhold", "2531": "ĠTwi", "2532": "Ġ2017", "2533": "Ġabov", "2534": "Ġabove", "2535": "Ġbreak", "2536": "Ġinit", "2537": "Ġamou", "2538": "Ġamoun", "2539": "Ġbloc", "2540": "Ġhours", "2541": "Ġthems", "2542": "Ġthemse", "2543": "Ġthemsel", "2544": "Ġevidenc", "2545": "Ġdefens", "2546": "Ġevidence", "2547": "Ġthemselv", "2548": "Ġthemselve", "2549": "Ġthemselves", "2550": "Ġtrue", "2551": "ĠMich", "2552": "Ġfigu", "2553": "Ġaddr", "2554": "Ġbecam", "2555": "Ġfigur", "2556": "Ġbecame", "2557": "Ġdoub", "2558": "Ġ198", "2559": "Ġamount", "2560": "Ġsense", "2561": "ĠIntern", "2562": "Ġgun", "2563": "Ġneg", "2564": "ĠPart", "2565": "onal", "2566": "Ġaddre", "2567": "Ġrepresent", "2568": "Ġsoun", "2569": "Ġsound", "2570": "Ġpasse", "2571": "ĠSome", "2572": "Ġesta", "2573": "Ġoption", "2574": "Ġintervi", "2575": "Ġintervie", "2576": "Ġsignificant", "2577": "Ġsimply", "2578": "Ġpage", "2579": "Ġaver", "2580": "Ġwasn", "2581": "ĠJus", "2582": "sition", "2583": "Ġtrad", "2584": "ĠDavi", "2585": "Ġdrug", "2586": "Ġdiffi", "2587": "Ġsitu", "2588": "Ġdiffic", "2589": "Ġdevelope", "2590": "Ġtrac", "2591": "Ġdom", "2592": "Ġrad", "2593": "Ġdescribe", "2594": "Ġdifficu", "2595": "Ġdifficul", "2596": "Ġdifficult", "2597": "Ġtrade", "2598": "Ġdan", "2599": "ĠAg", "2600": "Ġfigure", "2601": "ĠPer", "2602": "Ġrunning", "2603": "Ġsn", "2604": "ĠEngl", "2605": "ĠSea", "2606": "onent", "2607": "ĠGen", "2608": "Ġattempt", "2609": "Ġiniti", "2610": "Ġball", "2611": "Ġgroun", "2612": "Ġground", "2613": "ĠChina", "2614": "Ġemai", "2615": "Ġredu", "2616": "Ġemploye", "2617": "Ġnetw", "2618": "Ġneeds", "2619": "Ġnetwo", "2620": "Ġnetwor", "2621": "ĠTime", "2622": "Ġmeasu", "2623": "Ġmeasur", "2624": "Ġgroups", "2625": "Ġans", "2626": "Ġrefu", "2627": "Ġshows", "2628": "Ġapproa", "2629": "Ġinterview", "2630": "Ġinfl", "2631": "ĠRob", "2632": "Ġeveryone", "2633": "ĠGree", "2634": "ĠNot", "2635": "ĠSep", "2636": "Ġprett", "2637": "Ġblock", "2638": "Ġneede", "2639": "Ġwoma", "2640": "Ġwoman", "2641": "Ġneeded", "2642": "Ġinitia", "2643": "Ġphy", "2644": "ĠPoli", "2645": "Ġcommon", "2646": "Ġemail", "2647": "ording", "2648": "Ġansw", "2649": "Ġbelow", "2650": "Ġvisit", "2651": "cons", "2652": "Ġforw", "2653": "Ġforwa", "2654": "cording", "2655": "Ġpie", "2656": "Ġmag", "2657": "Ġspi", "2658": "Ġlegi", "2659": "Ġpretty", "2660": "ĠMed", "2661": "Ġdeca", "2662": "Ġdistri", "2663": "Ġsurp", "2664": "Ġmeasure", "2665": "Ġassi", "2666": "Ġfall", "2667": "Ġforwar", "2668": "Ġforward", "2669": "Ġsumm", "2670": "init", "2671": "Ġsaw", "2672": "onda", "2673": "Ġbank", "2674": "Ġdeep", "2675": "Ġprivat", "2676": "ĠRic", "2677": "ĠRea", "2678": "Ġdevic", "2679": "Ġdevice", "2680": "Ġtarget", "2681": "Ġauthori", "2682": "Ġshoo", "2683": "Ġadminist", "2684": "Ġplayed", "2685": "ĠWhite", "2686": "Ġabi", "2687": "Ġcondition", "2688": "Ġworker", "2689": "erson", "2690": "onald", "2691": "Ġindustry", "2692": "Ġbenefit", "2693": "Ġenergy", "2694": "Ġglob", "2695": "Ġpublishe", "2696": "ĠTwit", "2697": "Ġnei", "2698": "Ġplaying", "2699": "ĠSec", "2700": "indo", "2701": "Ġbeha", "2702": "Ġeasi", "2703": "Ġinco", "2704": "Ġphys", "2705": "Ġdirecto", "2706": "Ġdirector", "2707": "Ġfavor", "2708": "Ġavera", "2709": "Ġski", "2710": "Ġphysi", "2711": "Ġfriends", "2712": "ĠAust", "2713": "Ġwatc", "2714": "Ġwatch", "2715": "Ġspecific", "2716": "Ġresponse", "2717": "Ġespe", "2718": "ĠAft", "2719": "Ġinju", "2720": "ĠU", "2721": "ĠUn", "2722": "ĠUni", "2723": "ĠUS", "2724": "ĠUnit", "2725": "ĠUnite", "2726": "ĠUnited", "2727": "ĠUniv", "2728": "ĠUnive", "2729": "ĠUniver", "2730": "ĠUnivers", "2731": "ĠUniversi", "2732": "ĠUniversit", "2733": "ĠUniversity", "2734": "Ġdre", "2735": "ĠAfte", "2736": "Ġmeeting", "2737": "Ġbigg", "2738": "ĠAfter", "2739": "ĠFranc", "2740": "ĠNews", "2741": "rating", "2742": "Ġenvironment", "2743": "Ġespec", "2744": "Ġpoo", "2745": "Ġespeci", "2746": "ĠFir", "2747": "Ġinste", "2748": "Ġespecia", "2749": "Ġespecial", "2750": "Ġbigge", "2751": "Ġinstea", "2752": "Ġinstead", "2753": "Ġinten", "2754": "Ġmessa", "2755": "Ġlost", "2756": "Ġespeciall", "2757": "Ġespecially", "2758": "Ġgran", "2759": "Ġpopula", "2760": "Ġalleg", "2761": "Ġearli", "2762": "Ġearlie", "2763": "Ġrace", "2764": "ĠAustr", "2765": "Ġfast", "2766": "Ġweeks", "2767": "indow", "2768": "Ġanim", "2769": "Ġdeter", "2770": "Ġanswe", "2771": "Ġanswer", "2772": "Ġwors", "2773": "Ġnetwork", "2774": "Ġrecentl", "2775": "Ġrecently", "2776": "Ġsuf", "2777": "ĠTwitt", "2778": "Ġconver", "2779": "Ġjud", "2780": "ĠTwitte", "2781": "ĠTwitter", "2782": "Ġaddres", "2783": "Ġdesp", "2784": "Ġrais", "2785": "Ġaddress", "2786": "Ġsuff", "2787": "Ġviole", "2788": "Ġperio", "2789": "Ġperiod", "2790": "Ġstanda", "2791": "Ġpara", "2792": "Ġmate", "2793": "Ġmatc", "2794": "Ġmatch", "2795": "Ġextra", "2796": "Ġroa", "2797": "ĠSco", "2798": "ĠOct", "2799": "Ġ\"", "2800": "Ġlaunc", "2801": "Ġlaunch", "2802": "Ġlonger", "2803": "Ġabil", "2804": "Ġawar", "2805": "Ġraise", "2806": "Ġpropos", "2807": "Ġabili", "2808": "Ġabilit", "2809": "Ġviolen", "2810": "Ġdocument", "2811": "Ġhor", "2812": "ĠDepa", "2813": "ĠWill", "2814": "Ġenco", "2815": "Ġpare", "2816": "Ġstruc", "2817": "Ġaccep", "2818": "Ġjou", "2819": "ĠDepar", "2820": "ĠBan", "2821": "ison", "2822": "ĠCong", "2823": "Ġprivate", "2824": "ĠSyr", "2825": "ĠDepart", "2826": "ĠMat", "2827": "Ġtit", "2828": "olution", "2829": "ĠMil", "2830": "Ġep", "2831": "Ġapproac", "2832": "Ġapproach", "2833": "ĠMarch", "2834": "ĠSena", "2835": "ĠChe", "2836": "ĠMy", "2837": "Ġserio", "2838": "ĠDepartm", "2839": "ĠDepartme", "2840": "ĠDepartmen", "2841": "ĠDepartment", "2842": "Ġjour", "2843": "Ġseriou", "2844": "Ġserious", "2845": "Ġaverag", "2846": "Ġaverage", "2847": "Ġgir", "2848": "Ġworks", "2849": "Ġpractice", "2850": "sation", "2851": "Ġparen", "2852": "Ġ21", "2853": "Ġtab", "2854": "Ġwrong", "2855": "Ġcontent", "2856": "Ġstore", "2857": "Ġmedic", "2858": "Ġjourn", "2859": "Ġedu", "2860": "ĠFace", "2861": "ĠThes", "2862": "ĠSept", "2863": "ponent", "2864": "Ġexis", "2865": "Ġhigher", "2866": "Ġexist", "2867": "ĠHil", "2868": "Ġinsid", "2869": "Ġonline", "2870": "Ġtrav", "2871": "Ġ24", "2872": "Ġstandar", "2873": "ĠSenat", "2874": "Ġstandard", "2875": "Ġplea", "2876": "Ġrelig", "2877": "ĠSw", "2878": "Ġheld", "2879": "Ġphysic", "2880": "Ġwebs", "2881": "Ġbou", "2882": "Ġpred", "2883": "Ġled", "2884": "Ġmessag", "2885": "ĠThese", "2886": "Ġtrave", "2887": "Ġmessage", "2888": "Ġcontrac", "2889": "ĠEas", "2890": "Ġstudi", "2891": "Ġregi", "2892": "Ġdema", "2893": "Ġgirl", "2894": "ĠAug", "2895": "Ġdecad", "2896": "Ġwords", "2897": "Ġinside", "2898": "Ġoffen", "2899": "Ġsold", "2900": "Ġlowe", "2901": "Ġrevie", "2902": "Ġexecu", "2903": "Ġdecade", "2904": "Ġmal", "2905": "ĠBer", "2906": "Ġresults", "2907": "Ġservices", "2908": "Ġlaws", "2909": "ĠSm", "2910": "Ġfunction", "2911": "Ġwebsi", "2912": "Ġwebsit", "2913": "ĠSyri", "2914": "Ġwebsite", "2915": "mine", "2916": "ĠHol", "2917": "Ġparent", "2918": "Ġminutes", "2919": "Ġpopular", "2920": "Ġdama", "2921": "Ġmovem", "2922": "ĠJune", "2923": "Ġmoveme", "2924": "Ġmovemen", "2925": "Ġmovement", "2926": "Ġanyone", "2927": "ĠJust", "2928": "Ġresid", "2929": "Ġagenc", "2930": "Ġplat", "2931": "Ġlink", "2932": "ĠSyria", "2933": "Ġmovi", "2934": "Ġsuspe", "2935": "Ġmeth", "2936": "Ġepi", "2937": "Ġemb", "2938": "Ġvol", "2939": "Ġnece", "2940": "Ġneces", "2941": "Ġearlier", "2942": "Ġdead", "2943": "Ġmovie", "2944": "inding", "2945": "Ġupd", "2946": "Ġconsum", "2947": "Ġmou", "2948": "Ġnecess", "2949": "Ġhy", "2950": "Ġrespe", "2951": "Ġvia", "2952": "mission", "2953": "Ġanalys", "2954": "Ġja", "2955": "Ġinternational", "2956": "Ġinjur", "2957": "Ġtechnology", "2958": "Ġexac", "2959": "Ġfinanci", "2960": "Ġcontri", "2961": "ĠGeo", "2962": "Ġwei", "2963": "Ġpea", "2964": "Ġ2011", "2965": "Ġprotec", "2966": "Ġexten", "2967": "Ġprotect", "2968": "Ġgloba", "2969": "Ġglobal", "2970": "Ġreceived", "2971": "Ġexpecte", "2972": "Ġexpected", "2973": "Ġmemo", "2974": "Ġunit", "2975": "Ġperforma", "2976": "ĠApr", "2977": "Ġexecut", "2978": "Ġpiec", "2979": "Ġpiece", "2980": "Ġsurpr", "2981": "inci", "2982": "ĠCount", "2983": "ĠBre", "2984": "ĠBen", "2985": "Ġperforman", "2986": "ĠJuly", "2987": "Ġfamili", "2988": "Ġproblems", "2989": "Ġhighl", "2990": "Ġmer", "2991": "Ġlang", "2992": "Ġtrie", "2993": "Ġperformanc", "2994": "Ġperformance", "2995": "Ġways", "2996": "Ġhost", "2997": "Ġaud", "2998": "Ġrevea", "2999": "Ġsecr", "3000": "Ġsecre", "3001": "Ġscient", "3002": "Ġannounced", "3003": "Ġcontrib", "3004": "Ġscienti", "3005": "Ġsoon", "3006": "Ġnoti", "3007": "Ġeasy", "3008": "Ġresponsi", "3009": "Ġtitl", "3010": "Ġrespec", "3011": "Ġfinancia", "3012": "Ġrespect", "3013": "Ġquestions", "3014": "Ġtitle", "3015": "Ġfinancial", "3016": "ĠMos", "3017": "Ġuna", "3018": "Ġcontract", "3019": "Ġpap", "3020": "ĠStar", "3021": "Ġrepe", "3022": "onday", "3023": "Ġlangu", "3024": "Ġsof", "3025": "ĠFaceb", "3026": "Ġsupporte", "3027": "ĠFacebo", "3028": "ĠFaceboo", "3029": "Ġsche", "3030": "ĠFacebook", "3031": "Ġmys", "3032": "ĠGod", "3033": "Ġsimple", "3034": "Ġstrat", "3035": "Ġactivit", "3036": "ĠEast", "3037": "ĠMedi", "3038": "Ġdia", "3039": "Ġuniv", "3040": "Ġinvolved", "3041": "Ġstag", "3042": "Ġstay", "3043": "ĠFrid", "3044": "Ġrega", "3045": "Ġauthorit", "3046": "Ġunive", "3047": "Ġuniver", "3048": "ĠHill", "3049": "Ġunivers", "3050": "Ġmater", "3051": "Ġdrop", "3052": "Ġpan", "3053": "Ġreside", "3054": "ĠAustra", "3055": "ĠSat", "3056": "ĠAustral", "3057": "Ġsiz", "3058": "ĠFrida", "3059": "ĠGoog", "3060": "Ġtas", "3061": "Ġfacto", "3062": "Ġexpa", "3063": "ĠFriday", "3064": "Ġreview", "3065": "Ġasso", "3066": "Ġspeak", "3067": "Ġur", "3068": "Ġprep", "3069": "Ġupda", "3070": "Ġupdat", "3071": "Ġdeliv", "3072": "Ġupdate", "3073": "ĠAustrali", "3074": "Ġstaf", "3075": "Ġstaff", "3076": "Ġspr", "3077": "ĠGoogl", "3078": "ĠAustralia", "3079": "Ġterro", "3080": "ĠGoogle", "3081": "minal", "3082": "Ġnearl", "3083": "Ġnearly", "3084": "Ġregion", "3085": "Ġaccept", "3086": "Ġsav", "3087": "Ġterror", "3088": "King", "3089": "ĠTue", "3090": "Ġprotes", "3091": "Ġsoft", "3092": "Ġlangua", "3093": "Ġprotest", "3094": "Ġlanguag", "3095": "Ġlanguage", "3096": "Ġaudi", "3097": "Ġextre", "3098": "Ġextrem", "3099": "ĠStre", "3100": "Ġexact", "3101": "Ġrelationsh", "3102": "Ġscor", "3103": "Ġrelationshi", "3104": "Ġ197", "3105": "Ġrelationship", "3106": "Ġhug", "3107": "Ġusu", "3108": "ĠCour", "3109": "Ġdest", "3110": "Ġmarr", "3111": "ĠTur", "3112": "Ġarre", "3113": "Ġsq", "3114": "Ġbroa", "3115": "ĠApri", "3116": "Ġsubj", "3117": "ĠPat", "3118": "Ġheart", "3119": "Ġdig", "3120": "aking", "3121": "inish", "3122": "inter", "3123": "ĠApril", "3124": "ĠSho", "3125": "Ġfans", "3126": "Ġdifferenc", "3127": "ĠCali", "3128": "Ġdifference", "3129": "ections", "3130": "Ġwort", "3131": "Ġsui", "3132": "Ġsear", "3133": "ĠMonday", "3134": "Ġbuy", "3135": "Ġpack", "3136": "ĠGl", "3137": "Ġtour", "3138": "ĠTues", "3139": "Ġlives", "3140": "ĠRed", "3141": "ditiona", "3142": "Ġbroad", "3143": "Ġinsu", "3144": "ĠTuesd", "3145": "ĠTuesda", "3146": "ĠTuesday", "3147": "ĠBrit", "3148": "Ġusers", "3149": "Ġintel", "3150": "ĠOl", "3151": "ĠCla", "3152": "Ġrepla", "3153": "otion", "3154": "Ġanima", "3155": "Ġtele", "3156": "Ġintro", "3157": "Ġworth", "3158": "Ġliving", "3159": "Ġphone", "3160": "Ġmoder", "3161": "Ġ2010", "3162": "Ġreports", "3163": "Ġauto", "3164": "ditional", "3165": "owing", "3166": "ĠDan", "3167": "Ġencou", "3168": "Ġpape", "3169": "Ġsize", "3170": "ĠChar", "3171": "Ġremov", "3172": "Ġmac", "3173": "Ġpaper", "3174": "pons", "3175": "Ġconta", "3176": "Ġestab", "3177": "Ġworked", "3178": "ĠWhil", "3179": "Ġresponsib", "3180": "Ġsubje", "3181": "Ġstrate", "3182": "Ġassoc", "3183": "ĠAndr", "3184": "Ġstrateg", "3185": "inne", "3186": "Ġtwe", "3187": "Ġpen", "3188": "Ġreque", "3189": "Ġestabl", "3190": "Ġusua", "3191": "Ġmoth", "3192": "Ġusual", "3193": "Ġsecret", "3194": "Ġestabli", "3195": "ĠAmericans", "3196": "Ġdamag", "3197": "Ġdamage", "3198": "Ġexpo", "3199": "Ġtheo", "3200": "Ġtrack", "3201": "Ġboar", "3202": "Ġintell", "3203": "ĠJap", "3204": "Ġradi", "3205": "Ġvoi", "3206": "Ġability", "3207": "Ġsubjec", "3208": "Ġsubject", "3209": "Ġtransf", "3210": "Ġtakes", "3211": "vision", "3212": "Ġassu", "3213": "ĠPal", "3214": "ĠRussian", "3215": "Ġ22", "3216": "ĠJapa", "3217": "ĠJapan", "3218": "ĠAct", "3219": "Ġboard", "3220": "Ġworkers", "3221": "Ġmiss", "3222": "Ġterms", "3223": "Ġloa", "3224": "Ġroad", "3225": "Ġpublished", "3226": "Ġheav", "3227": "ĠWhile", "3228": "ĠSpe", "3229": "Ġarres", "3230": "Ġarrest", "3231": "ĠJam", "3232": "Ġgav", "3233": "ĠOu", "3234": "Ġreme", "3235": "usion", "3236": "Ġsale", "3237": "Ġdecided", "3238": "ĠEuropea", "3239": "Ġfactor", "3240": "Ġgave", "3241": "ĠEuropean", "3242": "ĠWed", "3243": "Ġsqu", "3244": "vation", "3245": "ĠCongr", "3246": "Ġmothe", "3247": "Ġmother", "3248": "Ġresiden", "3249": "ĠAfr", "3250": "Ġrid", "3251": "ĠSund", "3252": "inia", "3253": "Ġmateri", "3254": "Ġlac", "3255": "Ġscore", "3256": "Ġinflu", "3257": "Ġpartn", "3258": "Ġmateria", "3259": "ĠCalif", "3260": "Ġlog", "3261": "Ġeme", "3262": "Ġbasic", "3263": "Ġpati", "3264": "Ġhappene", "3265": "Ġmaterial", "3266": "Ġhappened", "3267": "Ġrap", "3268": "Ġgoe", "3269": "ĠOp", "3270": "ĠSto", "3271": "ĠNow", "3272": "Ġemer", "3273": "ĠBy", "3274": "Ġfem", "3275": "Ġbehav", "3276": "Ġconstr", "3277": "Ġnecessa", "3278": "Ġvir", "3279": "Ġnecessar", "3280": "Ġtabl", "3281": "inar", "3282": "Ġsat", "3283": "Ġforei", "3284": "Ġforeig", "3285": "Ġforeign", "3286": "Ġdemo", "3287": "Ġseven", "3288": "Ġscene", "3289": "ĠOff", "3290": "ront", "3291": "ĠCongre", "3292": "Ġprima", "3293": "ĠGeor", "3294": "Ġjudg", "3295": "ĠCam", "3296": "Ġgoes", "3297": "Ġwhos", "3298": "ĠNove", "3299": "ĠJanu", "3300": "ĠGeorg", "3301": "Ġwhose", "3302": "Ġsituation", "3303": "Ġrang", "3304": "Ġgreate", "3305": "ĠPos", "3306": "Ġreveal", "3307": "ĠBel", "3308": "ĠPau", "3309": "Ġsla", "3310": "ĠThur", "3311": "Ġindic", "3312": "ĠLib", "3313": "Ġplans", "3314": "Ġlett", "3315": "Ġsort", "3316": "Ġplu", "3317": "Ġarri", "3318": "ĠKing", "3319": "Ġdoo", "3320": "Ġpartici", "3321": "Ġparticip", "3322": "Ġpatie", "3323": "Ġreques", "3324": "Ġpatien", "3325": "Ġrequest", "3326": "ĠCongres", "3327": "Ġmetho", "3328": "Ġturne", "3329": "Ġpartne", "3330": "Ġpartner", "3331": "Ġadve", "3332": "ĠAfri", "3333": "Ġpropert", "3334": "ĠFeb", "3335": "ĠCongress", "3336": "Ġpict", "3337": "Ġrecog", "3338": "ĠJanua", "3339": "ĠJanuar", "3340": "Ġrecogn", "3341": "Ġmethod", "3342": "Ġturned", "3343": "Ġevents", "3344": "Ġnatura", "3345": "ĠJanuary", "3346": "Ġteams", "3347": "Ġsuppl", "3348": "Ġdiscov", "3349": "Ġnatural", "3350": "Ġprepa", "3351": "Ġpreve", "3352": "Ġsexu", "3353": "Ġintrod", "3354": "Ġnorm", "3355": "Ġequi", "3356": "Ġsexua", "3357": "Ġsexual", "3358": "Ġpus", "3359": "ĠCourt", "3360": "tine", "3361": "ĠIslam", "3362": "ĠSepte", "3363": "Ġhuge", "3364": "ĠSeptem", "3365": "Ġmention", "3366": "Ġdesigne", "3367": "ĠSeptemb", "3368": "ĠSeptembe", "3369": "ĠSeptember", "3370": "Ġgua", "3371": "Ġreduc", "3372": "ĠAi", "3373": "Ġareas", "3374": "Ġeli", "3375": "Ġpictu", "3376": "Ġmultip", "3377": "Ġpictur", "3378": "Ġpicture", "3379": "ĠPhi", "3380": "oft", "3381": "Ġtable", "3382": "Ġht", "3383": "ĠTV", "3384": "Ġfear", "3385": "osition", "3386": "oon", "3387": "Ġens", "3388": "ĠDavid", "3389": "oint", "3390": "Ġfath", "3391": "ĠAfric", "3392": "Ġdate", "3393": "ĠThurs", "3394": "ĠAfrica", "3395": "ĠSunda", "3396": "ĠAng", "3397": "Ġnic", "3398": "Ġnation", "3399": "Ġlower", "3400": "ĠRom", "3401": "ĠWedn", "3402": "ĠWedne", "3403": "ĠNovem", "3404": "ĠWednes", "3405": "Ġreduce", "3406": "Ġsep", "3407": "ĠWednesd", "3408": "ĠWednesda", "3409": "ĠNovemb", "3410": "ĠWednesday", "3411": "ĠNovembe", "3412": "ĠNovember", "3413": "Ġfelt", "3414": "ĠPen", "3415": "Ġnumbers", "3416": "Ġhands", "3417": "Ġrange", "3418": "Ġdeman", "3419": "Ġdemand", "3420": "Ġtex", "3421": "Ġlette", "3422": "Ġletter", "3423": "Ġattr", "3424": "Ġdelive", "3425": "Ġdeliver", "3426": "Ġsocie", "3427": "Ġmultipl", "3428": "Ġinflue", "3429": "Ġinfluen", "3430": "ĠThursd", "3431": "ĠThursda", "3432": "ĠThursday", "3433": "Ġadministration", "3434": "Ġvicti", "3435": "Ġvictim", "3436": "Ġpush", "3437": "Ġsociet", "3438": "ĠTex", "3439": "roni", "3440": "Ġengine", "3441": "ĠChristi", "3442": "Ġwalk", "3443": "Ġfathe", "3444": "ĠBea", "3445": "Ġfather", "3446": "Ġhot", "3447": "Ġplane", "3448": "Ġpul", "3449": "Ġeffecti", "3450": "Ġeffectiv", "3451": "Ġeffective", "3452": "Ġdeba", "3453": "âĢĿ.", "3454": "Ġtool", "3455": "Ġbran", "3456": "onder", "3457": "ĠPaul", "3458": "ĠJac", "3459": "Ġstree", "3460": "Ġstreet", "3461": "Ġenj", "3462": "Ġloss", "3463": "ĠScot", "3464": "Ġfle", "3465": "Ġbuilt", "3466": "Ġdestr", "3467": "Ġstage", "3468": "Ġhtt", "3469": "Ġthous", "3470": "Ġhttp", "3471": "Ġthousa", "3472": "Ġthousan", "3473": "Ġthousand", "3474": "Ġproduction", "3475": "Ġboy", "3476": "ĠEar", "3477": "Ġenjo", "3478": "ĠAugu", "3479": "taine", "3480": "Ġheard", "3481": "Ġestablis", "3482": "Ġestablish", "3483": "ĠOcto", "3484": "Ġente", "3485": "Ġeconomy", "3486": "Ġvoter", "3487": "ĠAugus", "3488": "Ġ23", "3489": "ĠSunday", "3490": "Ġprofi", "3491": "Ġguar", "3492": "Ġtechni", "3493": "ĠPhil", "3494": "Ġfli", "3495": "ĠComp", "3496": "Ġprove", "3497": "nting", "3498": "Ġallowe", "3499": "Ġallowed", "3500": "Ġenter", "3501": "Ġmemor", "3502": "Ġspent", "3503": "Ġroun", "3504": "Ġround", "3505": "Ġhat", "3506": "ining", "3507": "Ġprimar", "3508": "Ġincluded", "3509": "ĠOctob", "3510": "ĠOctobe", "3511": "ĠOctober", "3512": "Ġneig", "3513": "Ġaffe", "3514": "Ġveh", "3515": "Ġlegis", "3516": "ĠEven", "3517": "Ġali", "3518": "Ġneigh", "3519": "iminal", "3520": "Ġtext", "3521": "Ġneighb", "3522": "Ġdiscove", "3523": "Ġneighbo", "3524": "Ġdiscover", "3525": "ĠCalifo", "3526": "ĠCalifor", "3527": "ĠCaliforn", "3528": "pin", "3529": "ĠGam", "3530": "Ġmorning", "3531": "ĠCaliforni", "3532": "ĠCalifornia", "3533": "Ġwants", "3534": "Ġremem", "3535": "Ġrememb", "3536": "Ġtown", "3537": "Ġsave", "3538": "ĠBriti", "3539": "Ġsepa", "3540": "Ġscree", "3541": "ĠBritis", "3542": "ĠBritish", "3543": "Ġslow", "3544": "ĠCanada", "3545": "ĠAugust", "3546": "rtion", "3547": "Ġeig", "3548": "ĠPet", "3549": "Ġlack", "3550": "izing", "3551": "ĠBus", "3552": "ĠCont", "3553": "Ġaren", "3554": "Ġgets", "3555": "Ġarc", "3556": "Ġinstan", "3557": "Ġmarri", "3558": "Ġtheor", "3559": "ĠCente", "3560": "Ġdol", "3561": "Ġtried", "3562": "ĠPark", "3563": "?âĢĿ", "3564": "Ġvario", "3565": "Ġpurp", "3566": "Ġadvi", "3567": "Ġforces", "3568": "Ġfair", "3569": "Ġprec", "3570": "Ġvariou", "3571": "Ġvarious", "3572": "ĠDece", "3573": "Ġsan", "3574": "Ġbir", "3575": "Ġattention", "3576": "ĠStree", "3577": "Ġbattl", "3578": "Ġbattle", "3579": "Ġinn", "3580": "Ġstruct", "3581": "Ġeigh", "3582": "Ġgas", "3583": "Ġeight", "3584": "Ġdispl", "3585": "onn", "3586": "Ġpatient", "3587": "Ġincom", "3588": "Ġavo", "3589": "Ġinci", "3590": "Ġdebat", "3591": "ĠMac", "3592": "Ġscreen", "3593": "Ġbrou", "3594": "Ġbud", "3595": "Ġspot", "3596": "nization", "3597": "Ġfirm", "3598": "Ġvehi", "3599": "inde", "3600": "Ġvehic", "3601": "Ġpopulation", "3602": "ĠUK", "3603": "ĠStreet", "3604": "Ġlooks", "3605": "Ġpun", "3606": "Ġbroug", "3607": "Ġbrough", "3608": "Ġbrought", "3609": "ĠBil", "3610": "ĠCenter", "3611": "ĠFlo", "3612": "Ġport", "3613": "Ġstatu", "3614": "ĠIS", "3615": "Ġfell", "3616": "Ġswi", "3617": "Ġalte", "3618": "Ġdar", "3619": "ĠSpa", "3620": "Ġsearc", "3621": "Ġsearch", "3622": "Ġdebate", "3623": "Ġpleas", "3624": "Ġtraining", "3625": "Ġvehicl", "3626": "Ġvehicle", "3627": "hone", "3628": "Ġgrowt", "3629": "Ġanimal", "3630": "Ġgrowth", "3631": "Ġdang", "3632": "Ġbehavi", "3633": "Ġbehavio", "3634": "Ġreb", "3635": "Ġcondu", "3636": "Ġplant", "3637": "Ġdefense", "3638": "yond", "3639": "Ġesti", "3640": "Ġsong", "3641": "Ġterri", "3642": "Ġtravel", "3643": "Ġpers", "3644": "Ġang", "3645": "Ġshowe", "3646": "ĠEr", "3647": "Ġarriv", "3648": "Ġdispla", "3649": "Ġconfe", "3650": "ĠGene", "3651": "ĠBlac", "3652": "tition", "3653": "position", "3654": "ĠDecem", "3655": "Ġwai", "3656": "Ġconfir", "3657": "ĠDecemb", "3658": "Ġmedica", "3659": "ĠBlack", "3660": "ĠDecembe", "3661": "ĠDecember", "3662": "Ġfinish", "3663": "ĠGar", "3664": "Ġess", "3665": "Ġmanu", "3666": "fication", "3667": "coin", "3668": "bing", "3669": "Ġregular", "3670": "Ġ196", "3671": "Ġjusti", "3672": "Ġrules", "3673": "Ġdepe", "3674": "Ġspor", "3675": "ĠArm", "3676": "Ġach", "3677": "Ġmedical", "3678": "Ġsomet", "3679": "Ġremembe", "3680": "Ġremember", "3681": "Ġfloo", "3682": "Ġavoi", "3683": "Ġperfe", "3684": "ĠPolic", "3685": "Ġupon", "3686": "Ġindep", "3687": "Ġsometi", "3688": "Ġstrug", "3689": "Ġdoor", "3690": "Ġsometim", "3691": "Ġsometime", "3692": "ĠPost", "3693": "Ġstrugg", "3694": "Ġsym", "3695": "Ġlates", "3696": "Ġlatest", "3697": "Ġindepe", "3698": "Ġindepen", "3699": "ĠGov", "3700": "Ġindepend", "3701": "ĠDes", "3702": "Ġalter", "3703": "ĠHal", "3704": "don", "3705": "Ġuns", "3706": "Ġton", "3707": "Ġindepende", "3708": "Ġindependen", "3709": "Ġmach", "3710": "Ġadmi", "3711": "Ġremove", "3712": "Ġfeatures", "3713": "ĠSatu", "3714": "Ġwis", "3715": "Ġlen", "3716": "Ġreplac", "3717": "ĠPho", "3718": "Ġreplace", "3719": "ĠSatur", "3720": "Ġsuccessf", "3721": "Ġsuccessfu", "3722": "Ġsuccessful", "3723": "Ġtalking", "3724": "Ġmeet", "3725": "Ġgrad", "3726": "anization", "3727": "Ġstructu", "3728": "ĠJew", "3729": "Ġstructur", "3730": "Ġrelati", "3731": "Ġestim", "3732": "Ġequa", "3733": "ĠAv", "3734": "Ġperfec", "3735": "Ġperfect", "3736": "Ġrelativ", "3737": "Ġpoor", "3738": "Ġjourna", "3739": "Ġdange", "3740": "ĠSenate", "3741": "Ġdanger", "3742": "Ġentr", "3743": "Ġdepa", "3744": "ĠMark", "3745": "Ġdepar", "3746": "Ġconsidere", "3747": "Ġdespi", "3748": "Ġconsidered", "3749": "gon", "3750": "Ġjournal", "3751": "Ġconser", "3752": "Ġps", "3753": "Ġtransp", "3754": "ĠTimes", "3755": "ĠFou", "3756": "Ġextreme", "3757": "Ġlevels", "3758": "Ġrepea", "3759": "Ġcontac", "3760": "Ġconsume", "3761": "Ġcontact", "3762": "ĠCounty", "3763": "Ġemployee", "3764": "ondon", "3765": "Ġinvestigation", "3766": "Ġachi", "3767": "Ġargue", "3768": "ĠParty", "3769": "Ġvoic", "3770": "Ġassis", "3771": "Ġresident", "3772": "Ġvoice", "3773": "Ġincid", "3774": "ĠBur", "3775": "Ġassist", "3776": "Ġincide", "3777": "Ġinciden", "3778": "Ġinsp", "3779": "Ġachie", "3780": "Ġlibe", "3781": "Ġscienc", "3782": "Ġfollowe", "3783": "Ġscience", "3784": "Ġweig", "3785": "nging", "3786": "Ġprio", "3787": "riminal", "3788": "Ġdefend", "3789": "Ġprior", "3790": "Ġabu", "3791": "ganization", "3792": "ĠMas", "3793": "Ġ2008", "3794": "Ġparents", "3795": "Ġestima", "3796": "ĠWat", "3797": "illing", "3798": "ĠIma", "3799": "Ġnorma", "3800": "Ġsystems", "3801": "ĠLan", "3802": "Ġestimat", "3803": "Ġsumme", "3804": "ston", "3805": "Ġnort", "3806": "Ġdepart", "3807": "ĠChristia", "3808": "Ġmajori", "3809": "Ġmajorit", "3810": "Ġpurpo", "3811": "Ġresou", "3812": "Ġdoll", "3813": "Ġgue", "3814": "ĠSam", "3815": "Ġnorth", "3816": "ĠChristian", "3817": "ĠAppl", "3818": "Ġwritt", "3819": "Ġwritte", "3820": "Ġwritten", "3821": "Ġestimate", "3822": "Ġbrok", "3823": "Ġbox", "3824": "Ġspokes", "3825": "Ġaffec", "3826": "ĠAle", "3827": "ĠIndian", "3828": "Ġinitial", "3829": "Ġconfirm", "3830": "ĠSoc", "3831": "Ġaffect", "3832": "ĠGame", "3833": "eating", "3834": "Ġincreasing", "3835": "Ġjobs", "3836": "Ġbroke", "3837": "ĠMusl", "3838": "Ġoffens", "3839": "Ġrelative", "3840": "Ġskil", "3841": "Ġpressu", "3842": "Ġpressur", "3843": "ĠNet", "3844": "Ġunc", "3845": "ĠMusli", "3846": "ĠMuslim", "3847": "Ġexecuti", "3848": "Ġwall", "3849": "Ġexecutiv", "3850": "Ġhistori", "3851": "ĠColl", "3852": "Ġexecutive", "3853": "Ġenjoy", "3854": "Ġsil", "3855": "ĠIran", "3856": "Ġteac", "3857": "Ġphysica", "3858": "Ġphysical", "3859": "Ġconcl", "3860": "Ġtac", "3861": "ĠTexa", "3862": "ĠCat", "3863": "Ġskill", "3864": "Ġgla", "3865": "peration", "3866": "Ġbloo", "3867": "Ġassoci", "3868": "Ġteach", "3869": "Ġblu", "3870": "Ġspeec", "3871": "Ġspeech", "3872": "Ġship", "3873": "Ġelectr", "3874": "Ġrefere", "3875": "Ġnotic", "3876": "Ġmidd", "3877": "Ġwriting", "3878": "Ġdraw", "3879": "Ġviolenc", "3880": "Ġbul", "3881": "Ġnormal", "3882": "Ġsty", "3883": "Ġfix", "3884": "ĠGro", "3885": "Ġperm", "3886": "Ġviolence", "3887": "Ġnotice", "3888": "Ġconne", "3889": "ĠIraq", "3890": "Ġbott", "3891": "Ġpain", "3892": "Ġsurve", "3893": "Ġspeed", "3894": "Ġ2009", "3895": "ĠOffi", "3896": "Ġpressure", "3897": "Ġul", "3898": "Ġemerg", "3899": "Ġprogre", "3900": "Ġpit", "3901": "Ġemerge", "3902": "ĠOffic", "3903": "Ġresour", "3904": "Ġfit", "3905": "Ġinteresting", "3906": "Ġresourc", "3907": "Ġresource", "3908": "ĠOt", "3909": "Ġfaci", "3910": "mination", "3911": "inated", "3912": "Ġband", "3913": "Ġterrori", "3914": "Ġmajority", "3915": "ronic", "3916": "Ġparticularl", "3917": "Ġparticularly", "3918": "Ġdespit", "3919": "Ġdespite", "3920": "Ġstori", "3921": "Ġunf", "3922": "ĠSaturd", "3923": "ĠSaturda", "3924": "ĠSaturday", "3925": "inite", "3926": "Ġstorie", "3927": "Ġconsis", "3928": "Ġconsist", "3929": "Ġsummer", "3930": "Ġfinding", "3931": "Ġsociety", "3932": "Ġliber", "3933": "Ġdriver", "3934": "Ġmini", "3935": "Ġgree", "3936": "ĠSand", "3937": "Ġincident", "3938": "Ġpoll", "3939": "ĠCap", "3940": "ĠHam", "3941": "Ġpath", "3942": "ĠDonald", "3943": "Ġmur", "3944": "Ġattacks", "3945": "Ġrequired", "3946": "asion", "3947": "ĠCons", "3948": "ĠCre", "3949": "Ġbigges", "3950": "Ġbiggest", "3951": "Ġpull", "3952": "Ġliste", "3953": "Ġpaid", "3954": "Ġexactl", "3955": "Ġexactly", "3956": "ĠMore", "3957": "inor", "3958": "dation", "3959": "ĠEver", "3960": "inese", "3961": "Ġintrodu", "3962": "criminal", "3963": "ĠJer", "3964": "Ġrealit", "3965": "Ġhund", "3966": "ĠStu", "3967": "Ġtria", "3968": "Ġstudie", "3969": "Ġhundr", "3970": "Ġremain", "3971": "Ġhundre", "3972": "Ġofficers", "3973": "Ġhundred", "3974": "Ġjudge", "3975": "ĠServ", "3976": "Ġ26", "3977": "action", "3978": "tained", "3979": "Ġmiddl", "3980": "Ġterroris", "3981": "Ġmiddle", "3982": "Ġtouc", "3983": "Ġprogres", "3984": "Ġ28", "3985": "Ġtouch", "3986": "Ġprogress", "3987": "Ġ27", "3988": "Ġcertainl", "3989": "Ġcertainly", "3990": "Ġequal", "3991": "ĠLondon", "3992": "Ġstories", "3993": "Ġlooke", "3994": "eping", "3995": "ĠBill", "3996": "Ġproducts", "3997": "Ġweigh", "3998": "Ġtie", "3999": "Ġsurvi", "4000": "Ġlooked", "4001": "Ġsometimes", "4002": "Ġallege", "4003": "Ġreading", "4004": "Ġstuf", "4005": "essiona", "4006": "Ġstuff", "4007": "Ġfinall", "4008": "Ġfinally", "4009": "essional", "4010": "Ġvolu", "4011": "Ġswe", "4012": "Ġleag", "4013": "Ġleagu", "4014": "Ġleague", "4015": "Ġroc", "4016": "lines", "4017": "Ġsolution", "4018": "Ġblood", "4019": "ĠFebr", "4020": "ĠScho", "4021": "Ġsepar", "4022": "ĠGreen", "4023": "ĠAir", "4024": "Ġsepara", "4025": "ĠMcC", "4026": "Ġones", "4027": "ĠImag", "4028": "Ġult", "4029": "Ġleading", "4030": "Ġrock", "4031": "Ġdescribed", "4032": "non", "4033": "ĠFebru", "4034": "Ġexpert", "4035": "Ġsmo", "4036": "Ġmix", "4037": "Ġelem", "4038": "ĠFebrua", "4039": "ĠFebruar", "4040": "Ġsqua", "4041": "operation", "4042": "Ġmodern", "4043": "ĠFebruary", "4044": "Ġaccus", "4045": "Ġseparat", "4046": "Ġsout", "4047": "Ġassa", "4048": "Ġdeg", "4049": "Ġabso", "4050": "Ġconfer", "4051": "Ġdetails", "4052": "Ġexpen", "4053": "Ġmeta", "4054": "Ġstarting", "4055": "Ġpredi", "4056": "Ġeleme", "4057": "Ġelemen", "4058": "Ġsouth", "4059": "Ġelement", "4060": "Ġmanager", "4061": "Ġbudg", "4062": "ĠMicha", "4063": "Ġmultiple", "4064": "Ġfeeling", "4065": "Ġshowed", "4066": "Ġbudge", "4067": "alling", "4068": "Ġnamed", "4069": "Ġgiving", "4070": "Ġremains", "4071": "ĠLab", "4072": "Ġstyl", "4073": "Ġenga", "4074": "Ġprovided", "4075": "Ġavoid", "4076": "Ġtend", "4077": "Ġson", "4078": "Ġdolla", "4079": "Ġrelate", "4080": "Ġdollar", "4081": "Ġmob", "4082": "Ġpreven", "4083": "ĠTH", "4084": "Ġprevent", "4085": "Ġcriminal", "4086": "Ġinfluenc", "4087": "inary", "4088": "Ġinfluence", "4089": "Ġpref", "4090": "ĠWilli", "4091": "ĠPor", "4092": "Ġmic", "4093": "Ġintelli", "4094": "Ġcontinued", "4095": "ĠWel", "4096": "Ġeducation", "4097": "Ġachiev", "4098": "Ġintellig", "4099": "Ġgrowing", "4100": "Ġthank", "4101": "Ġdemonst", "4102": "Ġforg", "4103": "Ġune", "4104": "ĠTre", "4105": "Ġconduc", "4106": "Ġparts", "4107": "Ġyours", "4108": "ulation", "4109": "Ġpromi", "4110": "Ġworr", "4111": "Ġpromis", "4112": "Ġresearche", "4113": "Ġexpr", "4114": "Ġposte", "4115": "Ġrise", "4116": "ĠBal", "4117": "ĠMal", "4118": "Ġthinking", "4119": "Ġintellige", "4120": "Ġintelligen", "4121": "Ġtreatm", "4122": "Ġtreatme", "4123": "Ġtreatmen", "4124": "Ġtreatment", "4125": "Ġsle", "4126": "lection", "4127": "Ġrob", "4128": "Ġstrik", "4129": "ĠRepublicans", "4130": "ĠMichae", "4131": "Ġstrike", "4132": "ĠMichael", "4133": "ĠBec", "4134": "Ġargum", "4135": "Ġargume", "4136": "Ġgat", "4137": "Ġargumen", "4138": "ĠDemocrati", "4139": "ĠJame", "4140": "ĠDemocratic", "4141": "Ġwouldn", "4142": "Ġnuc", "4143": "ĠLeag", "4144": "Ġpurc", "4145": "Ġpurpos", "4146": "Ġpurch", "4147": "Ġpurcha", "4148": "ĠLeagu", "4149": "ĠLeague", "4150": "Ġdied", "4151": "Ġadvanc", "4152": "Ġadvance", "4153": "Ġnucl", "4154": "Ġpurpose", "4155": "Ġready", "4156": "ssions", "4157": "Ġbudget", "4158": "Ġsport", "4159": "Ġincreased", "4160": "Ġnucle", "4161": "Ġargument", "4162": "ĠDay", "4163": "Ġarch", "4164": "Ġrecom", "4165": "Ġefforts", "4166": "Ġposi", "4167": "Ġachieve", "4168": "Ġah", "4169": "Ġhosp", "4170": "Ġvoters", "4171": "Ġhospi", "4172": "Ġje", "4173": "Ġapprov", "4174": "Ġatten", "4175": "Ġepis", "4176": "Ġusuall", "4177": "Ġgues", "4178": "Ġusually", "4179": "Ġsigna", "4180": "Ġeffects", "4181": "Ġadditiona", "4182": "Ġplatf", "4183": "Ġadditional", "4184": "Ġplatfo", "4185": "inge", "4186": "Ġplatfor", "4187": "incip", "4188": "Ġaccom", "4189": "Ġstructure", "4190": "Ġconduct", "4191": "Ġine", "4192": "Ġreferen", "4193": "Ġpromise", "4194": "Ġthu", "4195": "Ġperh", "4196": "Ġperha", "4197": "Ġperhap", "4198": "Ġperhaps", "4199": "Ġposit", "4200": "Ġsurpri", "4201": "Ġalone", "4202": "ĠNA", "4203": "Ġsurpris", "4204": "Ġexpre", "4205": "Ġsurprise", "4206": "ĠFirs", "4207": "ĠMinister", "4208": "Ġconfere", "4209": "Ġmap", "4210": "Ġsubst", "4211": "Ġalth", "4212": "ĠFirst", "4213": "Ġcontribu", "4214": "Ġaltho", "4215": "Ġalthou", "4216": "Ġalthoug", "4217": "Ġalthough", "4218": "Ġconferen", "4219": "Ġtowards", "4220": "Ġlay", "4221": "ĠTexas", "4222": "Ġguys", "4223": "Ġplatform", "4224": "Ġhospit", "4225": "Ġhospita", "4226": "Ġwif", "4227": "Ġdiscus", "4228": "Ġeventu", "4229": "ĠAra", "4230": "Ġeventua", "4231": "Ġconserv", "4232": "Ġdirectl", "4233": "Ġdirectly", "4234": "Ġbeyond", "4235": "Ġinstal", "4236": "Ġconferenc", "4237": "ĠChinese", "4238": "Ġconference", "4239": "Ġeventual", "4240": "Ġ(@", "4241": "Ġfootb", "4242": "Ġdiscuss", "4243": "Ġmile", "4244": "Ġreality", "4245": "ention", "4246": "Ġappa", "4247": "ĠRos", "4248": "Ġpil", "4249": "Ġthrougho", "4250": "Ġthroughou", "4251": "Ġthroughout", "4252": "Ġrestr", "4253": "Ġensu", "4254": "gration", "4255": "zon", "4256": "Ġhospital", "4257": "Ġdegr", "4258": "Ġdoct", "4259": "indows", "4260": "Ġhelpe", "4261": "Ġassocia", "4262": "Ġsafet", "4263": "Ġdog", "4264": "Ġassociat", "4265": "Ġbord", "4266": "Ġbom", "4267": "ĠJames", "4268": "Ġnar", "4269": "Ġincludes", "4270": "kn", "4271": "Ġkn", "4272": "Ġkno", "4273": "Ġknow", "4274": "Ġknown", "4275": "Ġkne", "4276": "kno", "4277": "know", "4278": "Ġknew", "4279": "ĠCas", "4280": "opin", "4281": "Ġsend", "4282": "Ġindica", "4283": "Ġrecomm", "4284": "Ġfootba", "4285": "ĠArt", "4286": "Ġfootbal", "4287": "Ġfootball", "4288": "Ġwife", "4289": "Ġfacil", "4290": "ĠBas", "4291": "ĠFed", "4292": "Ġmeaning", "4293": "ĠHig", "4294": "Ġresearcher", "4295": "Ġassociate", "4296": "Ġtwi", "4297": "Ġincome", "4298": "Ġsoftw", "4299": "Ġrecomme", "4300": "Ġindicat", "4301": "ĠJos", "4302": "ĠGol", "4303": "Ġepiso", "4304": "Ġepisod", "4305": "Ġgri", "4306": "Ġesse", "4307": "ĠFro", "4308": "Ġfacili", "4309": "Ġsoftwa", "4310": "Ġsoftwar", "4311": "Ġsoftware", "4312": "ĠâĢ¦", "4313": "Ġdesigned", "4314": "Ġgone", "4315": "Ġsafety", "4316": "ĠII", "4317": "Ġinstr", "4318": "Ġconnec", "4319": "Ġconnect", "4320": "Ġdise", "4321": "Ġpsy", "4322": "Ġbooks", "4323": "ason", "4324": "Ġsell", "4325": "Ġsele", "4326": "Ġseparate", "4327": "Ġagency", "4328": "Ġsurviv", "4329": "ĠChu", "4330": "Ġende", "4331": "pions", "4332": "rganization", "4333": "Ġahe", "4334": "Ġfacilit", "4335": "Ġminister", "4336": "ĠJack", "4337": "Ġborde", "4338": "Ġessen", "4339": "Ġpositi", "4340": "Ġdecl", "4341": "Ġpositiv", "4342": "ification", "4343": "Ġreache", "4344": "Ġconserva", "4345": "Ġattend", "4346": "Ġgol", "4347": "Ġsurr", "4348": "Ġmurd", "4349": "Ġbeginning", "4350": "Ġborder", "4351": "Ġdive", "4352": "Ġthousands", "4353": "Ġtale", "4354": "Ġdisplay", "4355": "Ġappar", "4356": "Ġpsyc", "4357": "organization", "4358": "Ġahea", "4359": "Ġpsych", "4360": "Ġahead", "4361": "Ġwait", "4362": "Ġconservat", "4363": "Ġopin", "4364": "Ġhur", "4365": "ĠApple", "4366": "ein", "4367": "Ġwonder", "4368": "Ġfis", "4369": "Ġepisode", "4370": "Ġabus", "4371": "ĠSal", "4372": "Ġblog", "4373": "ingin", "4374": "Ġut", "4375": "mpions", "4376": "ĠRich", "4377": "ĠOffice", "4378": "Ġdecla", "4379": "Ġmoved", "4380": "Ġbio", "4381": "Ġappears", "4382": "Ġartis", "4383": "Ġpassed", "4384": "Ġguid", "4385": "ĠSk", "4386": "Ġjoin", "4387": "Ġdistrib", "4388": "Ġrecogni", "4389": "Ġconservati", "4390": "Ġven", "4391": "Ġtrip", "4392": "Ġsmar", "4393": "ĠAnge", "4394": "ĠRev", "4395": "Ġstyle", "4396": "ĠAsso", "4397": "Ġseni", "4398": "Ġproperty", "4399": "ĠCro", "4400": "Ġhelped", "4401": "Ġlose", "4402": "Ġshu", "4403": "Ġagreem", "4404": "Ġagreeme", "4405": "Ġagreemen", "4406": "Ġagreement", "4407": "Ġneu", "4408": "Ġinsur", "4409": "Ġalleged", "4410": "Ġconfid", "4411": "Ġdisap", "4412": "Ġsett", "4413": "Ġsmart", "4414": "ĠAssoc", "4415": "Ġsenio", "4416": "Ġsenior", "4417": "Ġdisapp", "4418": "ading", "4419": "Ġena", "4420": "Ġrecommen", "4421": "ĠImage", "4422": "ĠHan", "4423": "Ġpositive", "4424": "ĠDea", "4425": "Ġarrive", "4426": "erations", "4427": "ĠWillia", "4428": "ĠRan", "4429": "Ġenf", "4430": "Ġmoving", "4431": "ĠDemocrats", "4432": "Ġnature", "4433": "Ġconditions", "4434": "Ġforma", "4435": "Ġintroduc", "4436": "ĠThen", "4437": "Ġparticipa", "4438": "Ġorganization", "4439": "Ġnuclea", "4440": "Ġpowerf", "4441": "Ġsuppos", "4442": "ĠWilliam", "4443": "Ġpowerfu", "4444": "Ġpowerful", "4445": "ĠTea", "4446": "Ġsuit", "4447": "Ġadver", "4448": "Ġreasons", "4449": "ĠDel", "4450": "Ġtrial", "4451": "Ġshooting", "4452": "Ġstea", "4453": "Ġsuppose", "4454": "Ġalb", "4455": "Ġsuspec", "4456": "Ġsuspect", "4457": "Ġbrain", "4458": "Ġmyse", "4459": "Ġnuclear", "4460": "ĠSupe", "4461": "Ġmysel", "4462": "Ġmyself", "4463": "Ġreligi", "4464": "oing", "4465": "Ġhappy", "4466": "Ġmayb", "4467": "Ġmaybe", "4468": "ĠSuper", "4469": "Ġprefe", "4470": "Ġreligio", "4471": "Ġfema", "4472": "Ġfemal", "4473": "Ġfemale", "4474": "Ġfaile", "4475": "Ġfailed", "4476": "Ġencour", "4477": "Ġya", "4478": "Ġencoura", "4479": "Ġmurde", "4480": "Ġmurder", "4481": "Ġenfo", "4482": "Ġenfor", "4483": "Ġtraditional", "4484": "Ġagent", "4485": "Ġinvestm", "4486": "Ġinvestme", "4487": "Ġinvestmen", "4488": "Ġinvestment", "4489": "Ġconfide", "4490": "ĠMatt", "4491": "Ġfill", "4492": "ĠDar", "4493": "Ġesc", "4494": "ĠAngel", "4495": "Ġartist", "4496": "ĠPlay", "4497": "Ġsched", "4498": "Ġtask", "4499": "Ġregis", "4500": "Ġspend", "4501": "Ġlabo", "4502": "Ġregist", "4503": "ĠFren", "4504": "Ġthrow", "4505": "Ġassum", "4506": "Ġment", "4507": "Ġpromo", "4508": "Ġschedu", "4509": "Ġeyes", "4510": "Ġlimite", "4511": "ĠFlor", "4512": "ĠFree", "4513": "ĠEngli", "4514": "Ġnice", "4515": "ĠSmi", "4516": "ĠEnglis", "4517": "Ġfavori", "4518": "Ġlarges", "4519": "ĠEnglish", "4520": "Ġshown", "4521": "Ġfavorit", "4522": "osing", "4523": "ĠRobe", "4524": "Ġreligiou", "4525": "Ġreligious", "4526": "Ġyourse", "4527": "Ġyoursel", "4528": "Ġyes", "4529": "Ġapa", "4530": "Ġprofessional", "4531": "Ġlimited", "4532": "Ġlite", "4533": "ĠPhot", "4534": "ĠJi", "4535": "ĠHere", "4536": "Ġstren", "4537": "Ġforced", "4538": "Ġnecessary", "4539": "ĠExp", "4540": "ĠSoci", "4541": "ĠPhoto", "4542": "Ġactive", "4543": "Ġscientis", "4544": "Ġriv", "4545": "Ġerr", "4546": "Ġfavorite", "4547": "Ġminor", "4548": "Ġconcep", "4549": "ĠFrenc", "4550": "ĠFrench", "4551": "Ġexpens", "4552": "Ġscientist", "4553": "Ġprefer", "4554": "Ġconcept", "4555": "Ġlargest", "4556": "Ġintroduce", "4557": "ĠGener", "4558": "Ġec", "4559": "Ġconfiden", "4560": "ĠRober", "4561": "Ġrepeat", "4562": "Ġanalysi", "4563": "Ġanalysis", "4564": "Ġpresidenti", "4565": "ĠMet", "4566": "Ġpresidentia", "4567": "Ġpresidential", "4568": "Ġspending", "4569": "Ġsurf", "4570": "Ġconservativ", "4571": "Ġconfl", "4572": "Ġtee", "4573": "Ġ29", "4574": "Ġconservative", "4575": "Ġmobi", "4576": "ĠRobert", "4577": "ĠGeorge", "4578": "Ġpurchas", "4579": "Ġschools", "4580": "ĠHigh", "4581": "Ġmobil", "4582": "Ġliter", "4583": "ĠAlt", "4584": "Ġpurchase", "4585": "ĠGove", "4586": "Ġaware", "4587": "ĠY", "4588": "ĠYo", "4589": "ĠYou", "4590": "ĠYor", "4591": "ĠYork", "4592": "ĠYe", "4593": "ĠYa", "4594": "Ġmeant", "4595": "Ġeventuall", "4596": "Ġeventually", "4597": "ĠGO", "4598": "Ġraci", "4599": "Ġfollowed", "4600": "ĠRese", "4601": "ĠServi", "4602": "ĠTom", "4603": "Ġstrea", "4604": "Ġpeac", "4605": "Ġinvestiga", "4606": "ĠAla", "4607": "Ġtor", "4608": "Ġlic", "4609": "Ġlie", "4610": "Ġbehavior", "4611": "ĠNat", "4612": "Ġstreng", "4613": "Ġdigi", "4614": "Ġsigne", "4615": "Ġbrot", "4616": "Ġindependent", "4617": "Ġdoubl", "4618": "Ġensur", "4619": "Ġensure", "4620": "Ġstrengt", "4621": "Ġstrength", "4622": "ĠSl", "4623": "Ġbroth", "4624": "Ġinvestigat", "4625": "Ġexpres", "4626": "Ġasp", "4627": "Ġdraf", "4628": "ccording", "4629": "ĠServic", "4630": "Ġfort", "4631": "ĠGal", "4632": "ĠGenera", "4633": "Ġeasil", "4634": "Ġdigit", "4635": "Ġeasily", "4636": "ĠService", "4637": "ĠBrow", "4638": "ĠUp", "4639": "Ġregar", "4640": "gation", "4641": "Ġregard", "4642": "Ġexcl", "4643": "Ġexpress", "4644": "Ġama", "4645": "Ġfamilie", "4646": "Ġric", "4647": "Ġdeveloper", "4648": "vin", "4649": "Ġselec", "4650": "ĠChan", "4651": "Ġfamilies", "4652": "Ġconsumer", "4653": "Ġselect", "4654": "Ġsyn", "4655": "ĠCanadi", "4656": "Ġprincip", "4657": "Ġuniq", "4658": "Ġactions", "4659": "Ġfru", "4660": "ĠMex", "4661": "Ġallows", "4662": "Ġrefus", "4663": "Ġuniqu", "4664": "Ġneighbor", "4665": "Ġunique", "4666": "ĠBlo", "4667": "iner", "4668": "Ġgives", "4669": "Ġtrus", "4670": "ĠMexi", "4671": "ĠGover", "4672": "Ġyourself", "4673": "reating", "4674": "ĠMexic", "4675": "Ġappare", "4676": "Ġappeare", "4677": "Ġspre", "4678": "Ġappeared", "4679": "Ġsoli", "4680": "Ġshif", "4681": "ĠBat", "4682": "Ġstruggl", "4683": "Ġstruggle", "4684": "ĠCharl", "4685": "Ġdouble", "4686": "Ġsigned", "4687": "ĠSci", "4688": "Ġtrust", "4689": "Ġelectri", "4690": "ĠTri", "4691": "ĠChic", "4692": "Ġfreq", "4693": "ĠIslami", "4694": "Ġfarm", "4695": "Ġsettl", "4696": "Ġrefo", "4697": "Ġmale", "4698": "Ġrealiz", "4699": "Ġsettle", "4700": "ĠGovern", "4701": "Ġabuse", "4702": "Ġapar", "4703": "Ġeva", "4704": "ĠMid", "4705": "Ġfrequ", "4706": "Ġfreque", "4707": "ĠAsi", "4708": "Ġweapons", "4709": "Ġseat", "4710": "Ġfram", "4711": "Ġinstanc", "4712": "Ġdegre", "4713": "Ġappli", "4714": "Ġinstance", "4715": "Ġlitera", "4716": "Ġfrequen", "4717": "Ġdegree", "4718": "inted", "4719": "Ġdecades", "4720": "Ġpolitics", "4721": "Ġschedul", "4722": "Ġschedule", "4723": "Ġenforc", "4724": "Ġapart", "4725": "Ġenforce", "4726": "fying", "4727": "Ġframe", "4728": "ĠSmit", "4729": "ĠInternational", "4730": "Ġbrothe", "4731": "Ġinno", "4732": "Ġscal", "4733": "Ġuses", "4734": "Ġexperim", "4735": "Ġexperime", "4736": "Ġmist", "4737": "Ġrar", "4738": "ĠRec", "4739": "Ġdestro", "4740": "Ġfreed", "4741": "Ġpeace", "4742": "Ġstrai", "4743": "Ġrealize", "4744": "Ġaltern", "4745": "ĠSchoo", "4746": "According", "4747": "Ġsales", "4748": "Ġdepen", "4749": "Ġdeveloped", "4750": "Ġwriter", "4751": "Ġamb", "4752": "Ġdepend", "4753": "ĠGeneral", "4754": "Ġconfli", "4755": "Ġengag", "4756": "Ġbenefits", "4757": "Ġjournali", "4758": "Ġjournalis", "4759": "ĠV", "4760": "ĠVi", "4761": "ĠVa", "4762": "ĠVe", "4763": "ĠVo", "4764": "ĠVal", "4765": "ĠVer", "4766": "Ġdisea", "4767": "Ġtrou", "4768": "Ġdiseas", "4769": "Ġengage", "4770": "Ġdisease", "4771": "Ġ3", "4772": "Ġ30", "4773": "Ġbeau", "4774": "Ġrelated", "4775": "Ġtrut", "4776": "Ġminim", "4777": "Ġtruth", "4778": "Ġexpos", "4779": "pening", "4780": "ĠPort", "4781": "Ġpropose", "4782": "ĠAnt", "4783": "Ġrefl", "4784": "ĠSchool", "4785": "ĠEU", "4786": "Ġnoted", "4787": "ĠCounc", "4788": "Ġconsiste", "4789": "Ġsetting", "4790": "ĠCounci", "4791": "ĠCouncil", "4792": "ĠSmith", "4793": "ĠEart", "4794": "Ġgoals", "4795": "ĠEarth", "4796": "Ġcontribut", "4797": "ĠLas", "4798": "Ġhistoric", "4799": "Ġindividuals", "4800": "ĠNic", "4801": "Ġbeaut", "4802": "Ġbeat", "4803": "Ġcontinues", "4804": "Ġelectric", "4805": "ĠUnion", "4806": "ĠArab", "4807": "ĠCentr", "4808": "Ġprepar", "4809": "Ġbrand", "4810": "bling", "4811": "Ġgenerat", "4812": "ĠTurk", "4813": "Ġrefor", "4814": "Ġapparen", "4815": "Ġado", "4816": "Ġapparent", "4817": "ĠPolice", "4818": "Ġrema", "4819": "Ġintelligenc", "4820": "Ġintelligence", "4821": "Ġprojects", "4822": "ĠEs", "4823": "Ġtrai", "4824": "rison", "4825": "ĠRig", "4826": "Ġjum", "4827": "ĠStev", "4828": "ĠGermany", "4829": "Ġdrea", "4830": "Ġpreviousl", "4831": "Ġstraig", "4832": "Ġpreviously", "4833": "Ġ31", "4834": "Ġstraigh", "4835": "Ġfully", "4836": "Ġstraight", "4837": "Ġgar", "4838": "Ġadu", "4839": "Ġinstru", "4840": "Ġlice", "4841": "Ġvicto", "4842": "Ġvictor", "4843": "Ġbrother", "4844": "Ġrates", "4845": "Ġadvant", "4846": "Ġadvanta", "4847": "ĠThom", "4848": "Ġadvantag", "4849": "Ġadvantage", "4850": "Ġweeke", "4851": "Ġweeken", "4852": "Ġweekend", "4853": "Ġplease", "4854": "aring", "4855": "Ġlines", "4856": "Ġadul", "4857": "Ġprepare", "4858": "Ġtraf", "4859": "ĠOv", "4860": "ĠMis", "4861": "Ġspir", "4862": "ptions", "4863": "Ġhighly", "4864": "ĠCanadia", "4865": "ĠCanadian", "4866": "Ġadult", "4867": "Ġlarger", "4868": "Ġprem", "4869": "Ġtraff", "4870": "Ġtraffi", "4871": "Ġseeme", "4872": "Ġseemed", "4873": "Ġadmit", "4874": "Ġalterna", "4875": "Ġdai", "4876": "Ġalternat", "4877": "Ġnarr", "4878": "ofi", "4879": "Ġhyp", "4880": "Ġknowl", "4881": "Ġdau", "4882": "Ġknowle", "4883": "Ġprograms", "4884": "ĠMod", "4885": "Ġknowled", "4886": "Ġknowledg", "4887": "Ġunli", "4888": "ĠMad", "4889": "Ġtypi", "4890": "Ġlicen", "4891": "Ġresources", "4892": "Ġdepartm", "4893": "Ġdepartme", "4894": "Ġdepartmen", "4895": "Ġdepartment", "4896": "Ġdraft", "4897": "ĠMag", "4898": "Ġgreater", "4899": "Ġprimary", "4900": "Ġearn", "4901": "ĠReg", "4902": "Ġknowledge", "4903": "ĠPac", "4904": "ĠSpo", "4905": "Ġrecommend", "4906": "calling", "4907": "Ġstudies", "4908": "Ġrare", "4909": "Ġdecline", "4910": "Ġaudie", "4911": "Ġaudien", "4912": "Ġaudienc", "4913": "Ġdocto", "4914": "ĠThr", "4915": "Ġinstall", "4916": "Ġaudience", "4917": "Ġessent", "4918": "Ġessenti", "4919": "Ġulti", "4920": "Ġprison", "4921": "ĠMik", "4922": "Ġessentia", "4923": "Ġessential", "4924": "ĠAre", "4925": "Ġultim", "4926": "Ġfeet", "4927": "Ġdoctor", "4928": "ĠInterne", "4929": "Ġeth", "4930": "Ġreached", "4931": "ĠInternet", "4932": "Ġaccuse", "4933": "ĠDef", "4934": "Ġaim", "4935": "Ġultima", "4936": "Ġexch", "4937": "Ġmec", "4938": "Ġbala", "4939": "Ġultimat", "4940": "ĠLou", "4941": "Ġgreen", "4942": "Ġstab", "4943": "Ġteache", "4944": "Ġplaces", "4945": "ĠDev", "4946": "Ġannu", "4947": "ĠSteve", "4948": "Ġrefle", "4949": "Ġtypic", "4950": "Ġtypica", "4951": "Ġtypical", "4952": "ĠMer", "4953": "Ġreform", "4954": "Ġprose", "4955": "Ġexcha", "4956": "Ġmanuf", "4957": "Ġstatus", "4958": "Ġmanufa", "4959": "Ġmanufac", "4960": "eting", "4961": "Ġmanufact", "4962": "Ġtan", "4963": "Ġagg", "4964": "Ġlaunche", "4965": "Ġhandl", "4966": "Ġabsol", "4967": "soft", "4968": "Ġbalan", "4969": "Ġknows", "4970": "Ġsupporter", "4971": "Ġdoubt", "4972": "Ġdark", "4973": "Ġactivity", "4974": "Ġhandle", "4975": "Ġinspi", "4976": "Ġweight", "4977": "Ġexperimen", "4978": "Ġsources", "4979": "ĠNu", "4980": "Ġflow", "4981": "Ġfine", "4982": "Ġmech", "4983": "Ġina", "4984": "Ġfighting", "4985": "Ġautom", "4986": "Ġhai", "4987": "Ġdebt", "4988": "Ġenem", "4989": "Ġmassi", "4990": "ĠBlu", "4991": "Ġemotion", "4992": "ĠBrown", "4993": "ĠScie", "4994": "ĠAma", "4995": "ĠScien", "4996": "Ġvet", "4997": "Ġmassiv", "4998": "Ġoptions", "4999": "Ġconflic", "5000": "Ġconflict", "5001": "Ġmassive", "5002": "Ġ2007", "5003": "ĠLabo", "5004": "opening", "5005": "Ġvarie", "5006": "Ġmiles", "5007": "Ġultimate", "5008": "ĠNF", "5009": "ĠFlori", "5010": "Ġcalling", "5011": "ĠAge", "5012": "initel", "5013": "Ġsente", "5014": "Ġended", "5015": "ĠScott", "5016": "initely", "5017": "ĠLos", "5018": "Ġsenten", "5019": "ĠSecu", "5020": "etition", "5021": "ĠVan", "5022": "Ġresearchers", "5023": "Ġabsolu", "5024": "Ġsun", "5025": "cont", "5026": "creating", "5027": "Ġabsolut", "5028": "ĠGold", "5029": "ĠSur", "5030": "ĠDen", "5031": "Ġfue", "5032": "âĢĿ,", "5033": "Ġalbu", "5034": "ĠLet", "5035": "Ġsurfa", "5036": "ĠCE", "5037": "Ġprices", "5038": "Ġalbum", "5039": "ĠEvery", "5040": "Ġhappens", "5041": "Ġhaven", "5042": "ĠFrom", "5043": "Ġpolici", "5044": "Ġemployees", "5045": "ĠEngla", "5046": "itation", "5047": "ĠGua", "5048": "ĠEnglan", "5049": "ĠFrance", "5050": "ĠEngland", "5051": "inger", "5052": "oring", "5053": "Ġvirt", "5054": "kin", "5055": "ĠStan", "5056": "Ġwilling", "5057": "Ġ35", "5058": "ĠPale", "5059": "Ġraised", "5060": "Ġsuffe", "5061": "Ġsuffer", "5062": "ĠBay", "5063": "Ġvirtu", "5064": "Ġsupposed", "5065": "Ġbirt", "5066": "Ġbirth", "5067": "Ġpolicie", "5068": "ĠAsia", "5069": "Ġexchan", "5070": "Ġexchang", "5071": "Ġadding", "5072": "Ġexchange", "5073": "Ġnames", "5074": "Ġpolicies", "5075": "inf", "5076": "ĠNB", "5077": "Ġbull", "5078": "erating", "5079": "Ġabsolute", "5080": "Ġanyw", "5081": "Ġslig", "5082": "Ġsligh", "5083": "pponent", "5084": "Ġsurfac", "5085": "Ġinstitution", "5086": "Ġslight", "5087": "ĠDir", "5088": "Ġconcerns", "5089": "Ġunp", "5090": "eeping", "5091": "Ġrej", "5092": "Ġacq", "5093": "Ġreporter", "5094": "Ġacqu", "5095": "Ġvil", "5096": "Ġsurface", "5097": "Ġdiver", "5098": "Ġlearne", "5099": "ĠVir", "5100": "Ġfunding", "5101": "Ġdemoc", "5102": "Ġgrand", "5103": "ĠFlorid", "5104": "Ġmecha", "5105": "ĠTran", "5106": "Ġpatients", "5107": "Ġauthoriti", "5108": "Ġauthoritie", "5109": "Ġauthorities", "5110": ".âĢĻ", "5111": "Ġdemocr", "5112": "ĠSecur", "5113": "Ġannua", "5114": "ĠPeo", "5115": "Ġrecov", "5116": "Ġannual", "5117": "Ġcreating", "5118": "Ġguide", "5119": "Ġdemocra", "5120": "Ġdeni", "5121": "Ġfreedo", "5122": "Ġfreedom", "5123": "Ġindicate", "5124": "ĠAP", "5125": "Ġwish", "5126": "ĠCle", "5127": "Ġder", "5128": "Ġmenta", "5129": "Ġtree", "5130": "Ġmental", "5131": "Ġhearing", "5132": "Ġseeing", "5133": "ĠVic", "5134": "Ġmechan", "5135": "Ġdaug", "5136": "ĠRigh", "5137": "Ġdaugh", "5138": "ĠRoc", "5139": "Ġdaught", "5140": "Ġdaughte", "5141": "Ġdaughter", "5142": "ĠSecr", "5143": "ĠCommi", "5144": "Ġ-", "5145": "Ġ--", "5146": "Ġpacka", "5147": "ĠSecre", "5148": "Ġmechani", "5149": "ĠInc", "5150": "ĠRight", "5151": "Ġmari", "5152": "Ġactivis", "5153": "Ġeasie", "5154": "Ġleaving", "5155": "ĠDra", "5156": "Ġserver", "5157": "Ġconsisten", "5158": "Ġrefuse", "5159": "ĠPeop", "5160": "ĠPeopl", "5161": "ĠPeople", "5162": "ĠHeal", "5163": "Ġtempe", "5164": "pposition", "5165": "Ġoffere", "5166": "ĠFlorida", "5167": "Ġmarria", "5168": "ĠHilla", "5169": "Ġmarriag", "5170": "Ġmarriage", "5171": "Ġworse", "5172": "Ġoffered", "5173": "Ġpatt", "5174": "ĠMedic", "5175": "ĠLaw", "5176": "onit", "5177": "Ġstoc", "5178": "Ġadvis", "5179": "bon", "5180": "Ġaid", "5181": "opponent", "5182": "ĠHillar", "5183": "ĠWall", "5184": "iction", "5185": "ĠSecret", "5186": "Ġexperiment", "5187": "llion", "5188": "ĠHillary", "5189": "ĠCO", "5190": "Ġposted", "5191": "Ġgrap", "5192": "ĠWell", "5193": "Ġgold", "5194": "Ġboun", "5195": "Ġopponent", "5196": "ĠCommit", "5197": "Ġprosec", "5198": "oking", "5199": "ĠPete", "5200": "ĠMost", "5201": "Ġnine", "5202": "Ġinh", "5203": "oration", "5204": "Ġesca", "5205": "inen", "5206": "Ġreveale", "5207": "Ġrout", "5208": "Ġrevealed", "5209": "Ġapplication", "5210": "ĠRy", "5211": "Ġmostl", "5212": "Ġmostly", "5213": "Ġarra", "5214": "Ġvalues", "5215": "ĠAlex", "5216": "Ġdigita", "5217": "ĠBit", "5218": "Ġdigital", "5219": "ĠChica", "5220": "Ġwhom", "5221": "Ġrecogniz", "5222": "Ġpartie", "5223": "Ġstock", "5224": "Ġuniversi", "5225": "ĠBoo", "5226": "oned", "5227": "Ġuniversit", "5228": "ĠAccording", "5229": "Ġblue", "5230": "Ġtemper", "5231": "Ġmicr", "5232": "Ġsubsta", "5233": "Ġnega", "5234": "Ġsubstan", "5235": "Ġrecords", "5236": "Ġnegat", "5237": "ĠSn", "5238": "Ġopening", "5239": "Ġanc", "5240": "âĢ¢", "5241": "ĠGran", "5242": "ĠTer", "5243": "Ġble", "5244": "Ġbrie", "5245": "ĠOve", "5246": "Ġtransfe", "5247": "Ġadj", "5248": "Ġbelieved", "5249": "Ġexclu", "5250": "Ġbrief", "5251": "Ġlearned", "5252": "oner", "5253": "min", "5254": "ĠStor", "5255": "Ġstrategy", "5256": "Ġedito", "5257": "Ġeditor", "5258": "ĠVie", "5259": "Ġdese", "5260": "perations", "5261": "ĠCommitt", "5262": "ĠCommitte", "5263": "Ġresta", "5264": "Ġarreste", "5265": "Ġpatte", "5266": "ĠChicag", "5267": "ĠChicago", "5268": "Ġaccomp", "5269": "Ġshift", "5270": "Ġdista", "5271": "Ġtransfer", "5272": "Ġbarr", "5273": "ĠIta", "5274": "Ġnego", "5275": "Ġtwee", "5276": "Ġscale", "5277": "Ġdevices", "5278": "Ġparties", "5279": "casion", "5280": "Ġwild", "5281": "Ġlawy", "5282": "petition", "5283": "Ġbalanc", "5284": "Ġbalance", "5285": "Ġinfor", "5286": "ĠOh", "5287": "ĠSecuri", "5288": "Ġetc", "5289": "ĠBush", "5290": "ĠSecurit", "5291": "Ġdram", "5292": "ĠCommittee", "5293": "Ġlawye", "5294": "Ġlawyer", "5295": "operations", "5296": "Ġpou", "5297": "Ġride", "5298": "Ġarrested", "5299": "Ġfeed", "5300": "Ġwhate", "5301": "Ġshowing", "5302": "Ġwhatev", "5303": "Ġstation", "5304": "Ġerro", "5305": "Ġwhateve", "5306": "Ġwhatever", "5307": "Ġsurro", "5308": "opposition", "5309": "ĠShi", "5310": "Ġerror", "5311": "Ġnegot", "5312": "Ġassau", "5313": "Ġreven", "5314": "Ġassaul", "5315": "Ġsomew", "5316": "Ġbomb", "5317": "Ġprovides", "5318": "Ġoperation", "5319": "ĠIsraeli", "5320": "Ġpark", "5321": "ĠColo", "5322": "Ġpatter", "5323": "Ġtoug", "5324": "Ġsomewh", "5325": "Ġtough", "5326": "Ġexpan", "5327": "Ġfuel", "5328": "ĠWeste", "5329": "Ġpha", "5330": "Ġseek", "5331": "Ġfloor", "5332": "Ġsamp", "5333": "Ġasking", "5334": "Ġdrama", "5335": "mpetition", "5336": "ompetition", "5337": "Ġoperations", "5338": "Ġproduced", "5339": "ĠSim", "5340": "Ġresponsibl", "5341": "Ġroll", "5342": "ĠWester", "5343": "Ġgradu", "5344": "Ġhate", "5345": "Ġmission", "5346": "Ġdy", "5347": "Ġbrow", "5348": "Ġfocuse", "5349": "Ġbab", "5350": "hain", "5351": "Ġextend", "5352": "ĠJusti", "5353": "Ġconfirme", "5354": "ĠThan", "5355": "ĠStud", "5356": "Ġproposa", "5357": "Ġconfirmed", "5358": "Ġproposal", "5359": "Ġopposition", "5360": "ĠPub", "5361": "Ġshut", "5362": "Ġont", "5363": "Ġsect", "5364": "nning", "5365": "Ġruns", "5366": "ntation", "5367": "Ġsna", "5368": "Ġ195", "5369": "ĠItal", "5370": "Ġpattern", "5371": "Ġdesir", "5372": "Ġdistric", "5373": "Ġdistrict", "5374": "ĠColle", "5375": "Ġstran", "5376": "iling", "5377": "gine", "5378": "Ġresidents", "5379": "zations", "5380": "Ġdestroy", "5381": "ĠYea", "5382": "competition", "5383": "ĠCommission", "5384": "Ġmicro", "5385": "Ġpredic", "5386": "point", "5387": "Ġtelevision", "5388": "ĠMicr", "5389": "Ġtweet", "5390": "Ġreti", "5391": "ĠPress", "5392": "Ġsoldi", "5393": "inic", "5394": "rting", "5395": "ĠHom", "5396": "Ġencourag", "5397": "Ġencourage", "5398": "nation", "5399": "ĠHealt", "5400": "ĠFranci", "5401": "ĠHealth", "5402": "Ġsoldie", "5403": "Ġsoldier", "5404": "Ġattra", "5405": "Ġsection", "5406": "Ġtic", "5407": "ĠAnn", "5408": "Ġshap", "5409": "izations", "5410": "Ġshape", "5411": "ĠOver", "5412": "Ġrecr", "5413": "ĠWhy", "5414": "Ġsmalle", "5415": "Ġteacher", "5416": "Ġintend", "5417": "ĠPan", "5418": "Ġappeara", "5419": "Ġconsta", "5420": "Ġappearan", "5421": "Ġappearanc", "5422": "Ġappearance", "5423": "Ġnegati", "5424": "ĠJustic", "5425": "Ġnegativ", "5426": "Ġborn", "5427": "ĠOth", "5428": "onor", "5429": "Ġ32", "5430": "ccasion", "5431": "Ġonto", "5432": "Ġcompetition", "5433": "ĠBank", "5434": "ĠFrancis", "5435": "Ġspiri", "5436": "Ġguard", "5437": "Ġspirit", "5438": "Ġadvo", "5439": "Ġath", "5440": "Ġradio", "5441": "ĠBeca", "5442": "ĠJustice", "5443": "Ġvill", "5444": "Ġadvoc", "5445": "lations", "5446": "Ġshel", "5447": "Ġnov", "5448": "ĠInsti", "5449": "Ġdollars", "5450": "ĠMicro", "5451": "ĠTrans", "5452": "Ġpremi", "5453": "Ġgrant", "5454": "Ġdiscr", "5455": "Ġdail", "5456": "Ġstati", "5457": "ĠInstit", "5458": "ĠInstitu", "5459": "Ġlearning", "5460": "ĠCup", "5461": "Ġrank", "5462": "Ġsentenc", "5463": "Ġintereste", "5464": "Ġprofit", "5465": "Ġinterested", "5466": "ĠOthe", "5467": "Ġsentence", "5468": "ĠInstitut", "5469": "Ġtalen", "5470": "Ġtalent", "5471": "Ġ194", "5472": "Ġgenerate", "5473": "Ġacqui", "5474": "Ġhighes", "5475": "Ġhighest", "5476": "known", "5477": "killing", "5478": "Ġtick", "5479": "inian", "5480": "Ġdistan", "5481": "Ġmemory", "5482": "occasion", "5483": "Ġresponsible", "5484": "Ġroute", "5485": "Ġeffi", "5486": "Ġwag", "5487": "ĠAut", "5488": "Ġdaily", "5489": "ĠPales", "5490": "Ġtheory", "5491": "Ġoffers", "5492": "Ġvs", "5493": "ĠOther", "5494": "Ġunr", "5495": "Ġlock", "5496": "igration", "5497": "chain", "5498": "Ġyar", "5499": "ĠOur", "5500": "Ġmista", "5501": "Ġagreed", "5502": "Ġrecognize", "5503": "Ġmistak", "5504": "Ġmistake", "5505": "Ġrew", "5506": "ĠBecau", "5507": "ĠBecaus", "5508": "ĠBecause", "5509": "ĠInf", "5510": "Ġoccasion", "5511": "Ġmoun", "5512": "onest", "5513": "ĠArc", "5514": "Ġtypes", "5515": "ĠCoa", "5516": "Ġprosp", "5517": "ĠUs", "5518": "Ġflu", "5519": "ĠInstitute", "5520": "Ġflig", "5521": "Ġfligh", "5522": "Ġmillions", "5523": "ĠWestern", "5524": "Ġflight", "5525": "anging", "5526": "ĠCaro", "5527": "Ġreferenc", "5528": "Ġdeterm", "5529": "ĠGrou", "5530": "Ġgath", "5531": "ĠMike", "5532": "Ġreference", "5533": "ĠAtt", "5534": "Ġprospe", "5535": "Ġtraffic", "5536": "Ġfounde", "5537": "Ġadvert", "5538": "Ġgenerall", "5539": "Ġheavy", "5540": "Ġbasis", "5541": "Ġgenerally", "5542": "Ġproposed", "5543": "Ġunderstanding", "5544": "Ġeffic", "5545": "Ġterrorist", "5546": "Ġpurs", "5547": "ĠBru", "5548": "Ġexplained", "5549": "Ġwav", "5550": "ĠGrea", "5551": "Ġpitc", "5552": "eason", "5553": "Ġpitch", "5554": "ĠFB", "5555": "Ġpossibi", "5556": "Ġpossibil", "5557": "Ġconstan", "5558": "Ġinform", "5559": "Ġplanet", "5560": "'t", "5561": "Ġtempera", "5562": "Ġpartners", "5563": "ĠHen", "5564": "Ġpossibili", "5565": "Ġopinion", "5566": "Ġaward", "5567": "Ġassault", "5568": "Ġpossibilit", "5569": "ĠWeb", "5570": "Ġmora", "5571": "Ġdeser", "5572": "Ġconstant", "5573": "ĠDon", "5574": "Ġassociated", "5575": "inking", "5576": "Ġfailu", "5577": "Ġfailur", "5578": "Ġfailure", "5579": "lding", "5580": "ĠNFL", "5581": "Ġrecove", "5582": "Ġnegative", "5583": "Ġrecover", "5584": "Ġwind", "5585": "Ġera", "5586": "ĠBig", "5587": "Ġbecomes", "5588": "ĠFoun", "5589": "Ġequip", "5590": "ĠSecurity", "5591": "Ġreflec", "5592": "Ġreflect", "5593": "Ġdangero", "5594": "Ġdangerou", "5595": "Ġdangerous", "5596": "phone", "5597": "Ġlabor", "5598": "Ġhus", "5599": "Ġsprea", "5600": "Ġspread", "5601": "migration", "5602": "ĠJohnson", "5603": "Ġrich", "5604": "Ġfres", "5605": "Ġhundreds", "5606": "ĠHel", "5607": "Ġsurvey", "5608": "entation", "5609": "Ġspl", "5610": "Ġscar", "5611": "ĠAndre", "5612": "Ġphotog", "5613": "Ġjump", "5614": "Ġsurrou", "5615": "ĠHum", "5616": "ĠSande", "5617": "Ġremar", "5618": "ĠFar", "5619": "Ġreturne", "5620": "Ġdream", "5621": "Ġkilling", "5622": "Ġsolid", "5623": "Ġexer", "5624": "Ġmanagem", "5625": "Ġmanageme", "5626": "Ġmanagemen", "5627": "Ġmanagement", "5628": "Ġinterne", "5629": "mponent", "5630": "omponent", "5631": "Ġunlik", "5632": "Ġgay", "5633": "Ġphotogr", "5634": "Ġphotogra", "5635": "ĠWindows", "5636": "Ġcong", "5637": "Ġthus", "5638": "ĠTy", "5639": "ĠHall", "5640": "Ġbecoming", "5641": "ĠCommu", "5642": "Ġcontrov", "5643": "Ġcontrove", "5644": "Ġeasier", "5645": "Ġcontrover", "5646": "Ġwinning", "5647": "ĠGreat", "5648": "Ġwave", "5649": "Ġalternati", "5650": "ĠPatr", "5651": "Ġalternativ", "5652": "tration", "5653": "Ġcontrovers", "5654": "Ġphotograp", "5655": "Ġlegislation", "5656": "Ġunlike", "5657": "Ġactivist", "5658": "Ġassista", "5659": "Ġassistan", "5660": "ĠMany", "5661": "Ġfals", "5662": "Ġhorr", "5663": "Ġspecie", "5664": "Ġfinishe", "5665": "ĠLiv", "5666": "Ġalternative", "5667": "Ġaggr", "5668": "Ġaccused", "5669": "Ġros", "5670": "Ġfresh", "5671": "Ġpackag", "5672": "Ġspecies", "5673": "Ġpackage", "5674": "Ġdemonstr", "5675": "ĠChur", "5676": "Ġinteg", "5677": "Ġreade", "5678": "Ġshared", "5679": "Ġdemonstra", "5680": "Ġjustic", "5681": "Ġnegoti", "5682": "Ġreader", "5683": "Ġbeer", "5684": "ĠWr", "5685": "ĠSander", "5686": "Ġwes", "5687": "Ġautoma", "5688": "Ġ2006", "5689": "Ġmachine", "5690": "Ġjustice", "5691": "ĠJes", "5692": "ĠMari", "5693": "Ġserved", "5694": "Ġsurg", "5695": "Ġextremel", "5696": "Ġexci", "5697": "Ġfait", "5698": "Ġextremely", "5699": "ĠIslamic", "5700": "Ġprofe", "5701": "Ġwage", "5702": "ĠCommun", "5703": "Ġwest", "5704": "Ġdocuments", "5705": "Ġyard", "5706": "Ġatto", "5707": "Ġexpand", "5708": "ĠUk", "5709": "Ġpolitici", "5710": "Ġlocation", "5711": "Ġattor", "5712": "Ġweal", "5713": "Ġattorn", "5714": "Ġreta", "5715": "ĠCri", "5716": "ĠAM", "5717": "Ġattorne", "5718": "Ġattorney", "5719": "Ġscientists", "5720": "Ġvictims", "5721": "ĠLik", "5722": "Ġwealt", "5723": "Ġwealth", "5724": "Ġreca", "5725": "Ġtranspo", "5726": "mond", "5727": "Ġbelief", "5728": "eing", "5729": "Ġmarij", "5730": "Ġmariju", "5731": "Ġmarijua", "5732": "Ġmarijuan", "5733": "Ġmobile", "5734": "Ġmarijuana", "5735": "Ġarchi", "5736": "Ġtroub", "5737": "Ġeat", "5738": "Ġpaym", "5739": "ĠTec", "5740": "Ġjournalist", "5741": "ĠCoo", "5742": "Ġreturned", "5743": "Ġbotto", "5744": "Ġbottom", "5745": "Ġheat", "5746": "Ġbed", "5747": "Ġtroubl", "5748": "Ġtrouble", "5749": "ĠChurc", "5750": "ĠChurch", "5751": "Ġincred", "5752": "ĠPM", "5753": "ĠFla", "5754": "Ġmast", "5755": "Ġlibera", "5756": "Ġinternet", "5757": "Ġpayme", "5758": "Ġpaymen", "5759": "Ġpayment", "5760": "Ġprofes", "5761": "ĠSanders", "5762": "Ġflag", "5763": "Ġappeal", "5764": "Ġvictory", "5765": "Ġmaintain", "5766": "Ġreser", "5767": "ĠJoe", "5768": "Ġleadersh", "5769": "Ġleadershi", "5770": "Ġleadership", "5771": "Ġtren", "5772": "Ġpredict", "5773": "long", "5774": "Ġprofess", "5775": "Ġphotograph", "5776": "keeping", "5777": "Ġfaste", "5778": "ĠPrim", "5779": "ĠDire", "5780": "Ġremark", "5781": "Ġswa", "5782": "ĠGet", "5783": "ĠYour", "5784": "Ġexisting", "5785": "ĠShar", "5786": "Ġswit", "5787": "Ġfaith", "5788": "Ġnove", "5789": "Ġpair", "5790": "Ġholding", "5791": "Ġshop", "5792": "eding", "5793": "Ġhid", "5794": "Ġwatching", "5795": "ĠAfrican", "5796": "Ġpromot", "5797": "ĠFox", "5798": "Ġnotes", "5799": "Ġcontribute", "5800": "Ġpromote", "5801": "Ġslee", "5802": "ĠRiv", "5803": "Ġrelie", "5804": "Ġviews", "5805": "Ġsampl", "5806": "Ġsample", "5807": "Ġdemonstrat", "5808": "Ġalli", "5809": "tinian", "5810": "Ġtemperat", "5811": "Ġputting", "5812": "ĠAve", "5813": "Ġdism", "5814": "Ġhair", "5815": "Ġsupporters", "5816": "Ġ36", "5817": "Ġdrugs", "5818": "Ġnovel", "5819": "Ġexplain", "5820": "ĠPubl", "5821": "ĠPeter", "5822": "ĠLike", "5823": "Ġconsistent", "5824": "ĠSau", "5825": "ĠFoo", "5826": "ĠDist", "5827": "Ġlaunched", "5828": "Ġexiste", "5829": "ĠPow", "5830": "Ġpane", "5831": "ĠThank", "5832": "ĠMont", "5833": "Ġnone", "5834": "ĠLeg", "5835": "mmission", "5836": "ommission", "5837": "Ġdefinitely", "5838": "Ġbun", "5839": "Ġdirection", "5840": "Ġbackg", "5841": "ĠHun", "5842": "ĠCra", "5843": "Ġpsycho", "5844": "Ġmax", "5845": "ĠLoui", "5846": "ĠLive", "5847": "Ġmoral", "5848": "ĠCli", "5849": "anding", "5850": "Ġbackgr", "5851": "Ġbackgro", "5852": "Ġrepeate", "5853": "Ġbackgrou", "5854": "going", "5855": "Ġfran", "5856": "ĠDirec", "5857": "Ġtechnic", "5858": "Ġinterf", "5859": "Ġbackgroun", "5860": "Ġbackground", "5861": "Ġexcit", "5862": ".\"", "5863": "ĠAtl", "5864": "ĠTHE", "5865": "Ġadvoca", "5866": "ĠTech", "5867": "Ġincredi", "5868": "Ġincredib", "5869": "Ġincredibl", "5870": "Ġplays", "5871": "ĠMill", "5872": "Ġstated", "5873": "Ġdome", "5874": "Ġdesire", "5875": "ĠLibe", "5876": "Ġshoot", "5877": "Ġups", "5878": "ĠEg", "5879": "ĠFBI", "5880": "Ġvaria", "5881": "Ġdeclar", "5882": "component", "5883": "ĠCarol", "5884": "ĠTal", "5885": "inct", "5886": "Ġlisten", "5887": "Ġdece", "5888": "ĠJud", "5889": "Ġsuggeste", "5890": "Ġsuggested", "5891": "Ġexh", "5892": "Ġmoti", "5893": "ĠSince", "5894": "Ġsites", "5895": "Ġpoliticia", "5896": "Ġtap", "5897": "Ġscri", "5898": "Ġpolitician", "5899": "Ġpursu", "5900": "mpionsh", "5901": "Ġrestau", "5902": "mpionshi", "5903": "mpionship", "5904": "Ġrestaur", "5905": "ĠAfg", "5906": "Ġrestaura", "5907": "ĠRock", "5908": "ĠLiber", "5909": "Ġrepeated", "5910": "Ġtemperatu", "5911": "Ġtemperatur", "5912": "Ġrestri", "5913": "Ġtemperature", "5914": "hanging", "5915": "Ġanimals", "5916": "ĠAfgh", "5917": "ĠForc", "5918": "Ġsecure", "5919": "ĠAfgha", "5920": "Ġretir", "5921": "ĠAfghan", "5922": "Ġtelling", "5923": "ĠBot", "5924": "Ġassume", "5925": "Ġmonit", "5926": "ĠSil", "5927": "Ġretire", "5928": "ĠRE", "5929": "Ġdiscovere", "5930": "Ġunle", "5931": "Ġdriving", "5932": "knowl", "5933": "Ġteen", "5934": "Ġtig", "5935": "Ġworst", "5936": "Ġentirel", "5937": "Ġentirely", "5938": "Ġded", "5939": "knowle", "5940": "ĠRicha", "5941": "Ġapo", "5942": "ĠBritain", "5943": "knowled", "5944": "Ġaspe", "5945": "Ġresis", "5946": "Ġintens", "5947": "Ġfalse", "5948": "ĠCru", "5949": "Ġresist", "5950": "rine", "5951": "Ġrevenu", "5952": "Ġgeneration", "5953": "Ġsac", "5954": "Ġrevenue", "5955": "ĠRichar", "5956": "ĠDefe", "5957": "ĠDal", "5958": "ĠMur", "5959": "ĠForce", "5960": "Ġeffici", "5961": "ĠPle", "5962": "ĠRichard", "5963": "Ġsmaller", "5964": "Ġefficie", "5965": "Ġefficien", "5966": "Ġtools", "5967": "Ġfourt", "5968": "Ġresponsibi", "5969": "Ġresponsibil", "5970": "inent", "5971": "Ġdiscovered", "5972": "Ġmani", "5973": "ĠInde", "5974": "Ġresponsibili", "5975": "ĠTod", "5976": "Ġresponsibilit", "5977": "rying", "5978": "ĠDirect", "5979": "Ġexcite", "5980": "!âĢĿ", "5981": "ĠUN", "5982": "ĠOs", "5983": "Ġconcerne", "5984": "Ġaffo", "5985": "Ġaffor", "5986": "Ġrestauran", "5987": "Ġrestaurant", "5988": "Ġbru", "5989": "Ġconcerned", "5990": "Ġprofesso", "5991": "Ġprofessor", "5992": "zone", "5993": "Ġleng", "5994": "Ġafford", "5995": "Ġphi", "5996": "Ġsupported", "5997": "Ġestablishe", "5998": "ĠMou", "5999": "onu", "6000": "iny", "6001": "inner", "6002": "Ġstopp", "6003": "Ġlengt", "6004": "Ġlength", "6005": "Ġaspec", "6006": "Ġaspect", "6007": "Ġbusinesse", "6008": "Ġbusinesses", "6009": "Ġstrang", "6010": "Ġsubm", "6011": "Ġdepl", "6012": "Ġdefea", "6013": "Ġdefeat", "6014": "ĠPubli", "6015": "Ġtranspor", "6016": "ĠLouis", "6017": "Ġinsura", "6018": "Ġplann", "6019": "Ġdeclare", "6020": "Ġplanne", "6021": "Ġactiviti", "6022": "Ġrequires", "6023": "Ġactivitie", "6024": "Ġactivities", "6025": "Ġinsuran", "6026": "Ġinsuranc", "6027": "Ġinsurance", "6028": "lition", "6029": "ĠJones", "6030": "Ġpanel", "6031": "ĠFrank", "6032": "Ġconclu", "6033": "Ġluc", "6034": "Ġroug", "6035": "Ġconseq", "6036": "Ġconsequ", "6037": "ĠUkr", "6038": "Ġlargel", "6039": "Ġlargely", "6040": "Ġexerc", "6041": "Ġprincipl", "6042": "Ġprinciple", "6043": "ĠIslan", "6044": "Ġconseque", "6045": "Ġconsequen", "6046": "ĠIsland", "6047": "Ġallowing", "6048": "Ġtesting", "6049": "kne", "6050": "Ġaccur", "6051": "Ġgraph", "6052": "ĠPowe", "6053": "ĠDet", "6054": "Ġsecto", "6055": "Ġregulat", "6056": "Ġsector", "6057": "Ġada", "6058": "Ġbatte", "6059": "Ġvariet", "6060": "Ġcontex", "6061": "Ġenab", "6062": "Ġenabl", "6063": "Ġenable", "6064": "Ġdoz", "6065": "Ġcontext", "6066": "ĠSpi", "6067": "Ġdecisions", "6068": "Ġaccura", "6069": "Ġseq", "6070": "Ġcomponent", "6071": "Ġvirtua", "6072": "Ġfamo", "6073": "Ġvirtual", "6074": "Ġhighli", "6075": "ĠPC", "6076": "Ġdoze", "6077": "Ġhighlig", "6078": "Ġhighligh", "6079": "Ġfamou", "6080": "Ġfamous", "6081": "ĠHoll", "6082": "ĠPak", "6083": "Ġbelieves", "6084": "Ġrough", "6085": "llection", "6086": "ĠTor", "6087": "Ġpresenc", "6088": "Ġhusb", "6089": "eon", "6090": "Ġspokesm", "6091": "Ġhusba", "6092": "Ġhusban", "6093": "laint", "6094": "Ġrefug", "6095": "Ġhusband", "6096": "Ġstrategi", "6097": "zine", "6098": "Ġpresence", "6099": "Ġhomes", "6100": "Ġstres", "6101": "ĠLak", "6102": "ĠBlue", "6103": "Ġtrul", "6104": "Ġstress", "6105": "Ġconstruction", "6106": "ĠResea", "6107": "commission", "6108": "Ġautomat", "6109": "Ġtruly", "6110": "ĠResear", "6111": "ĠAri", "6112": "Ġrefuge", "6113": "ĠSol", "6114": "ĠResearc", "6115": "ĠResearch", "6116": "ĠConf", "6117": "Ġscan", "6118": "Ġeast", "6119": "ĠEle", "6120": "ĠJewi", "6121": "Ġregim", "6122": "Ġinfr", "6123": "ĠTeam", "6124": "Ġgend", "6125": "Ġdozen", "6126": "Ġvac", "6127": "ĠJewis", "6128": "ĠJewish", "6129": "Ġgradua", "6130": "Ġdivi", "6131": "Ġinterna", "6132": "ĠTel", "6133": "ĠAndro", "6134": "Ġregime", "6135": "Ġwitn", "6136": "Ġwitne", "6137": "Ġticke", "6138": "uting", "6139": "Ġreserv", "6140": "ĠGlo", "6141": "Ġplanning", "6142": "Ġattrac", "6143": "Ġattract", "6144": "ĠInv", "6145": "Ġweak", "6146": "Ġsequ", "6147": "ĠCB", "6148": "Ġapprove", "6149": "Ġplaced", "6150": "ĠAssociation", "6151": "Ġtells", "6152": "ĠCath", "6153": "âĢĺ", "6154": "Ġinternal", "6155": "Ġspokesma", "6156": "Ġspokesman", "6157": "Ġlabe", "6158": "Ġgende", "6159": "Ġgender", "6160": "ĠLor", "6161": "ĠHome", "6162": "Ġresponde", "6163": "offe", "6164": "ĠVirg", "6165": "Ġjoined", "6166": "ĠAtla", "6167": "ĠCur", "6168": "tone", "6169": "Ġmentione", "6170": "Ġhasn", "6171": "Ġentit", "6172": "Ġbeauti", "6173": "Ġmentioned", "6174": "Ġinterests", "6175": "Ġoffensi", "6176": "âĢĶâĢ", "6177": "ĠAda", "6178": "ĠPlan", "6179": "Ġoffensiv", "6180": "Ġtrend", "6181": "Ġoffensive", "6182": "ĠJim", "6183": "Ġdomes", "6184": "Ġsud", "6185": "Ġenforcem", "6186": "Ġenforceme", "6187": "Ġenforcemen", "6188": "Ġenforcement", "6189": "ĠMP", "6190": "Ġviewe", "6191": "Ġphil", "6192": "perating", "6193": "mony", "6194": "changing", "6195": "Ġurg", "6196": "ĠAngele", "6197": "kins", "6198": "Ġurge", "6199": "ĠGOP", "6200": "Ġintroduced", "6201": "ĠBB", "6202": "Ġrepu", "6203": "ĠOpe", "6204": "Ġstoppe", "6205": "ĠJef", "6206": "inistr", "6207": "ĠFol", "6208": "agine", "6209": "Ġsports", "6210": "Ġindustri", "6211": "Ġhero", "6212": "ĠMicrosoft", "6213": "ĶâĢĶ", "6214": "Ġcommission", "6215": "Ġmissing", "6216": "ĠCI", "6217": "ĠNig", "6218": "Ġproviding", "6219": "Ġwaiting", "6220": "ĠStep", "6221": "magine", "6222": "Ġusef", "6223": "Ġusefu", "6224": "Ġuseful", "6225": "tein", "6226": "Ġliberal", "6227": "Ġseque", "6228": "ormation", "6229": "ĠSupr", "6230": "ĠCA", "6231": "ĠYes", "6232": "ĠIl", "6233": "Ġdownl", "6234": "Ġestablished", "6235": "icon", "6236": "Ġharm", "6237": "Ġbanks", "6238": "ĠRive", "6239": "ĠLat", "6240": "Ġnewsp", "6241": "ĠJeff", "6242": "ĠAngeles", "6243": "Ġ2005", "6244": "Ġremoved", "6245": "Ġsubsc", "6246": "Ġdele", "6247": "Ġinvi", "6248": "Ġamazing", "6249": "ĠInste", "6250": "ĠFore", "6251": "Ġdomest", "6252": "Ġbeautif", "6253": "azine", "6254": "ĠInstea", "6255": "ĠInstead", "6256": "Ġinjury", "6257": "ollection", "6258": "hon", "6259": "Ġfant", "6260": "ĠFal", "6261": "Ġdiscussion", "6262": "ĠGovernm", "6263": "ĠConst", "6264": "ĠGovernme", "6265": "ĠGovernmen", "6266": "ĠGovernment", "6267": "Ġdownlo", "6268": "Ġlibr", "6269": "Ġwarn", "6270": "Ġtroo", "6271": "Ġfanta", "6272": "ĠCEO", "6273": "ĠHarr", "6274": "ĠColleg", "6275": "Ġstanding", "6276": "Ġnewspa", "6277": "Ġnewspap", "6278": "Ġtroop", "6279": "Ġfantas", "6280": "Ġnewspape", "6281": "Ġnewspaper", "6282": "Ġconversation", "6283": "ĠBac", "6284": "Ġlicens", "6285": "Ġcontroll", "6286": "Ġtaxe", "6287": "Ġbeautifu", "6288": "Ġbeautiful", "6289": "Ġstopped", "6290": "Ġsubscr", "6291": "ifying", "6292": "ĠSupre", "6293": "Ġsubscri", "6294": "Ġ4", "6295": "Ġ40", "6296": "Ġ45", "6297": "Ġbatter", "6298": "ĠUnd", "6299": "ĠSyrian", "6300": "ĠSuprem", "6301": "Ġstic", "6302": "Ġmeasures", "6303": "Ġmodels", "6304": "Ġfourth", "6305": "ĠFer", "6306": "ĠTen", "6307": "Ġlocat", "6308": "plaint", "6309": "ĠDistr", "6310": "Ġstick", "6311": "ĠDefen", "6312": "Ġ2018", "6313": "Ġbear", "6314": "Ġload", "6315": "Ġgirls", "6316": "elling", "6317": "Ġfiles", "6318": "Ġphotos", "6319": "mmigration", "6320": "Ġconvention", "6321": "Ġedg", "6322": "Ġenvironmenta", "6323": "Ġenvironmental", "6324": "operating", "6325": "mplaint", "6326": "omplaint", "6327": "Ġmanaged", "6328": "lon", "6329": "Ġdomesti", "6330": "nizations", "6331": "Ġtheref", "6332": "Ġreje", "6333": "ĠMedica", "6334": "ĠPalestinian", "6335": "Ġeart", "6336": "Ġadop", "6337": "ĠRya", "6338": "Ġdomestic", "6339": "Ġearth", "6340": "Ġvas", "6341": "Ġfigures", "6342": "ĠMot", "6343": "ĠPaki", "6344": "Ġtechniq", "6345": "Ġtechniqu", "6346": "Ġtechnique", "6347": "Ġtherefo", "6348": "Ġtherefor", "6349": "Ġlicense", "6350": "ĠPakis", "6351": "Ġhousing", "6352": "ĠPakist", "6353": "Ġskills", "6354": "ĠAw", "6355": "Ġfinished", "6356": "ĠAndroi", "6357": "ĠAndroid", "6358": "Ġfunds", "6359": "ĠPakista", "6360": "ĠPakistan", "6361": "ĠGroup", "6362": "Ġlocate", "6363": "ĠMexico", "6364": "ĠStra", "6365": "Ġapprop", "6366": "Ġfrequent", "6367": "Ġvete", "6368": "Ġappropr", "6369": "anizations", "6370": "complaint", "6371": "ĠRiver", "6372": "Ġveter", "6373": "ganizations", "6374": "Ġfocused", "6375": "Ġappre", "6376": "ĠCompa", "6377": "Ġdefensi", "6378": "Ġarrived", "6379": "Ġeg", "6380": "ĠLee", "6381": "Ġ2000", "6382": "Ġkeeping", "6383": "Ġtherefore", "6384": "Ġoffering", "6385": "Ġretr", "6386": "ĠMel", "6387": "Ġacto", "6388": "Ġtechnica", "6389": "Ġticket", "6390": "Ġtechnical", "6391": "Ġadju", "6392": "Ġacknowled", "6393": "Ġemergen", "6394": "Ġpointe", "6395": "Ġactor", "6396": "Ġfamilia", "6397": "ĠBet", "6398": "Ġcontrolle", "6399": "Ġlibra", "6400": "Ġrevolution", "6401": "ronto", "6402": "collection", "6403": "Ġapplie", "6404": "Ġcomplaint", "6405": "ĠSupreme", "6406": "Ġfello", "6407": "Ġfellow", "6408": "ĠRyan", "6409": "Ġinitiat", "6410": "Ġlibrar", "6411": "Ġvu", "6412": "Ġsides", "6413": "Ġinfra", "6414": "ĠJapane", "6415": "ĠJapanes", "6416": "ĠJapanese", "6417": "Ġstrange", "6418": "Ġregiste", "6419": "Ġregister", "6420": "ĠCollege", "6421": "ĠFil", "6422": "Ġrelativel", "6423": "Ġrelatively", "6424": "ĠLake", "6425": "inder", "6426": "ĠSar", "6427": "ĠDistri", "6428": "Ġmaste", "6429": "Ġfeels", "6430": "Ġsignal", "6431": "bine", "6432": "nings", "6433": "Ġpreci", "6434": "ĠMen", "6435": "ĠAls", "6436": "Ġprotection", "6437": "Ġguil", "6438": "Ġaggre", "6439": "Ġloan", "6440": "ĠAlb", "6441": "ĠDai", "6442": "Ġsteps", "6443": "dering", "6444": "Ġprime", "6445": "ĠSpec", "6446": "Ġexerci", "6447": "ĠMiss", "6448": "ĠSub", "6449": "ĠSE", "6450": "Ġdivers", "6451": "Ġinterp", "6452": "Ġexercis", "6453": "Ġsem", "6454": "Ġdebu", "6455": "Ġdefensiv", "6456": "tations", "6457": "Ġrever", "6458": "Ġdefensive", "6459": "Ġconnection", "6460": "immigration", "6461": "Ġexercise", "6462": "ĠArmy", "6463": "Ġslightl", "6464": "Ġslightly", "6465": "Ġmaster", "6466": "Ġattacke", "6467": "dding", "6468": "rbon", "6469": "Ġmere", "6470": "ĠAlth", "6471": "Ġvan", "6472": "Ġshal", "6473": "Ġforge", "6474": "ĠJou", "6475": "Ġgal", "6476": "ĠEri", "6477": "ĠMem", "6478": "Ġelements", "6479": "Ġtrain", "6480": "Ġedge", "6481": "ĠFire", "6482": "Ġvision", "6483": "Ġuti", "6484": "Ġdenie", "6485": "ĠWho", "6486": "Ġutil", "6487": "Ġdiss", "6488": "Ġtun", "6489": "Ġblam", "6490": "rint", "6491": "ĠDN", "6492": "ension", "6493": "Ġblame", "6494": "Ġwitnes", "6495": "Ġcollection", "6496": "Ġsymp", "6497": "Ġwitness", "6498": ",\"", "6499": "Ġrapi", "6500": "Ġreci", "6501": "Ġemergenc", "6502": "Ġtigh", "6503": "Ġtight", "6504": "Ġrespond", "6505": "ĠSecreta", "6506": "Ġbik", "6507": "ĠSecretar", "6508": "rganizations", "6509": "Ġsuggests", "6510": "Ġske", "6511": "ĠMars", "6512": "ĠAltho", "6513": "Ġgain", "6514": "ĠAlthou", "6515": "Ġtopi", "6516": "ĠHor", "6517": "ĠPatri", "6518": "ĠAlthoug", "6519": "ĠAlthough", "6520": "ĠSwe", "6521": "ĠAustralian", "6522": "Ġfamiliar", "6523": "Ġast", "6524": "Ġtopic", "6525": "Ġrequirem", "6526": "Ġrequireme", "6527": "Ġrequiremen", "6528": "Ġrequirement", "6529": "Ġguess", "6530": "Ġintegr", "6531": "ĠBern", "6532": "Ġconsul", "6533": "ĠOut", "6534": "Ġmagi", "6535": "Ġpresente", "6536": "ĠAdv", "6537": "Ġbigger", "6538": "organizations", "6539": "Ġdela", "6540": "Ġdip", "6541": "Ġsupply", "6542": "Ġstarts", "6543": "Ġpermi", "6544": "onym", "6545": "Ġacci", "6546": "Ġdemonstrate", "6547": "ĠConse", "6548": "ĠJose", "6549": "Ġspect", "6550": "Ġroot", "6551": "Ġaca", "6552": "Ġplo", "6553": "Ġspeaking", "6554": "Ġaccid", "6555": "ĠAli", "6556": "Ġaccide", "6557": "Ġacciden", "6558": "ĠPrime", "6559": "Ġtalks", "6560": "Ġaccident", "6561": "Ġhappening", "6562": "Ġorganizations", "6563": "Ġappropri", "6564": "Ġlaug", "6565": "ĠScienc", "6566": "ĠScience", "6567": "Ġspar", "6568": "Ġarmy", "6569": "isation", "6570": "Ġvul", "6571": "ĠThei", "6572": "inating", "6573": "Ġtaxes", "6574": "Ġthanks", "6575": "Ġplanned", "6576": "ĠMary", "6577": "Ġasses", "6578": "Ġsudd", "6579": "Ġsudde", "6580": "Ġsudden", "6581": "Ġ$", "6582": "ĠThoma", "6583": "ĠPari", "6584": "Ġdeplo", "6585": "ĠUnde", "6586": "Ġasset", "6587": "ĠJour", "6588": "eation", "6589": "Ġwindow", "6590": "ĠBow", "6591": "ĠGood", "6592": "Ġfighte", "6593": "Ġfighter", "6594": "Ġhelping", "6595": "Ġswitc", "6596": "Ġswitch", "6597": "Ġemba", "6598": "Ġwast", "6599": "Ġscrip", "6600": "ĠMartin", "6601": "Ġdecr", "6602": "ĠMidd", "6603": "ĠTes", "6604": "ĠThomas", "6605": "Ġsati", "6606": "ĠRam", "6607": "Ġstandards", "6608": "Ġbag", "6609": "Ġscientif", "6610": "ĠGuar", "6611": "Ġscientifi", "6612": "Ġintera", "6613": "Ġdropp", "6614": "ĠFede", "6615": "ĠCN", "6616": "Ġsola", "6617": "Ġvilla", "6618": "Ġdroppe", "6619": "Ġseconds", "6620": "Ġunre", "6621": "Ġscientific", "6622": "Ġrecal", "6623": "Ġwoo", "6624": "Ġconsequenc", "6625": "Ġconsequence", "6626": "Ġvolun", "6627": "Ġvolunt", "6628": "Ġimmigration", "6629": "ĠTheir", "6630": "ĠTO", "6631": "ĠMiddl", "6632": "Ġpriori", "6633": "ĠMiddle", "6634": "Ġdistanc", "6635": "ĠAlso", "6636": "Ġwear", "6637": "Ġ193", "6638": "Ġwaste", "6639": "ĠJourn", "6640": "win", "6641": "Ġdistance", "6642": "Ġfish", "6643": "tering", "6644": "Ġacad", "6645": "Ġsurge", "6646": "Ġhistorica", "6647": "Ġbroadc", "6648": "Ġhistorical", "6649": "hion", "6650": "Ġturns", "6651": "ĠSecretary", "6652": "Ġbroadca", "6653": "Ġdrink", "6654": "Ġacade", "6655": "Ġacadem", "6656": "ĠFeder", "6657": "ĠLy", "6658": "ĠUSA", "6659": "Ġvariety", "6660": "Ġmarkets", "6661": "Ġhurt", "6662": "Ġconclud", "6663": "Ġconclude", "6664": "Ġadap", "6665": "Ġadvise", "6666": "Ġsounds", "6667": "Ġterrit", "6668": "Ġdropped", "6669": "Ġaccounts", "6670": "Ġterrito", "6671": "ĠAtlan", "6672": "Ġtrail", "6673": "Ġdetec", "6674": "ĠAtlant", "6675": "Ġdetect", "6676": "Ġterritor", "6677": "Ġfiled", "6678": "Ġhighlight", "6679": "ĠNO", "6680": "ĠSig", "6681": "Ġlabel", "6682": "Ġtip", "6683": "Ġlegisl", "6684": "Ġneighborh", "6685": "Ġneighborho", "6686": "Ġneighborhoo", "6687": "Ġneighborhood", "6688": "ĠRoy", "6689": "Ġassess", "6690": "ĠCarolina", "6691": "Ġ33", "6692": "ĠTwo", "6693": "ĠES", "6694": "ĠPA", "6695": "Ġprospec", "6696": "Ġpossibly", "6697": "Ġprospect", "6698": "Ġoperating", "6699": "Ġbike", "6700": "Ġdownloa", "6701": "ĠMea", "6702": "Ġdownload", "6703": "Ġunion", "6704": "Ġvotes", "6705": "ĠFig", "6706": "Ġthreate", "6707": "Ġtack", "6708": "Ġpal", "6709": "Ġlogi", "6710": "Ġthreaten", "6711": "Ġscra", "6712": "Ġincreasingl", "6713": "Ġincreasingly", "6714": "Ġvetera", "6715": "Ġveteran", "6716": "Ġapply", "6717": "ĠCorp", "6718": "ĠSwi", "6719": "Ġhonest", "6720": "Ġdevelopers", "6721": "Ġphilo", "6722": "Ġapparentl", "6723": "Ġapparently", "6724": "Ġtheme", "6725": "Ġperforme", "6726": "Ġlived", "6727": "Ġvers", "6728": "Ġchanging", "6729": "Ġrefugee", "6730": "Ġlegisla", "6731": "rofi", "6732": "Ġtests", "6733": "ĠEnt", "6734": "Ġsleep", "6735": "person", "6736": "Ġpriorit", "6737": "Ġunits", "6738": "imagine", "6739": "Ġplen", "6740": "Ġlegislat", "6741": "ĠRoa", "6742": "ĠGri", "6743": "ĠRoma", "6744": "Ġhumans", "6745": "Ġruling", "6746": "ĠFoundation", "6747": "Ġagenci", "6748": "ĠFrancisc", "6749": "ĠMana", "6750": "Ġexpresse", "6751": "Ġagencie", "6752": "Ġagencies", "6753": "ĠBor", "6754": "Ġpena", "6755": "Ġjur", "6756": "Ġyards", "6757": "Ġtwic", "6758": "Ġtwice", "6759": "Ġultimatel", "6760": "Ġphilos", "6761": "Ġultimately", "6762": "ĠParis", "6763": "Ġlosing", "6764": "Ġauthority", "6765": "Ġsoldiers", "6766": "ĠChil", "6767": "ĠWoo", "6768": "ĠUnder", "6769": "lating", "6770": "Ġphiloso", "6771": "ĠImages", "6772": "Ġphilosop", "6773": "Ġphilosoph", "6774": "Ġrating", "6775": "Ġabsolutel", "6776": "Ġhealthy", "6777": "Ġabsolutely", "6778": "Ġral", "6779": "Ġpaying", "6780": "ĠSee", "6781": "ĠDat", "6782": "Ġdefa", "6783": "ĠCentra", "6784": "Ġpuni", "6785": "Ġoffs", "6786": "Ġvillag", "6787": "Ġrejec", "6788": "Ġreject", "6789": "Ġdeveloping", "6790": "Ġvillage", "6791": "Ġvisu", "6792": "Ġaffi", "6793": "Ġfunda", "6794": "Ġstatis", "6795": "ĠCentral", "6796": "Ġrall", "6797": "Ġseeking", "6798": "Ġregarding", "6799": "Ġharde", "6800": "ĠRad", "6801": "Ġlands", "6802": "Ġexpensi", "6803": "Ġexpensiv", "6804": "Ġexpensive", "6805": "Ġtrib", "6806": "ĠPlea", "6807": "Ġgia", "6808": "arbon", "6809": "ĠPower", "6810": "Ġvast", "6811": "Ġappropria", "6812": "Ġpossibility", "6813": "Ġsolar", "6814": "Ġappropriat", "6815": "rming", "6816": "Ġreligion", "6817": "Ġfundam", "6818": "Ġfundame", "6819": "Ġfundamen", "6820": "Ġrecall", "6821": "Ġfundament", "6822": "ĠLau", "6823": "Ġathl", "6824": "Ġexperts", "6825": "Ġathle", "6826": "Ġracis", "6827": "Ġ5", "6828": "Ġ50", "6829": "Ġathlet", "6830": "Ġvisua", "6831": "Ġfundamenta", "6832": "Ġvisual", "6833": "Ġnume", "6834": "Ġunfo", "6835": "ĠDistric", "6836": "ĠDistrict", "6837": "Ġfundamental", "6838": "Ġprosecu", "6839": "Ġprosecut", "6840": "ĠProt", "6841": "Ġgian", "6842": "ĠEli", "6843": "Ġscript", "6844": "Ġgiant", "6845": "Ġnumer", "6846": "Ġstatist", "6847": "Ġappropriate", "6848": "ĠSpor", "6849": "Ġpenal", "6850": "Ġinsis", "6851": "Ġinsist", "6852": "ĠLast", "6853": "Ġsurvive", "6854": "ĠHuma", "6855": "Ġwelc", "6856": "ĠVen", "6857": "Ġfif", "6858": "Ġimagine", "6859": "ĠGuard", "6860": "ĠAN", "6861": "Ġjai", "6862": "Ġlawsu", "6863": "Ġlawsui", "6864": "Ġlawsuit", "6865": "Ġinvesto", "6866": "Ġsitting", "6867": "Ġinvestor", "6868": "Ġapplications", "6869": "ĠPleas", "6870": "Ġfift", "6871": "Ġacknowledg", "6872": "Ġplent", "6873": "Ġjail", "6874": "Ġwelco", "6875": "Ġwelcom", "6876": "Ġwelcome", "6877": "ĠFrancisco", "6878": "Ġmaxi", "6879": "Ġpercenta", "6880": "Ġpercentag", "6881": "Ġpercentage", "6882": "iving", "6883": "ĠToronto", "6884": "Ġexplor", "6885": "ĠChie", "6886": "ĠSti", "6887": "Ġhir", "6888": "Ġunles", "6889": "Ġunless", "6890": "Ġhei", "6891": "ĠClo", "6892": "Ġadopt", "6893": "tanding", "6894": "Ġ2004", "6895": "Ġbaby", "6896": "Ġtransition", "6897": "Ġstream", "6898": "ĠDie", "6899": "Ġresponsibility", "6900": "Ġdelay", "6901": "ĠEmp", "6902": "ĠDia", "6903": "Ġsymb", "6904": "Ġstatisti", "6905": "Ġsad", "6906": "Ġsensi", "6907": "ĠAC", "6908": "carbon", "6909": "Ġarms", "6910": "Ġbound", "6911": "Ġhers", "6912": "Ġeduc", "6913": "ĠST", "6914": "Ġstatistic", "6915": "Ġguara", "6916": "Ġguaran", "6917": "ĠMass", "6918": "Ġforms", "6919": "ĠDow", "6920": "Ġrewa", "6921": "minated", "6922": "Ġpersp", "6923": "Ġmanufactu", "6924": "Ġmaxim", "6925": "Ġ500", "6926": "Ġmanufactur", "6927": "ĠImp", "6928": "Ġuniversity", "6929": "Ġguarant", "6930": "Ġhire", "6931": "Ġguilt", "6932": "Ġtechnologi", "6933": "ĠSport", "6934": "Ġmanufacture", "6935": "Ġneur", "6936": "Ġpresented", "6937": "ĠTow", "6938": "ĠEgy", "6939": "Ġmagic", "6940": "ĠCamp", "6941": "Ġbodi", "6942": "ĠAwa", "6943": "Ġrand", "6944": "Ġlob", "6945": "Ġstring", "6946": "ĠEgyp", "6947": "ĠPas", "6948": "ĠEgypt", "6949": "Ġinfras", "6950": "Ġrobo", "6951": "Ġrus", "6952": "Ġdisr", "6953": "Ġwarm", "6954": "Ġelections", "6955": "Ġestimated", "6956": "Ġgeo", "6957": "ĠRead", "6958": "Ġdefi", "6959": "bined", "6960": "ĠGor", "6961": "ĠDani", "6962": "Ġintende", "6963": "Ġschem", "6964": "Ġvehicles", "6965": "Ġintended", "6966": "Ġinfrast", "6967": "Ġintention", "6968": "ending", "6969": "Ġinfrastr", "6970": "Ġinfrastru", "6971": "Ġhelps", "6972": "Ġstreets", "6973": "Ġinfrastruc", "6974": "Ġinfrastruct", "6975": "Ġshee", "6976": "Ġinfrastructu", "6977": "Ġinfrastructur", "6978": "ĠBoston", "6979": "Ġperspe", "6980": "Ġdetermine", "6981": "Ġrecorde", "6982": "Ġheads", "6983": "Ġperspec", "6984": "Ġperspect", "6985": "Ġperspecti", "6986": "Ġperspectiv", "6987": "Ġbrig", "6988": "Ġconso", "6989": "ĠOpen", "6990": "eaking", "6991": "Ġperspective", "6992": "Ġbroken", "6993": "Ġinterpr", "6994": "Ġrapid", "6995": "ĠOnc", "6996": "Ġguarante", "6997": "ĠAdam", "6998": "Ġfired", "6999": "Ġexclus", "7000": "Ġspring", "7001": "Ġexclusi", "7002": "Ġmagn", "7003": "Ġescap", "7004": "Ġexclusiv", "7005": "ĠChief", "7006": "ĠMA", "7007": "Ġyout", "7008": "Ġluck", "7009": "ĠNev", "7010": "toni", "7011": "Ġburn", "7012": "Ġtruc", "7013": "Ġshall", "7014": "Ġwir", "7015": "Ġguns", "7016": "Ġtempo", "7017": "Ġtroops", "7018": "Ġinfrastructure", "7019": "Ġdim", "7020": "ĠEt", "7021": "Ġhac", "7022": "ĠBob", "7023": "ĠSocia", "7024": "ĠAny", "7025": "ĠThos", "7026": "Ġrecru", "7027": "ĠBitcoin", "7028": "uption", "7029": "ĠThose", "7030": "ĠLuc", "7031": "Ġacknowledge", "7032": "Ġrecip", "7033": "Ġrene", "7034": "knes", "7035": "itutiona", "7036": "ĠNav", "7037": "Ġpieces", "7038": "ĠSocial", "7039": "Ġproducer", "7040": "onso", "7041": "ĠISI", "7042": "Ġwinn", "7043": "ĠJourna", "7044": "itutional", "7045": "Ġprepared", "7046": "Ġtric", "7047": "ĠAgen", "7048": "ĠColor", "7049": "Ġ[", "7050": "ĠJournal", "7051": "Ġexcel", "7052": "kness", "7053": "reation", "7054": "ĠAmazon", "7055": "ĠFedera", "7056": "Ġendo", "7057": "Ġlocated", "7058": "Ġproto", "7059": "Ġexplore", "7060": "Ġsubse", "7061": "Ġrando", "7062": "bin", "7063": "Ġadvocat", "7064": "Ġsis", "7065": "Ġbringing", "7066": "ĠIN", "7067": "Ġadvocate", "7068": "Ġspecifica", "7069": "Ġspecifical", "7070": "Ġspli", "7071": "Ġspecificall", "7072": "Ġspecifically", "7073": "ĠHuman", "7074": "ĠBes", "7075": "Ġdyn", "7076": "Ġgrav", "7077": "Ġpotentiall", "7078": "Ġrandom", "7079": "Ġgif", "7080": "Ġpotentially", "7081": "ĠOnce", "7082": "Ġrape", "7083": "Ġselling", "7084": "Ġgovernments", "7085": "ĠPea", "7086": "ĠDirecto", "7087": "ĠBul", "7088": "Ġequipm", "7089": "Ġequipme", "7090": "ĠMode", "7091": "Ġfaster", "7092": "Ġequipmen", "7093": "Ġequipment", "7094": "ĠDirector", "7095": "Ġinspir", "7096": "Ġmetal", "7097": "Ġdivid", "7098": "ĠTerr", "7099": "Ġmyst", "7100": "ĠAcc", "7101": "Ġsile", "7102": "Ġdivide", "7103": "Ġsilen", "7104": "Ġstars", "7105": "Ġrepresenta", "7106": "ĠReal", "7107": "Ġconsc", "7108": "Ġplus", "7109": "Ġfactors", "7110": "Ġinspire", "7111": "Ġplenty", "7112": "profi", "7113": "ĠFederal", "7114": "standing", "7115": "Cont", "7116": "ĠYear", "7117": "Ġexpose", "7118": "Ġvuln", "7119": "Ġhab", "7120": "Ġlun", "7121": "Ġyounge", "7122": "ĠCy", "7123": "ĠVirginia", "7124": "ointed", "7125": "Ġexpression", "7126": "Ġdivision", "7127": "ĠBrad", "7128": "Ġconstru", "7129": "Ġshoc", "7130": "Ġtourn", "7131": "Ġsymbo", "7132": "Ġsno", "7133": "Ġsymbol", "7134": "Ġvoted", "7135": "Ġshock", "7136": "Ġdefende", "7137": "ĠSant", "7138": "Ġexpressed", "7139": "Ġdyna", "7140": "Ġvulne", "7141": "Ġvulner", "7142": "Ġame", "7143": "Ġvulnera", "7144": "Ġprogramm", "7145": "Ġrepresentat", "7146": "Ġinse", "7147": "Ġrepresentati", "7148": "Ġvulnerab", "7149": "Ġrepresentativ", "7150": "ĠSteph", "7151": "Ġrepresentative", "7152": "Ġelecte", "7153": "Ġrobot", "7154": "Ġrefused", "7155": "ĠIntel", "7156": "Ġelected", "7157": "Ġoffense", "7158": "conomi", "7159": "ĠTou", "7160": "minate", "7161": "Ġretai", "7162": "Ġretail", "7163": "ĠMit", "7164": "Ġseasons", "7165": "Ġconducte", "7166": "ĠFam", "7167": "Ġflat", "7168": "Ġwinne", "7169": "Ġswee", "7170": "Ġconducted", "7171": "Ġwinner", "7172": "Ġgoverno", "7173": "Ġdisas", "7174": "Ġembr", "7175": "Ġpushe", "7176": "Ġrh", "7177": "Ġsist", "7178": "noon", "7179": "ĠLif", "7180": "Ġescape", "7181": "Ġfinger", "7182": "ĠNH", "7183": "Ġmethods", "7184": "Ġsolv", "7185": "Ġtrig", "7186": "igation", "7187": "Ġpointed", "7188": "Ġremained", "7189": "Ġalc", "7190": "ĠMO", "7191": "ĠPlease", "7192": "Ġsiste", "7193": "Ġblow", "7194": "Ġexclusive", "7195": "Ġpositions", "7196": "pion", "7197": "Ġtesti", "7198": "ĠContr", "7199": "Ġheavi", "7200": "Ġgovernor", "7201": "ĠShow", "7202": "Ġviolent", "7203": "ĠWee", "7204": "Ġweren", "7205": "ĠLit", "7206": "moni", "7207": "Ġveg", "7208": "ĠSca", "7209": "Ġriva", "7210": "Ġguarantee", "7211": "Ġreserve", "7212": "Ġsignificantl", "7213": "Ġsignificantly", "7214": "Ġ34", "7215": "Ġfolk", "7216": "Ġboug", "7217": "ĠSpac", "7218": "Ġoriginall", "7219": "ĠPublic", "7220": "Ġoriginally", "7221": "Ġsolve", "7222": "Ġaffecte", "7223": "ĠDuring", "7224": "Ġstret", "7225": "Ġfacing", "7226": "Ġhack", "7227": "Ġvolum", "7228": "Ġaffected", "7229": "Ġhonor", "7230": "Ġexcep", "7231": "Ġshad", "7232": "Ġgreates", "7233": "Ġgreatest", "7234": "Ġbough", "7235": "Ġdecre", "7236": "Ġyouth", "7237": "Ġtank", "7238": "Ġwarr", "7239": "Ġtast", "7240": "ĠRoman", "7241": "pression", "7242": "Ġdetermined", "7243": "Ġsigns", "7244": "ĠSpace", "7245": "Ġhole", "7246": "Ġpip", "7247": "Ġshr", "7248": "Ġbought", "7249": "ĠWom", "7250": "ĠBoth", "7251": "Ġrival", "7252": "Ġdepo", "7253": "ĠRou", "7254": "Ġemotiona", "7255": "Ġemotional", "7256": "Ġstronge", "7257": "ĠJav", "7258": "ĠAna", "7259": "Ġdut", "7260": "Ġsevere", "7261": "Ġexcept", "7262": "Ġpermit", "7263": "mbined", "7264": "ombined", "7265": "Ġsister", "7266": "Ġfores", "7267": "Ġskin", "7268": "ĠFinal", "7269": "Ġgrew", "7270": "Ġtourna", "7271": "Ġmisse", "7272": "Ġtournam", "7273": "Ġutili", "7274": "Ġtourname", "7275": "Ġtournamen", "7276": "Ġtournament", "7277": "Ġdic", "7278": "Ġremaining", "7279": "ĠCommuni", "7280": "Ġpulle", "7281": "Ġminimu", "7282": "Ġring", "7283": "ĠSaud", "7284": "Ġminimum", "7285": "Ġindee", "7286": "Ġindeed", "7287": "Ġairp", "7288": "ĠSing", "7289": "Since", "7290": "Ġmoto", "7291": "linic", "7292": "Ġwatche", "7293": "Ġsala", "7294": "hin", "7295": "ĠProg", "7296": "Ġgift", "7297": "Ġinterpre", "7298": "Ġbroadcas", "7299": "Ġherse", "7300": "Ġbroadcast", "7301": "Ġannouncem", "7302": "Ġvoting", "7303": "Ġdeploy", "7304": "Ġhersel", "7305": "Ġannounceme", "7306": "Ġannouncemen", "7307": "Ġherself", "7308": "Ġannouncement", "7309": "inistry", "7310": "Ġmel", "7311": "Ġradic", "7312": "ĠDoc", "7313": "Ġconvince", "7314": "ĠBoa", "7315": "Ġradica", "7316": "Ġreduced", "7317": "ainer", "7318": "ĠDre", "7319": "Ġvolume", "7320": "Ġwood", "7321": "Ġresolution", "7322": "Ġradical", "7323": "Ġweapon", "7324": "Ġrecorded", "7325": "Ġ1990", "7326": "ĠBara", "7327": "Ġargued", "7328": "Ġtact", "7329": "dinary", "7330": "Ġwearing", "7331": "Ġwire", "7332": "Ġairc", "7333": "Ġleads", "7334": "ĠWilliams", "7335": "Ġstee", "7336": "Ġpicke", "7337": "Ġpoliticians", "7338": "Ġaircr", "7339": "Ġconcen", "7340": "ĠFun", "7341": "ĠPic", "7342": "Ġworri", "7343": "ĠHaw", "7344": "Ġtrick", "7345": "Ġearne", "7346": "ĠMoo", "7347": "Ġproced", "7348": "Ġtruck", "7349": "Ġsigh", "7350": "Ġapprec", "7351": "Ġdiscusse", "7352": "Ġmotor", "7353": "Ġtalke", "7354": "Ġemph", "7355": "Ġunab", "7356": "Ġglas", "7357": "Ġvideos", "7358": "mentation", "7359": "Ġexperienced", "7360": "Ġconsci", "7361": "Ġexcited", "7362": "Ġhttps", "7363": "Ġtrigg", "7364": "combined", "7365": "Ġsupporting", "7366": "Ġleak", "7367": "Ġautomati", "7368": "ĠDail", "7369": "Ġsurprising", "7370": "ĠConser", "7371": "Ġapol", "7372": "Ġprocedu", "7373": "Ġadjus", "7374": "Ġprocedur", "7375": "Ġadjust", "7376": "Ġbelong", "7377": "Ġconsumers", "7378": "Ġconsidering", "7379": "Ġaircra", "7380": "Ġmatche", "7381": "Ġsquar", "7382": "Ġaircraf", "7383": "Ġaircraft", "7384": "Ġaba", "7385": "Ġbasica", "7386": "ĠClar", "7387": "Ġbasical", "7388": "Ġpulled", "7389": "Ġends", "7390": "Ġbasicall", "7391": "Ġempha", "7392": "Ġbasically", "7393": "Ġdifferences", "7394": "Ġcarbon", "7395": "Ġautomatic", "7396": "Ġpee", "7397": "Ġsquare", "7398": "Ġglass", "7399": "Ġafternoon", "7400": "Ġfilms", "7401": "Ġturning", "7402": "ĠProj", "7403": "ĠOly", "7404": "ĠTro", "7405": "Ġstudio", "7406": "Ġmort", "7407": "Ġtreate", "7408": "Ġwoun", "7409": "Ġtreated", "7410": "Ġwound", "7411": "ĠBud", "7412": "Ġprogramme", "7413": "ooking", "7414": "ĠRel", "7415": "Ġprivac", "7416": "ĠMedia", "7417": "Ġexisten", "7418": "Ġcombined", "7419": "Ġseriousl", "7420": "Ġseriously", "7421": "Ġprivacy", "7422": "Ġacademi", "7423": "Ġfixe", "7424": "Ġevening", "7425": "Ġnav", "7426": "Ġvali", "7427": "Ġposts", "7428": "ĠBook", "7429": "Ġenemy", "7430": "Ġpaint", "7431": "ĠPra", "7432": "Ġapps", "7433": "Ġpipe", "7434": "ĠProgr", "7435": "Ġlots", "7436": "Phone", "7437": "ĠLife", "7438": "Ġrepli", "7439": "ĠDaily", "7440": "inition", "7441": "Ġpassing", "7442": "Ġtalked", "7443": "ĠNS", "7444": "Ġhopes", "7445": "Ġdeck", "7446": "ĠRem", "7447": "Ġtacti", "7448": "Ġgathe", "7449": "Ġgather", "7450": "Ġdisast", "7451": "ĠSaudi", "7452": "Ġperma", "7453": "Ġplas", "7454": "Ġnorthe", "7455": "Ġhote", "7456": "Ġconclusion", "7457": "Ġstands", "7458": "Ġparl", "7459": "Ġtom", "7460": "Ġdramat", "7461": "Ġsubmi", "7462": "Ġsuffere", "7463": "Ġwidel", "7464": "Ġwidely", "7465": "ecting", "7466": "Ġmotiv", "7467": "clinic", "7468": "Ġemergency", "7469": "ĠPenn", "7470": "Ġrent", "7471": "Ġhotel", "7472": "Ġpenalt", "7473": "Ġrebe", "7474": "ĠLis", "7475": "inten", "7476": "rdinary", "7477": "ĠFai", "7478": "Ġmetr", "7479": "Ġpowers", "7480": "ĠRub", "7481": "ĠToda", "7482": "ĠOlym", "7483": "ĠDou", "7484": "ĠOlymp", "7485": "ĠBBC", "7486": "ĠIP", "7487": "Ġboos", "7488": "Ġapolo", "7489": "Ġdiscl", "7490": "Ġapolog", "7491": "aption", "7492": "Ġscheme", "7493": "Ġplants", "7494": "Ġnarra", "7495": "Ġparticipan", "7496": "Ġdefau", "7497": "creation", "7498": "Ġparticipant", "7499": "Ġnarrat", "7500": "Ġdefaul", "7501": "Ġfer", "7502": "Ġdistribution", "7503": "Ġparticipat", "7504": "Ġ2003", "7505": "Ġsuppli", "7506": "Ġwre", "7507": "rin", "7508": "Ġbrid", "7509": "Ġtempor", "7510": "Ġweat", "7511": "Ġweath", "7512": "Ġbodie", "7513": "ĠSys", "7514": "Ġenginee", "7515": "Ġengineer", "7516": "Ġdismi", "7517": "ĠTak", "7518": "Ġcontes", "7519": "Ġattempts", "7520": "ĠJackson", "7521": "Ġexcell", "7522": "ĠCatho", "7523": "ordinary", "7524": "Ġdramati", "7525": "Ġcontribution", "7526": "Ġdiag", "7527": "Ġexcelle", "7528": "ĠRoad", "7529": "ĠUse", "7530": "ĠCathol", "7531": "Ġupg", "7532": "Ġzone", "7533": "ĠCatholi", "7534": "Ġencoun", "7535": "Ġalco", "7536": "Ġfille", "7537": "Ġupgr", "7538": "Ġreact", "7539": "caption", "7540": "offee", "7541": "ĠCatholic", "7542": "Ġfrus", "7543": "Ġreaction", "7544": "Ġreporters", "7545": "ĠTurke", "7546": "ĠClu", "7547": "ĠToday", "7548": "Ġcontest", "7549": "Ġwrites", "7550": "Ġsupplie", "7551": "Ġhumani", "7552": "Ġbutt", "7553": "Ġamen", "7554": "Ġaddresse", "7555": "ĠAB", "7556": "ĠRose", "7557": "onne", "7558": "onste", "7559": "lowing", "7560": "Ġtypicall", "7561": "Ġtypically", "7562": "ĠSq", "7563": "Ġbacke", "7564": "Ġpages", "7565": "Ġrelev", "7566": "Ġsecreta", "7567": "ĠHas", "7568": "Ġsei", "7569": "Ġgrab", "7570": "Ġprint", "7571": "Ġtempora", "7572": "Ġsecretar", "7573": "Ġsuic", "7574": "Ġbodies", "7575": "Ġreleva", "7576": "Ġsuici", "7577": "Ġrelevan", "7578": "Ġmatters", "7579": "Ġhoo", "7580": "Ġsuicid", "7581": "Ġstoo", "7582": "ĠProje", "7583": "ĠCho", "7584": "Ġpilo", "7585": "Ġmann", "7586": "Ġinvestigate", "7587": "lization", "7588": "Ġpsychol", "7589": "Ġvit", "7590": "Ġconsen", "7591": "Ġdenied", "7592": "Ġpsycholo", "7593": "Ġpsycholog", "7594": "Ġcontras", "7595": "Ġinjure", "7596": "onster", "7597": "ĠSov", "7598": "Ġalcoh", "7599": "ĠWork", "7600": "Ġalcoho", "7601": "Ġalcohol", "7602": "ĠNAS", "7603": "ĠTurkey", "7604": "Ġnob", "7605": "Ġcontrast", "7606": "Ġsatis", "7607": "Ġworrie", "7608": "Ġdefault", "7609": "Ġweathe", "7610": "Ġweather", "7611": "Ġ37", "7612": "Ġ300", "7613": "Ġresponded", "7614": "Ġnumero", "7615": "Ġpunis", "7616": "Ġapproved", "7617": "Ġpunish", "7618": "ĠIll", "7619": "ĠOk", "7620": "ĠEne", "7621": "Ġrewar", "7622": "ĠLar", "7623": "ĠSeat", "7624": "Ġdeserv", "7625": "ĠFort", "7626": "Ġdeserve", "7627": "Ġclinic", "7628": "Ġsets", "7629": "ĠAT", "7630": "Ġreward", "7631": "evin", "7632": "Ġpoun", "7633": "Ġinstitutions", "7634": "ĠOhi", "7635": "Ġproteste", "7636": "utting", "7637": "ertainm", "7638": "ertainme", "7639": "ertainmen", "7640": "ertainment", "7641": "Ġ202", "7642": "Ġjun", "7643": "ĠFC", "7644": "Ġnati", "7645": "Ġboost", "7646": "Ġ192", "7647": "Ġnativ", "7648": "ĠOhio", "7649": "Ġ2001", "7650": "ĠLig", "7651": "Ġmanne", "7652": "ĠAfghani", "7653": "Ġbrigh", "7654": "ĠCharle", "7655": "ĠSyst", "7656": "ĠPop", "7657": "Ġbright", "7658": "Ġreasona", "7659": "ĠRepo", "7660": "Ġreasonab", "7661": "ĠHy", "7662": "inds", "7663": "Ġcaption", "7664": "Ġreasonabl", "7665": "Ġformal", "7666": "Ġfranc", "7667": "Ġliteral", "7668": "ĠCarl", "7669": "Ġloved", "7670": "ĠMille", "7671": "Ġpromp", "7672": "Ġtactic", "7673": "ĠSqu", "7674": "Ġrelia", "7675": "Ġrail", "7676": "Ġconfidenc", "7677": "ĠAdd", "7678": "Ġconfidence", "7679": "Ġparticipate", "7680": "Con", "7681": "Ġexception", "7682": "Ġdramatic", "7683": "Ġlobb", "7684": "ĠCapi", "7685": "Ġdiso", "7686": "Ġaccurat", "7687": "Ġaggres", "7688": "Ġaccurate", "7689": "Ġconfident", "7690": "Ġnumerou", "7691": "Ġnumerous", "7692": "Ġexpansion", "7693": "Ġinfe", "7694": "Ġreportedl", "7695": "Ġreportedly", "7696": "Ġaggress", "7697": "Ġfaces", "7698": "ĠAfghanis", "7699": "ĠLabou", "7700": "mming", "7701": "ĠProjec", "7702": "ĠProject", "7703": "Ġfly", "7704": "Ġprou", "7705": "ĠSyste", "7706": "Ġevo", "7707": "ĠWis", "7708": "Ġmarrie", "7709": "ĠAdm", "7710": "ĠLabour", "7711": "ĠAfghanist", "7712": "ĠAfghanista", "7713": "ĠAfghanistan", "7714": "ĠRod", "7715": "inch", "7716": "ĠOlympi", "7717": "ĠSystem", "7718": "ĠYet", "7719": "Ġjok", "7720": "Ġproud", "7721": "ĠCard", "7722": "Ġcreation", "7723": "Ġmir", "7724": "Ġmut", "7725": "Ġrepa", "7726": "Ġstorm", "7727": "Ġunabl", "7728": "Ġunable", "7729": "Ġhabi", "7730": "ĠPS", "7731": "Ġadvic", "7732": "Ġadvice", "7733": "Ġbow", "7734": "mpion", "7735": "Ġsubstant", "7736": "ĠVall", "7737": "Ġmand", "7738": "Ġsuffered", "7739": "Ġpet", "7740": "Ġjoke", "7741": "Ġpictures", "7742": "Ġexperiences", "7743": "Ġapprox", "7744": "ofe", "7745": "ĠThou", "7746": "ĠAndrew", "7747": "Ġadmitt", "7748": "Ġsubstanti", "7749": "Ġsaving", "7750": "Ġpilot", "7751": "Ġdeclared", "7752": "Ġinvit", "7753": "ĠCapit", "7754": "Ġlaugh", "7755": "Ġdiscou", "7756": "Ġreporting", "7757": "Ġmessages", "7758": "Ġprofil", "7759": "Ġlaye", "7760": "Ġmol", "7761": "Ġfindings", "7762": "Ġeval", "7763": "Ġshouldn", "7764": "Ġdemocrac", "7765": "ĠBran", "7766": "ĠRen", "7767": "Ġsouthe", "7768": "Ġdeclined", "7769": "Ġexplains", "7770": "Ġexcellen", "7771": "Ġner", "7772": "Ġprofile", "7773": "Ġhabit", "7774": "Ġtaste", "7775": "Ġgap", "7776": "Ġconnecte", "7777": "ĠPy", "7778": "ĠColu", "7779": "Ġlayer", "7780": "Ġrealis", "7781": "Ġconnected", "7782": "Ġabortion", "7783": "ĠMichi", "7784": "Ġongoing", "7785": "Ġphas", "7786": "arison", "7787": "ĠRai", "7788": "Ġdelivere", "7789": "onet", "7790": "parison", "7791": "mparison", "7792": "omparison", "7793": "ĠSpeci", "7794": "Ġassig", "7795": "Ġmovies", "7796": "iPhone", "7797": "Ġpicked", "7798": "ĠArch", "7799": "Ġformat", "7800": "ĠWA", "7801": "Ġtransfo", "7802": "Ġadmitte", "7803": "ĠGrand", "7804": "ĠML", "7805": "Ġscena", "7806": "Ġadmitted", "7807": "Ġtradition", "7808": "Ġencount", "7809": "Ġencounte", "7810": "Ġencounter", "7811": "Ġmath", "7812": "Ġwra", "7813": "Ġphase", "7814": "Ġscenar", "7815": "Ġdelivered", "7816": "Ġlogic", "7817": "Ġscenari", "7818": "Ġemphas", "7819": "Ġinvite", "7820": "Ġconsol", "7821": "ĠColum", "7822": "During", "7823": "ĠBraz", "7824": "Ġscenario", "7825": "Ġsplit", "7826": "Ġeu", "7827": "ĠPR", "7828": "Ġwalking", "7829": "Ġagents", "7830": "Ġworry", "7831": "Ġdiscri", "7832": "ĠSher", "7833": "Ġminori", "7834": "Ġtackl", "7835": "Ġtackle", "7836": "Ġthoughts", "7837": "Ġmarried", "7838": "Ġminorit", "7839": "Ġarchit", "7840": "ĠSeri", "7841": "tains", "7842": "ĠSouthe", "7843": "Ġbug", "7844": "Ġemails", "7845": "gins", "7846": "Ġmotion", "7847": "ĠDO", "7848": "Ġfinance", "7849": "Ġnative", "7850": "Ġunu", "7851": "ĠCub", "7852": "ĠID", "7853": "ĠGil", "7854": "ĠChristm", "7855": "ĠChristma", "7856": "Ġupdates", "7857": "Ġleaves", "7858": "Ġaccompl", "7859": "Ġaccompli", "7860": "Ġarchite", "7861": "Ġsession", "7862": "ĠMuslims", "7863": "Ġarchitec", "7864": "Ġfavou", "7865": "Ġrenew", "7866": "Ġfavour", "7867": "ĠVol", "7868": "ĠTechn", "7869": "Ġsena", "7870": "ĠWood", "7871": "Ġarchitect", "7872": "ĠIre", "7873": "Ġinjured", "7874": "Ġarme", "7875": "ĠDeve", "7876": "onna", "7877": ",âĢĻ", "7878": "Ġnut", "7879": "Ġpublicl", "7880": "ĠChristmas", "7881": "Ġpublicly", "7882": "Ġperman", "7883": "Ġ42", "7884": "ĠCome", "7885": "Ġstatements", "7886": "Ġlegit", "7887": "ĠEi", "7888": "ĠJava", "7889": "Ġpermane", "7890": "Ġ38", "7891": "ĠFur", "7892": "Ġguest", "7893": "Ġpermanen", "7894": "Ġhardw", "7895": "Ġdrivers", "7896": "Ġsenat", "7897": "Ġarmed", "7898": "Ġdebut", "7899": "..", "7900": "...", "7901": "Ġ...", "7902": "...", "7903": "Ġ191", "7904": "Ġapproxi", "7905": "ĠMichig", "7906": "ĠMichiga", "7907": "ĠMichigan", "7908": "Ġevalu", "7909": "Ġbann", "7910": "ĠWeek", "7911": "Ġpatr", "7912": "Ġreaders", "7913": "ĠMak", "7914": "Ġdistribu", "7915": "inting", "7916": "ĠWarr", "7917": "ĠBack", "7918": "Ġplot", "7919": "ĠStudi", "7920": "Ġprovince", "7921": "Ġcontains", "7922": "comparison", "7923": "Ġatti", "7924": "Ġdismis", "7925": "Ġpound", "7926": "Ġdismiss", "7927": "Ġfilled", "7928": "ĠJor", "7929": "Ġallegations", "7930": "Ġ1980", "7931": "Ġbanne", "7932": "Ġactivists", "7933": "Ġlinke", "7934": "Ġ48", "7935": "ĠConfe", "7936": "Ġdynam", "7937": "Ġhall", "7938": "Ġsmok", "7939": "Ġdipl", "7940": "Ġdistribut", "7941": "Ġunus", "7942": "Ġbuildings", "7943": "Ġdiplo", "7944": "inco", "7945": "Ġmissi", "7946": "Ġinjuri", "7947": "sations", "7948": "Ġelit", "7949": "Ġgod", "7950": "Ġfrau", "7951": "Ġthea", "7952": "Ġeffectivel", "7953": "Ġeffectively", "7954": "Ġpractices", "7955": "Ġtrigge", "7956": "Ġsubseq", "7957": "ĠSovi", "7958": "Ġsic", "7959": "Ġsubsequ", "7960": "Ġsubseque", "7961": "Ġsubsequen", "7962": "Ġtrigger", "7963": "ĠSovie", "7964": "ĠSoviet", "7965": "ĠAno", "7966": "Ġgott", "7967": "Ġdial", "7968": "Ġcomparison", "7969": "Ġsurrounding", "7970": "Ġexamples", "7971": "ĠArabi", "7972": "Ġsacr", "7973": "Ġbol", "7974": "Ġattach", "7975": "ĠGlob", "7976": "ĠSeatt", "7977": "ĠSeattl", "7978": "Ġsubsequent", "7979": "ĠSeattle", "7980": "ĠLord", "7981": "ĠAI", "7982": "Ġsecretary", "7983": "Ġpermanent", "7984": "Ġaggressi", "7985": "Ġaggressiv", "7986": "Ġyest", "7987": "Ġaban", "7988": "Ġmissed", "7989": "ĠBrazi", "7990": "Ġyeste", "7991": "Ġking", "7992": "Ġyester", "7993": "Ġaggressive", "7994": "Ġphe", "7995": "Ġdiplom", "7996": "Ġessentiall", "7997": "mont", "7998": "Ġessentially", "7999": "Ġdiploma", "8000": "ĠCompan", "8001": "ĠMoun", "8002": "ĠUkraine", "8003": "nications", "8004": "Ġnod", "8005": "unications", "8006": "Ġpool", "8007": "Ġstretc", "8008": "munications", "8009": "Ġstretch", "8010": "mmunications", "8011": "ommunications", "8012": "ĠVict", "8013": "Ġunco", "8014": "ĠBrazil", "8015": "ĠLoc", "8016": "Ġforget", "8017": "Ġinjurie", "8018": "Ġinjuries", "8019": "Ġwhee", "8020": "ĠiPhone", "8021": "Ġbare", "8022": "ĠMinne", "8023": "Ġthinks", "8024": "Ġprovider", "8025": "cine", "8026": "rning", "8027": "Ġpure", "8028": "Ġnecessari", "8029": "Kevin", "8030": "Ġhypo", "8031": "Ġfacts", "8032": "ĠId", "8033": "ĠLov", "8034": "stone", "8035": "Ġlinked", "8036": "Ġinfa", "8037": "Ġsubsi", "8038": "onia", "8039": "ĠSign", "8040": "oving", "8041": "Ġatm", "8042": "Ġdynami", "8043": "Ġince", "8044": "Ġdres", "8045": "Ġvariab", "8046": "Ġmaterials", "8047": "onsor", "8048": "Ġdress", "8049": "Ġfranch", "8050": "Ġperformed", "8051": "Ġtheat", "8052": "ĠLev", "8053": "Ġunsu", "8054": "Ġinitiall", "8055": "Ġresc", "8056": "Ġexpla", "8057": "ĠBoar", "8058": "ĠPhili", "8059": "conomic", "8060": "Ġinitially", "8061": "Ġresista", "8062": "Ġcontroversi", "8063": "ĠConn", "8064": "Ġresistan", "8065": "Ġconde", "8066": "Ġsimu", "8067": "Ġnecessaril", "8068": "Ġnecessarily", "8069": "Ġreferr", "8070": "Ġwarne", "8071": "Ġrain", "8072": "ĠFan", "8073": "Ġapproache", "8074": "Ġscheduled", "8075": "Ġwarned", "8076": "Ġadvanced", "8077": "Ġinp", "8078": "Ġlou", "8079": "Ġeveryb", "8080": "Ġaccepte", "8081": "Ġeverybo", "8082": "Ġeverybod", "8083": "bination", "8084": "ĠBatt", "8085": "Ġeverybody", "8086": "ĠAssa", "8087": "Ġattri", "8088": "Ġincreases", "8089": "ĠGP", "8090": "Ġdum", "8091": "Ġaccepted", "8092": "Ġattrib", "8093": "Ġconsti", "8094": "Ġincor", "8095": "Ġmodu", "8096": "lton", "8097": "Ġmyste", "8098": "Ġmyster", "8099": "Ġgraphi", "8100": "Ġfaced", "8101": "Ġdedi", "8102": "communications", "8103": "Ġrespecti", "8104": "Ġrespectiv", "8105": "Ġfranchi", "8106": "ĠGM", "8107": "Ġrum", "8108": "Ġfranchis", "8109": "Ġyesterd", "8110": "Ġyesterda", "8111": "Ġhell", "8112": "Ġyesterday", "8113": "Ġfollows", "8114": "Ġnations", "8115": "ĠWay", "8116": "thon", "8117": "Ġmissil", "8118": "Ġgras", "8119": "Ġmissile", "8120": "Ġheig", "8121": "rono", "8122": "zona", "8123": "Ġheigh", "8124": "contr", "8125": "Ġplayoff", "8126": "Ġlap", "8127": "Ġheight", "8128": "Ġprocedure", "8129": "Ġjoint", "8130": "Ġdedic", "8131": "Ġcontem", "8132": "Ġhumanit", "8133": "ĠSecond", "8134": "Ġdatab", "8135": "Ġfranchise", "8136": "Ġpassen", "8137": "Ġneit", "8138": "ĠLG", "8139": "Ġneith", "8140": "Ġneithe", "8141": "Ġconstruc", "8142": "Ġneither", "8143": "ĠValle", "8144": "ĠBroo", "8145": "rrying", "8146": "Ġrespective", "8147": "Ġcontemp", "8148": "Ġnearb", "8149": "Ġnearby", "8150": "ĠBoard", "8151": "Ġatmo", "8152": "Ġrush", "8153": "Ġsand", "8154": "Ġapplied", "8155": "Ġpasseng", "8156": "Ġpassenge", "8157": "Ġpassenger", "8158": "Ġmagazine", "8159": "Ġatmos", "8160": "Ġassign", "8161": "ĠHos", "8162": "Ġconsequences", "8163": "Ġlisted", "8164": "Ġdataba", "8165": "Ġconstruct", "8166": "Ġatmosp", "8167": "Ġatmosph", "8168": "Ġatmosphe", "8169": "Ġatmospher", "8170": "Ġsurprised", "8171": "Ġprocesse", "8172": "ĠCNN", "8173": "Ġsongs", "8174": "Ġdefinition", "8175": "Ġallie", "8176": "Ġdatabas", "8177": "Ġdatabase", "8178": "ĠPhilip", "8179": "Ġupgra", "8180": "Ġbegins", "8181": "Ġthreats", "8182": "ĠDun", "8183": "Ġenh", "8184": "Ġfos", "8185": "Ġacademic", "8186": "ĠConserv", "8187": "ĠSum", "8188": "Ġrepresents", "8189": "Ġseg", "8190": "ĠJews", "8191": "Ġinitiati", "8192": "Ġupgrad", "8193": "Ġtotall", "8194": "Ġbrows", "8195": "ĠDevel", "8196": "Ġsmoke", "8197": "Ġbos", "8198": "ĠAff", "8199": "Ġinitiativ", "8200": "Ġboot", "8201": "Ġmoves", "8202": "Ġinitiative", "8203": "Ġbid", "8204": "Ġenha", "8205": "ĠBou", "8206": "iming", "8207": "Ġadds", "8208": "Ġapartm", "8209": "Ġapartme", "8210": "Ġapartmen", "8211": "Ġapartment", "8212": "ĠRomn", "8213": "Ġwithd", "8214": "Ġunderg", "8215": "ĠRomne", "8216": "Ġmerc", "8217": "ĠConserva", "8218": "Ġange", "8219": "Ġenhan", "8220": "ĠRomney", "8221": "Ġwithdr", "8222": "Ġphen", "8223": "ĠMayb", "8224": "Ġrow", "8225": "ĠNBA", "8226": "vention", "8227": "ĠDevelo", "8228": "Ġmanda", "8229": "Ġfounder", "8230": "Ġupgrade", "8231": "inato", "8232": "Ġwing", "8233": "Ġapproxim", "8234": "Ġdealing", "8235": "Ġshots", "8236": "Ġpreser", "8237": "Ġparli", "8238": "ĠSky", "8239": "Ġheade", "8240": "Ġparlia", "8241": "Ġparliam", "8242": "Ġgraduat", "8243": "Ġgraduate", "8244": "Ġparliame", "8245": "Ġparliamen", "8246": "ĠGui", "8247": "Ġparliament", "8248": "Ġstood", "8249": "Ġbrings", "8250": "ĠDE", "8251": "Ġstora", "8252": "ĠIrel", "8253": "Ġpushed", "8254": "Ġguilty", "8255": "ĠSpan", "8256": "Ġboys", "8257": "Ġentry", "8258": "ĠSev", "8259": "Ġsubmit", "8260": "ĠOnl", "8261": "Ġelectronic", "8262": "Ġresol", "8263": "mbination", "8264": "ombination", "8265": "ĠRepor", "8266": "ĠReport", "8267": "ĠDefens", "8268": "Ġdemocracy", "8269": "Ġprimari", "8270": "ĠSwed", "8271": "Ġsuicide", "8272": "Ġconfig", "8273": "ĠSports", "8274": "ĠIts", "8275": "ĠBarac", "8276": "Ġwheel", "8277": "ĠUt", "8278": "Ġconstit", "8279": "Ġconvi", "8280": "Ġmeat", "8281": "ĠJesu", "8282": "Ġgan", "8283": "Ġstorag", "8284": "Ġstorage", "8285": "ĠIrela", "8286": "ĠIrelan", "8287": "Ġfewe", "8288": "ĠIreland", "8289": "ĠBarr", "8290": "Ġattende", "8291": "ĠRat", "8292": "Ġanalyst", "8293": "Ġmonito", "8294": "Ġmonitor", "8295": "Ġreceiving", "8296": "Ġuncl", "8297": "ĠMaybe", "8298": "Ġrising", "8299": "enting", "8300": "ĠBarack", "8301": "combination", "8302": "ĠDam", "8303": "Ġentere", "8304": "Ġsoug", "8305": "Ġtotally", "8306": "Ġsough", "8307": "ĠOnly", "8308": "ĠEric", "8309": "Ġunlikel", "8310": "Ġdiscussed", "8311": "Ġsought", "8312": "Ġentered", "8313": "ĠISIS", "8314": "Ġunpr", "8315": "Ġaffa", "8316": "Ġjourne", "8317": "Ġsharp", "8318": "nication", "8319": "ĠAven", "8320": "ĠColumb", "8321": "Ġdedica", "8322": "const", "8323": "Ġ49", "8324": "Ġdisclo", "8325": "Ġdisclos", "8326": "inst", "8327": "Ġbrowse", "8328": "Ġsequen", "8329": "Ġmodi", "8330": "Ġpose", "8331": "Ġgraphic", "8332": "Ġcombination", "8333": "Ġdiet", "8334": "Ġagend", "8335": "Ġdedicat", "8336": "ĠMs", "8337": "Ġscored", "8338": "Ġdisappe", "8339": "Ġamend", "8340": "Ġ2002", "8341": "ĠLA", "8342": "Ġdeaths", "8343": "Ġexistenc", "8344": "Ġdedicate", "8345": "Ġvisib", "8346": "Ġarran", "8347": "Ġinvestors", "8348": "Ġdecrea", "8349": "Ġarticles", "8350": "ĠDC", "8351": "inance", "8352": "Ġmanner", "8353": "Ġagenda", "8354": "Ġjourney", "8355": "Ġfunctions", "8356": "Ġexistence", "8357": "Ġnetworks", "8358": "arrying", "8359": "Ġunlikely", "8360": "ĠYouT", "8361": "Ġknowing", "8362": "ĠSel", "8363": "Ġarrang", "8364": "ĠGeorgi", "8365": "Ġlegiti", "8366": "ĠLong", "8367": "aching", "8368": "Ġabse", "8369": "Ġdisab", "8370": "ĠYu", "8371": "Ġarrange", "8372": "ĠYouTu", "8373": "ĠCel", "8374": "ĠYouTub", "8375": "ĠYouTube", "8376": "inue", "8377": "Ġroughl", "8378": "Ġroughly", "8379": "Ġtir", "8380": "Ġplate", "8381": "ĠAnot", "8382": "ĠPrince", "8383": "Ġbottl", "8384": "Ġpheno", "8385": "Ġbottle", "8386": "Ġinpu", "8387": "Ġheavil", "8388": "Ġconvert", "8389": "Ġfairl", "8390": "Ġinput", "8391": "Ġboss", "8392": "Ġheavily", "8393": "ĠAnoth", "8394": "inux", "8395": "ĠAnothe", "8396": "ĠAnother", "8397": "Ġabsen", "8398": "Ġdepende", "8399": "Ġfairly", "8400": "Ġlegitim", "8401": "Ġstrip", "8402": "ĠDown", "8403": "Ġapproxima", "8404": "ĠPrem", "8405": "Ġassem", "8406": "issions", "8407": "vering", "8408": "ĠSenato", "8409": "unication", "8410": "Ġapproximat", "8411": "Ġvice", "8412": "munication", "8413": "ainstr", "8414": "mmunication", "8415": "ommunication", "8416": "Ġtargets", "8417": "ainstre", "8418": "Ġapproximate", "8419": "ĠSenator", "8420": "Ġawe", "8421": "Ġslav", "8422": "Ġyounger", "8423": "Ġbutton", "8424": "Ġmayo", "8425": "Ġrecording", "8426": "Ġteste", "8427": "Ġlibrary", "8428": "ĠMaj", "8429": "Ġanywh", "8430": "ĠColora", "8431": "ĠAF", "8432": "Ġprotests", "8433": "Ġanywhe", "8434": "Ġanywher", "8435": "Ġconstitu", "8436": "Ġanywhere", "8437": "ĠTop", "8438": "ĠColorad", "8439": "Ġmodul", "8440": "Ġanci", "8441": "ĠDevelop", "8442": "ĠLove", "8443": "Ġsky", "8444": "Ġmandat", "8445": "Ġbreaking", "8446": "ĠYan", "8447": "ĠRef", "8448": "Ġproh", "8449": "Ġelite", "8450": "Ġsenato", "8451": "Ġstores", "8452": "Ġsenator", "8453": "Ġsnow", "8454": "ainstrea", "8455": "Ġlibert", "8456": "Ġdynamic", "8457": "Ġwarning", "8458": "Ġdefined", "8459": "Ġbuying", "8460": "Ġmechanis", "8461": "eron", "8462": "Ġprohi", "8463": "Ġ6", "8464": "Ġ60", "8465": "Ġdestroye", "8466": "Ġprohib", "8467": "ĠEac", "8468": "ĠFI", "8469": "ĠAR", "8470": "Ġaffai", "8471": "ĠOa", "8472": "Ġaffair", "8473": "Ġadults", "8474": "ĠFA", "8475": "ĠEach", "8476": "ĠClub", "8477": "Ġmarketing", "8478": "Ġwalke", "8479": "intend", "8480": "Ġlinks", "8481": "carrying", "8482": "ĠConservat", "8483": "Ġsensit", "8484": "ĠSA", "8485": "ĠDanie", "8486": "Ġfraud", "8487": "Ġportr", "8488": "ĠCos", "8489": "Ġlatt", "8490": "Ġexter", "8491": "Ġsmi", "8492": "Ġportra", "8493": "Ġrive", "8494": "ĠEll", "8495": "Ġchain", "8496": "ĠDaniel", "8497": "Ġmodif", "8498": "Ġtemporar", "8499": "ĠHist", "8500": "Ġemphasi", "8501": "uding", "8502": "Ġfacility", "8503": "Ġhardwa", "8504": "Ġhardwar", "8505": "Ġschol", "8506": "Ġpractica", "8507": "Ġhardware", "8508": "Ġprotester", "8509": "Ġallegedl", "8510": "Ġallegedly", "8511": "Ġregulations", "8512": "ĠOlympic", "8513": "ĠRights", "8514": "ĠColorado", "8515": "ĠSma", "8516": "Ġevolution", "8517": "ĠMI", "8518": "Ġhouseh", "8519": "ainstream", "8520": "Ġdesk", "8521": "ĠEner", "8522": "Ġindustria", "8523": "ĠJen", "8524": "Ġdoctors", "8525": "Ġrevers", "8526": "Ġschola", "8527": "Ġhouseho", "8528": "Ġhousehol", "8529": "Ġhousehold", "8530": "Ġsubsid", "8531": "Ġslave", "8532": "Ġreplaced", "8533": ").", "8534": "ĠHarv", "8535": "ingr", "8536": "Ġprosecuto", "8537": "Ġprosecutor", "8538": "Ġpreg", "8539": "Ġempt", "8540": "ĠPlu", "8541": "Ġresig", "8542": "Ġsomewha", "8543": "Ġsomewhat", "8544": "Ġvalid", "8545": "ĠFO", "8546": "Ġbask", "8547": "ĠBoy", "8548": "ĠMul", "8549": "nction", "8550": "Ġholds", "8551": "Ġdisor", "8552": "ressiona", "8553": "Ġdept", "8554": "ressional", "8555": "Ġmoments", "8556": "Ġmayor", "8557": "ĠSqua", "8558": "ĠBell", "8559": "Ġiron", "8560": "sons", "8561": "ĠHisto", "8562": "Ġrelevant", "8563": "Ġsweet", "8564": "Ġsensiti", "8565": "Ġregiona", "8566": "Ġseiz", "8567": "Ġappreci", "8568": "Ġfunn", "8569": "Ġuniverse", "8570": "Ġdefic", "8571": "Ġacts", "8572": "Ġbird", "8573": "Ġdefici", "8574": "Ġregulato", "8575": "Ġregulator", "8576": "ĠIo", "8577": "Ġvita", "8578": "Ġregional", "8579": "Ġversions", "8580": "Ġnarrati", "8581": "Ġnarrativ", "8582": "Ġbiol", "8583": "Ġsuffering", "8584": "Ġsubstantia", "8585": "ĠStephe", "8586": "ĠStephen", "8587": "ĠEnerg", "8588": "ĠValley", "8589": "Ġsees", "8590": "Ġwak", "8591": "Ġexcellent", "8592": "ĠAwar", "8593": "Ġwinter", "8594": "Ġnarrative", "8595": "ĠWei", "8596": "Ġhors", "8597": "Ġholi", "8598": "Ġcontain", "8599": "ĠEdi", "8600": "Ġbranc", "8601": "Ġdownt", "8602": "Ġdispu", "8603": "Ġextent", "8604": "Ġportion", "8605": "ĠGeorgia", "8606": "Ġscholar", "8607": "Ġterrib", "8608": "ĠConservati", "8609": "ĠUl", "8610": "ĠThre", "8611": "communication", "8612": "Ġbranch", "8613": "Ġfewer", "8614": "Ġapprova", "8615": "Ġacquir", "8616": "Ġendor", "8617": "ĠNetw", "8618": "ĠPremi", "8619": "Ġterribl", "8620": "ĠNex", "8621": "Ġacquire", "8622": "Ġharder", "8623": "Ġpray", "8624": "Ġapproval", "8625": "lying", "8626": "Ġserving", "8627": "Ġsponsor", "8628": "ĠOrl", "8629": "Ġhoping", "8630": "Ġ41", "8631": "Donald", "8632": "Ġprovision", "8633": "Ġfarme", "8634": "Ġfunctiona", "8635": "ĠTrea", "8636": "Ġpractical", "8637": "ĠNetwo", "8638": "Ġlad", "8639": "ĠNetwor", "8640": "Ġmechanism", "8641": "Ġwake", "8642": "ĠGames", "8643": "cutting", "8644": "ĠHolly", "8645": "ruption", "8646": "Ġdisput", "8647": "Ġsensitiv", "8648": "Ġreturns", "8649": "eling", "8650": "ausing", "8651": "gging", "8652": "Ġvolunte", "8653": "Ġancie", "8654": "Ġancien", "8655": "ĠLigh", "8656": "Ġparticipants", "8657": "Ġhorse", "8658": "Ġaccomplis", "8659": "ĠDut", "8660": "Ġale", "8661": "Ġaccomplish", "8662": "lson", "8663": "uration", "8664": "ĠHistor", "8665": "ĠWate", "8666": "ĠHT", "8667": "ĠCP", "8668": "Ġbiolo", "8669": "Ġbiolog", "8670": "Ġbaske", "8671": "Ġmai", "8672": "Ġsquad", "8673": "ĠManag", "8674": "ĠWater", "8675": "Ġunif", "8676": "Ġped", "8677": "ĠAbo", "8678": "Ġcontroversia", "8679": "causing", "8680": "Ġcontroversial", "8681": "Ġbridg", "8682": "Ġalg", "8683": "Ġfes", "8684": "aiming", "8685": "ĠRoo", "8686": "Ġbridge", "8687": "Ġancient", "8688": "Ġpolls", "8689": "ĠTar", "8690": "Ġfashion", "8691": "ĠScr", "8692": "Ġtransfor", "8693": "Ġtransform", "8694": "ĠBrook", "8695": "Ġparam", "8696": "Ġdispute", "8697": "ĠHouston", "8698": "ĠClas", "8699": "ĠExc", "8700": "Ġdecen", "8701": "Ġlies", "8702": "Ġattit", "8703": "ĠUr", "8704": "ĠConservativ", "8705": "Ġtiny", "8706": "Ġattitu", "8707": "ĠConservative", "8708": "Ġattitud", "8709": "Ġauthors", "8710": "Ġbasket", "8711": "Ġmixe", "8712": "incl", "8713": "ĠVicto", "8714": "Ġgrown", "8715": "Ġindustrial", "8716": "ĠUb", "8717": "Ġanywa", "8718": "Ġanyway", "8719": "conc", "8720": "Ġmine", "8721": "ĠManage", "8722": "Ġballo", "8723": "Ġrebel", "8724": "Ġdetaile", "8725": "Ġkinds", "8726": "Ġ55", "8727": "Ġdetailed", "8728": "Ġattitude", "8729": "inke", "8730": "ĠVictor", "8731": "onymo", "8732": "tling", "8733": "ĠFour", "8734": "Ġfeatured", "8735": "print", "8736": "ĠEaste", "8737": "ĠWik", "8738": "onymou", "8739": "Ġgenet", "8740": "onymous", "8741": "Ġ44", "8742": "Ġrecrui", "8743": "Ġconsp", "8744": "Ġrecruit", "8745": "Ġformed", "8746": "Ġgeneti", "8747": "Ġteaching", "8748": "Ġcarrying", "8749": "ĠCop", "8750": "Ġgenetic", "8751": "ĠAL", "8752": "ĠEaster", "8753": "Ġrelationships", "8754": "Ġlatte", "8755": "Ġasi", "8756": "Ġtau", "8757": "info", "8758": "Ġae", "8759": "Ġembar", "8760": "Ġexhi", "8761": "Ġattribu", "8762": "indu", "8763": "Ġwins", "8764": "Ġsigning", "8765": "Ġmout", "8766": "ĠYoun", "8767": "ĠOF", "8768": "Ġmouth", "8769": "Ġattribut", "8770": "Ġearned", "8771": "laiming", "8772": "ĠMia", "8773": "Ġriver", "8774": "Ġplast", "8775": "Ġapprecia", "8776": "ĠCIA", "8777": "Ġuncle", "8778": "Ġintegra", "8779": "Ġtire", "8780": "Ġembra", "8781": "Ġreferre", "8782": "Ġfunctional", "8783": "ĠJesus", "8784": "ĠSpani", "8785": "Ġmainl", "8786": "ĠCiv", "8787": "coffee", "8788": "ĠUF", "8789": "Ġ39", "8790": "Ġfrequentl", "8791": "Ġacting", "8792": "Ġfrequently", "8793": "ĠNorthe", "8794": "Ġconspi", "8795": "Ġtransport", "8796": "Ġevil", "8797": "Ġsustain", "8798": "Ġefficient", "8799": "Ġremot", "8800": "Ġpushing", "8801": "ilding", "8802": "onou", "8803": "Ġsurvei", "8804": "Ġsurveil", "8805": "Ġlawm", "8806": "Ġremote", "8807": "inant", "8808": "ĠNetwork", "8809": "Ġsharing", "8810": "othing", "8811": "ĠPutin", "8812": "Ġ65", "8813": "ĠDavis", "8814": "Ġsalar", "8815": "Ġalongs", "8816": "Ġpersonali", "8817": "Ġspeake", "8818": "Ġalongsi", "8819": "Ġalongsid", "8820": "Ġalongside", "8821": "Ġadven", "8822": "ĠGla", "8823": "Ġlift", "8824": "Ġadvent", "8825": "Ġassemb", "8826": "inator", "8827": "Ġassembl", "8828": "ĠAlle", "8829": "Ġartists", "8830": "Ġreferred", "8831": "ĠVis", "8832": "onus", "8833": "ĠArizona", "8834": "Ġurb", "8835": "ĠItali", "8836": "Ġfest", "8837": "Ġrepeatedl", "8838": "Ġrepeatedly", "8839": "Ġram", "8840": "ĠBloo", "8841": "ĠSC", "8842": "ĠWiki", "8843": "Ġtransl", "8844": "Ġattempte", "8845": "Ġextension", "8846": "Ġrei", "8847": "Ġthera", "8848": "ĠOre", "8849": "ĠAsian", "8850": "Ġattempted", "8851": "Ġpris", "8852": "rring", "8853": "Ġliq", "8854": "Ġupdated", "8855": "Ġtherap", "8856": "ĠRog", "8857": "ĠWatc", "8858": "ĠNigh", "8859": "ĠCruz", "8860": "duction", "8861": "Ġliqu", "8862": "ĠWri", "8863": "hony", "8864": "Ġsurveill", "8865": "Ġvariabl", "8866": "Ġpregn", "8867": "Ġegg", "8868": "ĠWatch", "8869": "Ġsuccee", "8870": "Ġdisaste", "8871": "Ġdedicated", "8872": "Ġdisaster", "8873": "ĠOld", "8874": "Ġsucceed", "8875": "ĠWol", "8876": "Ġupcoming", "8877": "Ġunderw", "8878": "Ġpregna", "8879": "Ġpregnan", "8880": "ĠCharles", "8881": "onat", "8882": "ĠNY", "8883": "ĠBase", "8884": "ĠLight", "8885": "Ġlawma", "8886": "Ġdepth", "8887": "Ġvariable", "8888": "Ġsatisf", "8889": "Ġpled", "8890": "ĠAsh", "8891": "Ġspeaker", "8892": "Ġbreat", "8893": "ĠWars", "8894": "Ġoccasiona", "8895": "Ġoccasional", "8896": "Ġunw", "8897": "Ġbreath", "8898": "Ġstruck", "8899": "ĠEnergy", "8900": "Ġrealized", "8901": "Ġmigr", "8902": "Ġster", "8903": "Ġfarmer", "8904": "Ġinterfa", "8905": "ĠWas", "8906": "ĠSupp", "8907": "Ġtort", "8908": "Ġwalked", "8909": "ĠReco", "8910": "ĠThoug", "8911": "ĠThough", "8912": "onic", "8913": "ĠTan", "8914": "ĠEdit", "8915": "Ġtall", "8916": "Ġairpo", "8917": "ĠAuth", "8918": "Ġlegitima", "8919": "Ġtargete", "8920": "Ġexpor", "8921": "Ġtargeted", "8922": "Ġcoffee", "8923": "Ġassets", "8924": "Ġlawmak", "8925": "Ġlawmake", "8926": "Ġlawmaker", "8927": "Ġteena", "8928": "Ġteenag", "8929": "ĠItalia", "8930": "Ġteenage", "8931": "Ġshoulde", "8932": "Ġnota", "8933": "Ġinspired", "8934": "ĠDefense", "8935": "Ġnewsl", "8936": "ĠCivi", "8937": "Ġevol", "8938": "Ġshoulder", "8939": "Ġspeciali", "8940": "Ġnewsle", "8941": "Ġnewslet", "8942": "ĠAgenc", "8943": "Ġnewslett", "8944": "Ġnewslette", "8945": "Ġnewsletter", "8946": "Ġjustif", "8947": "Ġsettlem", "8948": "Ġsettleme", "8949": "Ġsettlemen", "8950": "Ġsettlement", "8951": "Ġbenc", "8952": "Ġdependen", "8953": "Ġtende", "8954": "Ġbench", "8955": "Ġenhanc", "8956": "Ġenhance", "8957": "ĠMS", "8958": "Ġcausing", "8959": "Ġsurveilla", "8960": "Ġwatched", "8961": "Ġsurveillan", "8962": "Ġmete", "8963": "ĠWild", "8964": "Ġsurveillanc", "8965": "Ġsurveillance", "8966": "ĠGat", "8967": "ĠDesp", "8968": "Ġappreciat", "8969": "Ġopponents", "8970": "tating", "8971": "Ġlatter", "8972": "Ġexport", "8973": "Ġsubstantial", "8974": "tching", "8975": "Ġprogressi", "8976": "Ġprecis", "8977": "Ġadverti", "8978": "ĠVeg", "8979": "Ġunusu", "8980": "Ġunusua", "8981": "Ġprogressiv", "8982": "Ġunusual", "8983": "Ġairpor", "8984": "ĠTake", "8985": "Ġairport", "8986": "Ġantic", "8987": "ĠTay", "8988": "Ġeco", "8989": "Ġfasc", "8990": "Ġadvertis", "8991": "Ġmusc", "8992": "Ġliterall", "8993": "Ġliterally", "8994": "ĠSocie", "8995": "Ġmainstream", "8996": "Ġ64", "8997": "Ġfolks", "8998": "Ġnoi", "8999": "Ġalie", "9000": "ĠIri", "9001": "Ġboat", "9002": "Ġadvertise", "9003": "ĠCrea", "9004": "Ġnorther", "9005": "Ġasid", "9006": "Ġaside", "9007": "Ġrocke", "9008": "Ġtil", "9009": "Ġpossession", "9010": "ĠDetr", "9011": "Ġdeepe", "9012": "ĠYoung", "9013": "Ġteachers", "9014": "Ġprotecte", "9015": "Ġlocke", "9016": "Ġgang", "9017": "ĠSeve", "9018": "ĠPolit", "9019": "Ġphenom", "9020": "ĠIT", "9021": "Ġexciting", "9022": "ĠFat", "9023": "Ġexpense", "9024": "Ġprotected", "9025": "Ġnoticed", "9026": "Ġprecise", "9027": "Ġextende", "9028": "ĠNote", "9029": "Ġinva", "9030": "ĠAS", "9031": "Ġurba", "9032": "Ġurban", "9033": "ĠJr", "9034": "ĠChild", "9035": "mingl", "9036": "Ġforth", "9037": "Ġbond", "9038": "Ġ43", "9039": "ĠSpring", "9040": "ĠNight", "9041": "Ġdeepl", "9042": "ĠAca", "9043": "Ġprompt", "9044": "ĠTit", "9045": "Ġdeeply", "9046": "Ġcommunication", "9047": "Ġsending", "9048": "Ġproperti", "9049": "Ġassistant", "9050": "itting", "9051": "Ġpropertie", "9052": "Ġbattery", "9053": "ampion", "9054": "Ġfixed", "9055": "Ġrequirements", "9056": "Ġaliv", "9057": "Ġalive", "9058": "Ġsuffi", "9059": "Ġbrowser", "9060": "minee", "9061": "Ġdepu", "9062": "Ġdisappea", "9063": "Ġwhis", "9064": "Ġproperties", "9065": "Ġabr", "9066": "Ġdisappear", "9067": "ĠAward", "9068": "âĢĻ.", "9069": "hampion", "9070": "Ġmechanic", "9071": "Ġvoluntee", "9072": "ĠMoor", "9073": "Ġvolunteer", "9074": "Ġvent", "9075": "Ġunem", "9076": "ĠSociet", "9077": "ĠBull", "9078": "Ġpassion", "9079": "Ġeating", "9080": "Ġequiv", "9081": "Ġnorthern", "9082": "ĠMiller", "9083": "Ġ1970", "9084": "Ġupp", "9085": "Ġrescu", "9086": "Ġinstrum", "9087": "ĠRoya", "9088": "illion", "9089": "ĠHop", "9090": "Ġrally", "9091": "Ġconscio", "9092": "Ġconsciou", "9093": "Ġconscious", "9094": "ĠTam", "9095": "Ġsole", "9096": "Ġpromised", "9097": "Ġinstrume", "9098": "Ġangr", "9099": "ĠCD", "9100": "Ġinstrumen", "9101": "Ġyel", "9102": "Ġfiction", "9103": "ĠCS", "9104": "Ġminds", "9105": "ĠMax", "9106": "Ġnur", "9107": "Ġinstrument", "9108": "Ġadapt", "9109": "Ġpeak", "9110": "Ġrisks", "9111": "Ġexhib", "9112": "ĠRadi", "9113": "ĠLand", "9114": "ĠPit", "9115": "ĠLead", "9116": "onk", "9117": "Ġfau", "9118": "Ġinvolving", "9119": "ĠNE", "9120": "Ġselection", "9121": "Ġtested", "9122": "Ġunemp", "9123": "Ġprogressive", "9124": "Ġputs", "9125": "ĠDetro", "9126": "Ġphenome", "9127": "Ġextended", "9128": "mingly", "9129": "Ġforest", "9130": "Ġseed", "9131": "Ġterritory", "9132": "Ġunempl", "9133": "ĠVil", "9134": "Ġunemplo", "9135": "Ġunemploy", "9136": "Ġrefugees", "9137": "ĠDetroi", "9138": "ĠRoyal", "9139": "ĠJord", "9140": "ĠDetroit", "9141": "Ġapproximatel", "9142": "Ġapproximately", "9143": "ĠKevin", "9144": "),", "9145": "Ġending", "9146": "Ġmaximu", "9147": "Ġ150", "9148": "Ġdestroyed", "9149": "Ġunfor", "9150": "Ġinterfac", "9151": "Ġreliab", "9152": "Ġdeput", "9153": "Ġneut", "9154": "ĠCros", "9155": "Ġspel", "9156": "Ġselecte", "9157": "Ġflas", "9158": "ĠTele", "9159": "Ġunknown", "9160": "Ġvoc", "9161": "Ġlocations", "9162": "ĠWome", "9163": "Ġinterface", "9164": "Ġselected", "9165": "orations", "9166": "ĠWomen", "9167": "Ġattacked", "9168": "Ġproof", "9169": "agon", "9170": "Ġprai", "9171": "Ġmaximum", "9172": "alition", "9173": "champion", "9174": "oalition", "9175": "ĠWilson", "9176": "Ġpov", "9177": "Ġinhe", "9178": "Ġracia", "9179": "Ġinher", "9180": "Ġmerel", "9181": "Ġmerely", "9182": "Ġ51", "9183": "Ġnotab", "9184": "ĠFis", "9185": "ĠOS", "9186": "Ġrequests", "9187": "Ġdisord", "9188": "Ġdisorde", "9189": "Ġslowl", "9190": "Ġdisorder", "9191": "Ġsuddenl", "9192": "ĠGh", "9193": "Ġsuddenly", "9194": "Ġracial", "9195": "Ġslowly", "9196": "Ġprotesters", "9197": "Ġdisag", "9198": "essing", "9199": "Ġinven", "9200": "Ġsimul", "9201": "Ġbunc", "9202": "Ġbunch", "9203": "Ġinvent", "9204": "ĠFrie", "9205": "ĠClass", "9206": "Ġdepr", "9207": "cling", "9208": "ĠAlexa", "9209": "Ġenth", "9210": "Ġmatches", "9211": "Ġenr", "9212": "btained", "9213": "Ġdecreas", "9214": "Ġdecrease", "9215": "Ġproperl", "9216": "Ġproperly", "9217": "ĠIris", "9218": "Ġmigra", "9219": "ĠFord", "9220": "Ġhara", "9221": "Ġattribute", "9222": "obtained", "9223": "Ġworried", "9224": "Ġallies", "9225": "Ġtag", "9226": "Ġpove", "9227": "Ġterrorism", "9228": "Ġsupports", "9229": "Ġdistribute", "9230": "Ġappreciate", "9231": "Ġholid", "9232": "Ġarguments", "9233": "Ġholida", "9234": "Ġdecent", "9235": "Ġviewer", "9236": "Ġelectrici", "9237": "Ġnotabl", "9238": "icking", "9239": "Ġfaciliti", "9240": "ĠInve", "9241": "Ġfacilitie", "9242": "Ġfacilities", "9243": "Ġconfront", "9244": "Ġuppe", "9245": "Ġtape", "9246": "ĠEp", "9247": "ĠCast", "9248": "Ġresistanc", "9249": "ĠHot", "9250": "Ġdisagr", "9251": "Ġresistance", "9252": "Ġdisagre", "9253": "ĠBest", "9254": "ĠItalian", "9255": "lusion", "9256": "ĠHit", "9257": "Ġstric", "9258": "Ġrub", "9259": "Ġpace", "9260": "Ġunfa", "9261": "ĠAcad", "9262": "Ġpover", "9263": "Ġsouther", "9264": "Ġundersto", "9265": "ĠHenr", "9266": "Ġequiva", "9267": "Ġyell", "9268": "ĠGreek", "9269": "Ġequival", "9270": "ĠJers", "9271": "Ġhomo", "9272": "Ġextens", "9273": "Ġmemori", "9274": "Ġhype", "9275": "Ġpovert", "9276": "Ġequivale", "9277": "Ġholiday", "9278": "Ġequivalen", "9279": "Ġobtained", "9280": "Ġpoverty", "9281": "Ġwarra", "9282": "ĠVid", "9283": "ĠJerse", "9284": "Ġdanc", "9285": "ĠJersey", "9286": "ĠSno", "9287": "ĠLam", "9288": "ĠItaly", "9289": "ĠAtto", "9290": "Ġfees", "9291": "Ġinterc", "9292": "ĠHollyw", "9293": "Ġdeals", "9294": "ĠMast", "9295": "Ġdevo", "9296": "Ġnominee", "9297": "ĠHollywo", "9298": "Ġwithdra", "9299": "ĠFul", "9300": "ĠHollywoo", "9301": "Ġpate", "9302": "ĠHav", "9303": "Ġunderstoo", "9304": "Ġunderstood", "9305": "ĠHollywood", "9306": "Ġcontrolled", "9307": "Ġdance", "9308": "coalition", "9309": "ĠSuc", "9310": "Ġknoc", "9311": "ĠAttor", "9312": "ĠAgency", "9313": "ĠSociety", "9314": "Ġrost", "9315": "ĠSara", "9316": "ĠAttorn", "9317": "Ġinstant", "9318": "Ġfrui", "9319": "ĠLabor", "9320": "Ġstak", "9321": "ĠAttorne", "9322": "ĠAttorney", "9323": "Ġknock", "9324": "Ġfruit", "9325": "Ġtear", "9326": "Ġprominent", "9327": "Ġstake", "9328": "Ġplasti", "9329": "Ġextensi", "9330": "sions", "9331": "Ġstabi", "9332": "Ġdiagn", "9333": "actions", "9334": "Ġsick", "9335": "Ġsubt", "9336": "Ġwarran", "9337": "Ġwarrant", "9338": "ĠEth", "9339": "Ġlikes", "9340": "Ġendors", "9341": "Ġethi", "9342": "Ġbia", "9343": "ĠPoliti", "9344": "Ġendorse", "9345": "Ġinsig", "9346": "ĠCarr", "9347": "ĠBria", "9348": "ĠCompany", "9349": "Ġethic", "9350": "Ġtouri", "9351": "Ġtouris", "9352": "Ġjournalists", "9353": "Ġpromotion", "9354": "Ġresolv", "9355": "Ġplastic", "9356": "Ġspell", "9357": "Ġexposed", "9358": "Ġregions", "9359": "Ġcommunications", "9360": "Ġmono", "9361": "Ġunb", "9362": "Ġsomeh", "9363": "Ġlimits", "9364": "Ġstim", "9365": "Ġsouthern", "9366": "Ġsomeho", "9367": "Ġunn", "9368": "Ġfesti", "9369": "Ġsomehow", "9370": "Ġfak", "9371": "ĠNASA", "9372": "ĠEdu", "9373": "Ġfestiv", "9374": "Ġstrongl", "9375": "Ġstrongly", "9376": "Ġresolve", "9377": "Ġdrawing", "9378": "Ġchampion", "9379": "Ġestat", "9380": "Ġaudio", "9381": "ĠSP", "9382": "ĠSla", "9383": "Ġemployer", "9384": "Ġsoul", "9385": "Ġpitche", "9386": "ĠRA", "9387": "Ġnarro", "9388": "Ġawes", "9389": "Ġcoalition", "9390": "Ġnarrow", "9391": "ĠNatu", "9392": "Ġsmil", "9393": "Ġflav", "9394": "Ġpersonall", "9395": "Ġpersonally", "9396": "Ġcondem", "9397": "ĠNHL", "9398": "aving", "9399": "ĠRand", "9400": "ĠRei", "9401": "Ġsmile", "9402": "Ġfalling", "9403": "Ġsuffic", "9404": "Ġestate", "9405": "Ġsomewhe", "9406": "ĠBowl", "9407": "Ġsuspen", "9408": "Ġsurger", "9409": "Ġsomewher", "9410": "Ġsomewhere", "9411": "Ġdisci", "9412": "Ġinstalle", "9413": "ĠGall", "9414": "Ġdiscip", "9415": "ĠNick", "9416": "ĠAh", "9417": "ĠArti", "9418": "Ġedition", "9419": "onis", "9420": "Ġdirecte", "9421": "Ġinti", "9422": "Ġroste", "9423": "Ġroster", "9424": "ĠRevi", "9425": "Ġnos", "9426": "Ġfake", "9427": "conn", "9428": "stein", "9429": "Ġsham", "9430": "ĠDespi", "9431": "Ġflash", "9432": "Ġpoe", "9433": "Ġalien", "9434": "Ġinq", "9435": "ĠWalk", "9436": "ĠMiam", "9437": "ĠDA", "9438": "Ġrescue", "9439": "Ġinqu", "9440": "ĠJuli", "9441": "Ġcutting", "9442": "Ġdisagree", "9443": "ĠMiami", "9444": "Ġtransla", "9445": "Ġtranslat", "9446": "Ġnerv", "9447": "Ġhits", "9448": "ĠSpanis", "9449": "ĠSpanish", "9450": "ĠCart", "9451": "sin", "9452": "Ġemissions", "9453": "ementation", "9454": "ĠLibera", "9455": "Ġempty", "9456": "pson", "9457": "Ġtrag", "9458": "Ġrif", "9459": "Ġsight", "9460": "ĠMov", "9461": "ĠAutho", "9462": "ĠTurn", "9463": "Ġaweso", "9464": "ĠElec", "9465": "ĠAuthor", "9466": "Ġflex", "9467": "Ġawesom", "9468": "Ġdirected", "9469": "claiming", "9470": "Ġawesome", "9471": "Ġnois", "9472": "ĠJorda", "9473": "inity", "9474": "Ġmeetings", "9475": "ĠForm", "9476": "Ġgotte", "9477": "Ġgotten", "9478": "Ġloud", "9479": "rruption", "9480": "Ġsubscrib", "9481": "Ġsubscribe", "9482": "Ġelectricit", "9483": "btain", "9484": "ĠElect", "9485": "Ġderi", "9486": "ĠBrian", "9487": "Ġelectricity", "9488": "ĠNatur", "9489": "ĠDNA", "9490": "Ġintelle", "9491": "Ġofficiall", "9492": "Ġofficially", "9493": "ĠJay", "9494": "profit", "9495": "Ġreasonable", "9496": "Ġdiagno", "9497": "ĠJordan", "9498": "ĠHunt", "9499": "orruption", "9500": "Ġdiagnos", "9501": "Ġinch", "9502": "Ġadministr", "9503": "Ġves", "9504": "ĠDespit", "9505": "ĠDespite", "9506": "ĠDall", "9507": "Ġintellec", "9508": "Ġadministra", "9509": "Ġswo", "9510": "Ġstronger", "9511": "Ġintellect", "9512": "Ġhopef", "9513": "Ġhopefu", "9514": "Ġhopeful", "9515": "Ġhung", "9516": "ĠMake", "9517": "Ġtempl", "9518": "Ġweir", "9519": "ĠGaz", "9520": "Ġpurposes", "9521": "ĠManc", "9522": "Ġprais", "9523": "Ġpraise", "9524": "Ġhyd", "9525": "Ġsequenc", "9526": "Ġextensiv", "9527": "Ġsequence", "9528": "Ġextensive", "9529": "Ġtrees", "9530": "Ġamounts", "9531": "Ġanx", "9532": "hine", "9533": "Ġpod", "9534": "Ġanxi", "9535": "ĠWea", "9536": "Ġfifth", "9537": "ĠRay", "9538": "ĠNaz", "9539": "ĠSouther", "9540": "ĠBuc", "9541": "iption", "9542": "Ġtowe", "9543": "ĠIc", "9544": "Ġadministrat", "9545": "Ġbarre", "9546": "ĠCod", "9547": "ĠRac", "9548": "Ġlege", "9549": "Ġgoods", "9550": "Ġatmosphere", "9551": "ription", "9552": "Ġartif", "9553": "Ġclaiming", "9554": "Ġpledg", "9555": "Ġfinds", "9556": "Ġpledge", "9557": "obtain", "9558": "ĠCall", "9559": "ĠAmen", "9560": "Ġinvestigato", "9561": "Ġinvestigator", "9562": "Ġsomeb", "9563": "Ġdogs", "9564": "Ġdriven", "9565": "Ġsomebo", "9566": "Ġsomebod", "9567": "Ġpayments", "9568": "Ġupper", "9569": "Ġties", "9570": "Ġseats", "9571": "ĠEnd", "9572": "ĠNations", "9573": "Ġproducti", "9574": "Ġsomebody", "9575": "ĠDer", "9576": "Ġsignat", "9577": "ĠData", "9578": "ĠServices", "9579": "ĠSouthern", "9580": "Ġexposu", "9581": "Ġexposur", "9582": "Ġexposure", "9583": "ĠMoore", "9584": "Ġstrict", "9585": "Ġviola", "9586": "Ġbias", "9587": "Ġdrawn", "9588": "ĠFie", "9589": "Ġgea", "9590": "Ġproductiv", "9591": "ĠLes", "9592": "Ġpermission", "9593": "Ġparal", "9594": "ĠEdw", "9595": "Ġthreatene", "9596": "ĠView", "9597": "inded", "9598": "Ġlegen", "9599": "Ġthreatened", "9600": "Ġruled", "9601": "ĠMai", "9602": "Ġvisibl", "9603": "Ġweird", "9604": "ĠIrish", "9605": "ĠGreg", "9606": "Ġambi", "9607": "Ġlegend", "9608": "Ġtrading", "9609": "econd", "9610": "Ġprimaril", "9611": "Ġprimarily", "9612": "Ġinforme", "9613": "Ġgear", "9614": "Ġdemocrat", "9615": "Ġ7", "9616": "Ġ70", "9617": "Ġ75", "9618": "ĠSumm", "9619": "Ġaspects", "9620": "Ġenthu", "9621": "Ġbrut", "9622": "Ġfighters", "9623": "Ġenthus", "9624": "Ġanswers", "9625": "Ġham", "9626": "Ġperfectl", "9627": "Ġperfectly", "9628": "Ġparking", "9629": "ĠAcade", "9630": "Ġrejecte", "9631": "ĠAcadem", "9632": "ofes", "9633": "Ġrejected", "9634": "Ġnotion", "9635": "Ġrati", "9636": "Ġconstantl", "9637": "Ġconstantly", "9638": "ĠParl", "9639": "ĠStil", "9640": "Ġintim", "9641": "Ġtechnologie", "9642": "inoi", "9643": "Ġaccepta", "9644": "Ġdistinct", "9645": "ĠEdwa", "9646": "conf", "9647": "Ġflying", "9648": "Ġtechnologies", "9649": "ĠEdwar", "9650": "ĠAD", "9651": "ĠSerie", "9652": "Ġelsew", "9653": "ĠMoto", "9654": "Ġcomponents", "9655": "Ġpursue", "9656": "ĠEdward", "9657": "ĠScotl", "9658": "ĠScotla", "9659": "ĠScotlan", "9660": "ĠScotland", "9661": "Ġelsewh", "9662": "Ġelsewhe", "9663": "Ġelsewher", "9664": "Ġelsewhere", "9665": "ofess", "9666": "Ġanym", "9667": "Ġfields", "9668": "Ġdiplomat", "9669": "Ġanymo", "9670": "Ġanymor", "9671": "Ġanymore", "9672": "Ġobtain", "9673": "Ġreceiver", "9674": "ĠEva", "9675": "Ġnobo", "9676": "Ġballot", "9677": "Ġmanufacturer", "9678": "Ġnobod", "9679": "Ġestimates", "9680": "Ġpsychologi", "9681": "Ġsolutions", "9682": "Ġinterac", "9683": "Ġresulting", "9684": "inos", "9685": "Ġinteract", "9686": "uine", "9687": "Ġworldw", "9688": "Ġenemi", "9689": "Ġworldwi", "9690": "Ġkni", "9691": "Ġworldwid", "9692": "Ġworldwide", "9693": "Ġregularl", "9694": "Ġregularly", "9695": "aging", "9696": "Ġequivalent", "9697": "Ġenemie", "9698": "Ġenemies", "9699": "Ġ52", "9700": "ĠDisn", "9701": "ĠGuardi", "9702": "ĠDisne", "9703": "Ġmixed", "9704": "Ġviolat", "9705": "ĠDisney", "9706": "ĠDalla", "9707": "Ġstol", "9708": "ointm", "9709": "tton", "9710": "ointme", "9711": "ointmen", "9712": "Ġbrew", "9713": "ĠIndiana", "9714": "ointment", "9715": "Ġhouses", "9716": "ĠLiberal", "9717": "Ġthread", "9718": "Ġnobody", "9719": "Ġsemi", "9720": "Ġintervention", "9721": "Ġcontrols", "9722": "Ġletters", "9723": "corruption", "9724": "Ġdefenc", "9725": "Ġdefence", "9726": "Ġbaseb", "9727": "Ġparad", "9728": "ĠTour", "9729": "eading", "9730": "ĠEP", "9731": "Ġadventu", "9732": "Ġadventur", "9733": "Ġconven", "9734": "ĠPlaye", "9735": "Ġhorri", "9736": "Ġlai", "9737": "Ġtone", "9738": "ĠPremie", "9739": "ĠMinnes", "9740": "Ġknee", "9741": "ĠPremier", "9742": "Ġadopte", "9743": "ĠMinneso", "9744": "ĠMinnesot", "9745": "ĠMinnesota", "9746": "Ġdry", "9747": "Ġthri", "9748": "Ġstuc", "9749": "ĠTem", "9750": "ĠLad", "9751": "ĠSteven", "9752": "Ġlane", "9753": "ĠSilv", "9754": "Ġstabil", "9755": "ĠDru", "9756": "Ġcontributed", "9757": "ĠDy", "9758": "mpression", "9759": "Ġexecute", "9760": "Ġbaseba", "9761": "Ġconcluded", "9762": "Ġexists", "9763": "Ġwitnesse", "9764": "ĠWher", "9765": "Ġ47", "9766": "ĠPolitic", "9767": "Ġstole", "9768": "Ġsituations", "9769": "Ġ400", "9770": "ĠChampionship", "9771": "Ġ46", "9772": "Ġemploym", "9773": "Ġemployme", "9774": "Ġemploymen", "9775": "Ġemployment", "9776": "ĠTest", "9777": "contro", "9778": "Ġincredible", "9779": "ĠConstitution", "9780": "ĠEma", "9781": "Ġhip", "9782": "cription", "9783": "Ġincen", "9784": "Ġhydr", "9785": "ĠJosep", "9786": "Ġestablishm", "9787": "Ġestablishme", "9788": "Ġestablishmen", "9789": "Ġestablishment", "9790": ".\"[", "9791": "Ġdesigner", "9792": "ione", "9793": "ĠVega", "9794": "asting", "9795": "ĠPhila", "9796": "ĠWhere", "9797": "Ġbai", "9798": "Ġinformed", "9799": "Ġcontinuing", "9800": "Ġsate", "9801": "ofesso", "9802": "Ġbasebal", "9803": "Ġbaseball", "9804": "ofessor", "9805": "ĠVI", "9806": "Ġwrap", "9807": "ĠInsta", "9808": "Ġneutr", "9809": "ĠFami", "9810": "ĠContro", "9811": "Ġgrade", "9812": "ĠMayo", "9813": "Ġflavo", "9814": "Ġwonderf", "9815": "Ġscand", "9816": "Ġwonderfu", "9817": "Ġwonderful", "9818": "Ġ190", "9819": "Ġdish", "9820": "Ġhunt", "9821": "Ġtied", "9822": "ĠEc", "9823": "lications", "9824": "Ġraising", "9825": "Ġroutine", "9826": "Ġangry", "9827": "Ġscanda", "9828": "Ġelev", "9829": "Ġscandal", "9830": "Ġmachines", "9831": "Ġconspir", "9832": "Ġregistere", "9833": "Ġpersonalit", "9834": "Ġregistered", "9835": "Ġproved", "9836": "ĠMetr", "9837": "Ġdemands", "9838": "Ġvisito", "9839": "kings", "9840": "Ġvisitor", "9841": "Ġdos", "9842": "Ġterrible", "9843": "Ġgaming", "9844": "Ġpatc", "9845": "ĠGala", "9846": "Ġpatch", "9847": "Ġincredibly", "9848": "Ġbarri", "9849": "Ġrumo", "9850": "ĠDallas", "9851": "Ġstuck", "9852": "Ġvoca", "9853": "Ġmill", "9854": "Ġfeedb", "9855": "Ġfeedba", "9856": "Ġnewl", "9857": "lementation", "9858": "Ġfeedbac", "9859": "Ġfeedback", "9860": "ĠDig", "9861": "Ġnewly", "9862": "Ġconsumption", "9863": "Ġreverse", "9864": "Ġmanip", "9865": "ĠPaci", "9866": "Ġsmoo", "9867": "Ġhomel", "9868": "Ġinnoc", "9869": "Ġenthusi", "9870": "Ġenthusia", "9871": "Ġexces", "9872": "Ġbills", "9873": "Ġenthusias", "9874": "ĠSpain", "9875": "Don", "9876": "Ġviru", "9877": "Ġdefender", "9878": "ĠLE", "9879": "Ġwriters", "9880": "ĠAmend", "9881": "ĠExpe", "9882": "ĠMusi", "9883": "Ġexcess", "9884": "Ġathlete", "9885": "Ġsuspend", "9886": "Ġgrante", "9887": "ĠLew", "9888": "posing", "9889": "ĠCare", "9890": "Ġshortl", "9891": "unction", "9892": "Ġrepresente", "9893": "Ġtrap", "9894": "ĠReu", "9895": "Ġreturning", "9896": "Ġprogramming", "9897": "Ġstead", "9898": "ĠThanks", "9899": "Ġvalua", "9900": "Ġala", "9901": "ĠMerc", "9902": "Ġrepresented", "9903": "Ġvaluab", "9904": "Ġvaluabl", "9905": "ĠClark", "9906": "Ġconsole", "9907": "Ġamp", "9908": "Ġvaluable", "9909": "rain", "9910": "ĠRet", "9911": "ĠGir", "9912": "ĠPie", "9913": "Ġsatel", "9914": "Ġpenalty", "9915": "ĠParli", "9916": "Ġdrinking", "9917": "Ġhang", "9918": "Ġ0", "9919": "Ġ00", "9920": "ĠProgra", "9921": "Ġsatell", "9922": "Ġsatelli", "9923": "Ġsatellit", "9924": "Ġtransg", "9925": "ĠParlia", "9926": "Ġdoors", "9927": "Ġsatellite", "9928": "ĠParliam", "9929": "ĠParliame", "9930": "Ġperp", "9931": "ĠParliamen", "9932": "ĠParliament", "9933": "Ġafr", "9934": "Ġsynt", "9935": "Ġprisoner", "9936": "Ġexplanation", "9937": "lain", "9938": "Ġweste", "9939": "ĠAPI", "9940": "Ġwester", "9941": "Ġpoc", "9942": "ĠAssoci", "9943": "ampionship", "9944": "hampionship", "9945": "Ġphr", "9946": "Ġinterr", "9947": "Ġsmoot", "9948": "Ġusa", "9949": "Ġsmooth", "9950": "pation", "9951": "ĠTechno", "9952": "ĠAlexan", "9953": "Ġassistanc", "9954": "Ġassistance", "9955": "Ġcongr", "9956": "Ġrestric", "9957": "ĠPara", "9958": "ĠAlexand", "9959": "Ġrestrict", "9960": "Ġtranspa", "9961": "ĠStill", "9962": "Ġinqui", "9963": "Ġembrac", "9964": "Ġembrace", "9965": "Ġami", "9966": "Ġgranted", "9967": "Ġtranspar", "9968": "ĠShan", "9969": "Ġwithdraw", "9970": "ĠCoas", "9971": "ĠAsse", "9972": "Ġpunc", "9973": "ĠOak", "9974": "ringe", "9975": "ĠLow", "9976": "ĠMes", "9977": "ĠIC", "9978": "Ġtranspare", "9979": "Ġtransparen", "9980": "ĠNas", "9981": "Ġsnap", "9982": "Ġ1999", "9983": "Ġfilt", "9984": "hones", "9985": "ĠRang", "9986": "Ġforec", "9987": "Ġsuccessfull", "9988": "Ġmyt", "9989": "aning", "9990": "Ġshares", "9991": "Ġmodera", "9992": "Ġsuccessfully", "9993": "Ġprivi", "9994": "Ġmoderat", "9995": "consin", "9996": "Ġmyth", "9997": "ĠHI", "9998": "Ġpropa", "9999": "ĠPacif", "10000": "ĠDom", "10001": "Ġscenes", "10002": "ĠNei", "10003": "Ġviolate", "10004": "ĠAni", "10005": "Ġrecovery", "10006": "Ġtechniques", "10007": "Ġmuscl", "10008": "ĠPacifi", "10009": "Ġaime", "10010": "ĠPatric", "10011": "Ġethn", "10012": "Ġ($", "10013": "Ġdegrees", "10014": "Ġmuscle", "10015": "Ġphra", "10016": "ĠRick", "10017": "ĠCoast", "10018": "Ġads", "10019": "ĠMosc", "10020": "Ġsympt", "10021": "ĠWan", "10022": "Ġlawmakers", "10023": "Ġprivil", "10024": "Ġsympto", "10025": "ĠJoseph", "10026": "Ġsymptom", "10027": "Ġframew", "10028": "ĠTayl", "10029": "Ġframewo", "10030": "Ġframewor", "10031": "onta", "10032": "Ġframework", "10033": "Ġaimed", "10034": "Ġwestern", "10035": "Ġshit", "10036": "Ġdrag", "10037": "Ġpersonn", "10038": "Ġmodule", "10039": "Ġprivile", "10040": "ĠDri", "10041": "Ġsuga", "10042": "championship", "10043": "Ġengaged", "10044": "Ġsugar", "10045": "Ġslid", "10046": "Ġconvic", "10047": "ĠSet", "10048": "lined", "10049": "ĠCurr", "10050": "Ġmilitan", "10051": "ĠGia", "10052": "Ġconvict", "10053": "Ġautomatica", "10054": "Ġsuffici", "10055": "Ġsufficie", "10056": "Ġsufficien", "10057": "Ġbonus", "10058": "Ġpersonne", "10059": "Ġpasses", "10060": "Ġautomatical", "10061": "Ġblocks", "10062": "Ġautomaticall", "10063": "Ġautomatically", "10064": "ĠIow", "10065": "ĠArabia", "10066": "ĠIowa", "10067": "Ġantici", "10068": "ĠUnl", "10069": "etion", "10070": "ĠPacific", "10071": "ĠSpecia", "10072": "Ġicon", "10073": "ĠAvenu", "10074": "ĠAvenue", "10075": "Ġattended", "10076": "Ġmarked", "10077": "Ġagri", "10078": "ĠTaylo", "10079": "Ġharas", "10080": "ĠForei", "10081": "ĠForeig", "10082": "ĠForeign", "10083": "Ġhidd", "10084": "ĠEarl", "10085": "Ġharass", "10086": "Ġhidde", "10087": "Ġhidden", "10088": "ĠLGB", "10089": "making", "10090": "iona", "10091": "Ġgli", "10092": "Ġtai", "10093": "ĠTaylor", "10094": "Ġtitles", "10095": "Ġtaug", "10096": "ĠPlayer", "10097": "ĠMart", "10098": "Ġentre", "10099": "ĠNBC", "10100": "Ġaccompa", "10101": "ĠMusic", "10102": "Ġtaugh", "10103": "Ġtaught", "10104": "vironment", "10105": "ĠLinux", "10106": "ĠSwa", "10107": "Ġpock", "10108": "din", "10109": "Ġindex", "10110": "Ġexpli", "10111": "Ġrocket", "10112": "Ġaccompan", "10113": "Ġlawyers", "10114": "Ġintensi", "10115": "Ġdepending", "10116": "plementation", "10117": "Ġdownto", "10118": "Ġprivileg", "10119": "Ġchampionship", "10120": "Ġinstalled", "10121": "Ġunpre", "10122": "ĠLoo", "10123": "Ġrebu", "10124": "Ġmeal", "10125": "Ġdowntow", "10126": "Ġdowntown", "10127": "ĠFamil", "10128": "mplementation", "10129": "Ġresto", "10130": "Ġhil", "10131": "Ġvisite", "10132": "Ġrecipe", "10133": "ĠSpecial", "10134": "ĠTot", "10135": "Ġdeva", "10136": "ĠShare", "10137": "Ġanger", "10138": "Ġduty", "10139": "Ġdisg", "10140": "Ġprivilege", "10141": "ĠMosco", "10142": "Ġsuspi", "10143": "ĠBusiness", "10144": "Ġslu", "10145": "Ġsuspic", "10146": "ĠBib", "10147": "Ġpersonnel", "10148": "Ġuncertain", "10149": "Ġphones", "10150": "Ġvulnerabl", "10151": "Ġwarming", "10152": "ĠBrid", "10153": "Ġexplic", "10154": "ĠCross", "10155": "Ġreputation", "10156": "Ġintellectu", "10157": "Ġsufficient", "10158": "ĠAssocia", "10159": "month", "10160": "Ġvisited", "10161": "Ġconsult", "10162": "Ġvulnerable", "10163": "Ġenjoye", "10164": "Ġprinciples", "10165": "ĠMaste", "10166": "Ġmenu", "10167": "Ġenjoyed", "10168": "Ġnegotiations", "10169": "Ġgenerated", "10170": "Ġstrategic", "10171": "Ġintellectua", "10172": "Ġaler", "10173": "Ġsenso", "10174": "Ġintellectual", "10175": "Ġregardl", "10176": "Ġregardle", "10177": "ĠAssociat", "10178": "Ġregardles", "10179": "Ġregardless", "10180": "Ġalert", "10181": "ĠAmendm", "10182": "ĠAmendme", "10183": "ĠAmendmen", "10184": "ĠAmendment", "10185": "Ġfrust", "10186": "Ġdeficit", "10187": "Ġpartnersh", "10188": "Ġmonster", "10189": "Ġpartnershi", "10190": "Ġpartnership", "10191": "ĠSaf", "10192": "Ġtracks", "10193": "ĠBalt", "10194": "Ġpatterns", "10195": "ĠJosh", "10196": "Ġsignatu", "10197": "ĠVill", "10198": "Ġsignatur", "10199": "ĠTony", "10200": "Ġsignature", "10201": "ĠMaster", "10202": "ĠAssociate", "10203": "ĠControl", "10204": "Ġdinner", "10205": "ĠCir", "10206": "Ġsensor", "10207": "Ġmarc", "10208": "plications", "10209": "ĠBei", "10210": "ĠNC", "10211": "Ġhide", "10212": "ĠViet", "10213": "Ġmainly", "10214": "ĠGiv", "10215": "Ġconcent", "10216": "Ġconstitutional", "10217": "Ġtortu", "10218": "Ġpum", "10219": "Ġafra", "10220": "Ġpounds", "10221": "ĠJudg", "10222": "Ġafrai", "10223": "Ġafraid", "10224": "ĠLGBT", "10225": "ĠEastern", "10226": "Ġintense", "10227": "Ġflood", "10228": "Ġbusy", "10229": "Ġbath", "10230": "ĠSeries", "10231": "Ġpresu", "10232": "ĠAlbe", "10233": "Ġinteri", "10234": "Ġfunny", "10235": "Ġsurgery", "10236": "ĠSus", "10237": "ĠMoscow", "10238": "Ġbitcoin", "10239": "Ġrepai", "10240": "ĠBA", "10241": "ĠIrani", "10242": "ĠTechnol", "10243": "Ġengineering", "10244": "ĠMassa", "10245": "ĠMajo", "10246": "Ġfold", "10247": "Ġneuro", "10248": "ulating", "10249": "Ġprocesses", "10250": "ĠExe", "10251": "ĠNorther", "10252": "âĢĻ,", "10253": "Ġthic", "10254": "Ġarray", "10255": "ĠGul", "10256": "Ġdescribes", "10257": "Ġtwen", "10258": "Ġapologi", "10259": "Ġconsidera", "10260": "tification", "10261": "ĠTechnolo", "10262": "Ġtwent", "10263": "ĠTechnolog", "10264": "Ġresulte", "10265": "ĠMcG", "10266": "Ġsuggestion", "10267": "ĠMajor", "10268": "ĠDead", "10269": "ĠPhilad", "10270": "Ġstabili", "10271": "ĠRobin", "10272": "ĠPhilade", "10273": "Ġresulted", "10274": "Ġ8", "10275": "Ġ80", "10276": "Ġtaxp", "10277": "Ġemerged", "10278": "Ġtaxpa", "10279": "ĠMir", "10280": "ĠPhiladel", "10281": "ĠNorthern", "10282": "Ġpeer", "10283": "ĠPhiladelp", "10284": "Ġpocke", "10285": "ĠPhiladelph", "10286": "Ġfoug", "10287": "implementation", "10288": "aming", "10289": "Ġcorruption", "10290": "Ġstations", "10291": "ĠGuardia", "10292": "Ġfough", "10293": "Ġloop", "10294": "Ġfought", "10295": "ĠChang", "10296": "ĠPhiladelphi", "10297": "Ġhadn", "10298": "Ġadopted", "10299": "Ġalgo", "10300": "Ġeveryw", "10301": "ĠPhiladelphia", "10302": "Ġelecto", "10303": "Ġentitl", "10304": "ĠMetro", "10305": "ĠCreat", "10306": "Ġentitle", "10307": "ĠGive", "10308": "xon", "10309": "Ġeverywh", "10310": "Ġelector", "10311": "ĠBef", "10312": "Ġeverywhe", "10313": "Ġeverywher", "10314": "Ġeverywhere", "10315": "ĠManch", "10316": "ĠGloba", "10317": "Ġtransi", "10318": "Ġphras", "10319": "ĠCivil", "10320": "Ġtortur", "10321": "Ġpocket", "10322": "Ġtaxpay", "10323": "Ġtaxpaye", "10324": "Ġtaxpayer", "10325": "Ġphrase", "10326": "Ġcontracts", "10327": "ĠBattl", "10328": "ĠDevelopm", "10329": "ĠDevelopme", "10330": "Ġfeelings", "10331": "ĠRange", "10332": "ĠDevelopmen", "10333": "ĠDevelopment", "10334": "Ġfirms", "10335": "Ġnoise", "10336": "ĠâĢĻ", "10337": "Ġminority", "10338": "ĠCrow", "10339": "Ġforu", "10340": "Ġadvertising", "10341": "ĠBattle", "10342": "Ġrarel", "10343": "Ġrarely", "10344": "Ġbulle", "10345": "Ġexploi", "10346": "ĠAbb", "10347": "Ġvirus", "10348": "Ġshado", "10349": "Ġshadow", "10350": "Ġforum", "10351": "ĠAlli", "10352": "Ġsixt", "10353": "ĠPur", "10354": "Ġexplici", "10355": "Ġmarch", "10356": "Ġexplicit", "10357": "Ġadventure", "10358": "Ġrestor", "10359": "Ġpaten", "10360": "ĠFoot", "10361": "ĠMah", "10362": "Ġexploit", "10363": "Ġsanctions", "10364": "Ġfriendl", "10365": "binet", "10366": "Ġshoe", "10367": "Ġtail", "10368": "Ġsubsidi", "10369": "Ġnationali", "10370": "Ġexit", "10371": "Ġenor", "10372": "Ġpatent", "10373": "ĠBefo", "10374": "Ġblas", "10375": "ĠBefor", "10376": "Ġenorm", "10377": "Ġassur", "10378": "ĠBefore", "10379": "Ġshortly", "10380": "Ġracist", "10381": "ĠPolicy", "10382": "Ġsubstanc", "10383": "Ġsubstance", "10384": "ĠDark", "10385": "Ġexpectations", "10386": "Ġmilitant", "10387": "Ġlam", "10388": "Ġimplementation", "10389": "inistration", "10390": "Ġgate", "10391": "Ġconspira", "10392": "ĠAlab", "10393": "Ġstabl", "10394": "ĠDisc", "10395": "ĠIrania", "10396": "Ġmediu", "10397": "ĠIranian", "10398": "ĠSanta", "10399": "Ġsme", "10400": "Ġmodes", "10401": "Ġscru", "10402": "Ġdespe", "10403": "Ġraid", "10404": "ĠNation", "10405": "Ġaffil", "10406": "Ġtune", "10407": "Ġlights", "10408": "Ġtheori", "10409": "Ġdemocrati", "10410": "Ġextern", "10411": "Ġroads", "10412": "Ġrose", "10413": "Ġrepro", "10414": "enging", "10415": "ĠNavy", "10416": "ĠGuardian", "10417": "Ġinsigh", "10418": "Ġinsight", "10419": "Ġinev", "10420": "ĠRap", "10421": "Ġinevi", "10422": "Ġinevit", "10423": "Ġmedium", "10424": "Ġparame", "10425": "Ġinevita", "10426": "Ġinevitab", "10427": "Ġhacke", "10428": "Ġinnoce", "10429": "Ġinnocen", "10430": "Ġyi", "10431": "Ġdesper", "10432": "ĠOtt", "10433": "ĠAlber", "10434": "Ġvege", "10435": "Ġtens", "10436": "ĠSav", "10437": "ĠVide", "10438": "ĠFood", "10439": "ĠAlaba", "10440": "Ġdespera", "10441": "Ġvisible", "10442": "Ġassessm", "10443": "Ġassessme", "10444": "Ġassessmen", "10445": "Ġassessment", "10446": "ĠRoge", "10447": "Ġderiv", "10448": "Ġalgor", "10449": "ĠMcCa", "10450": "Ġdeadl", "10451": "Ġfestiva", "10452": "Ġdesperat", "10453": "Ġpriority", "10454": "ĠBalti", "10455": "Ġfestival", "10456": "ĠGlobal", "10457": "Ġupse", "10458": "Ġdesperate", "10459": "ĠKingd", "10460": "ĠInves", "10461": "ĠSac", "10462": "Ġalgori", "10463": "ĠChec", "10464": "Ġalgorit", "10465": "Ġagric", "10466": "ĠIR", "10467": "Ġtorture", "10468": "Ġstable", "10469": "ĠGard", "10470": "Ġbehaviou", "10471": "Ġbehaviour", "10472": "ĠKingdo", "10473": "ĠIntell", "10474": "ĠBE", "10475": "ĠKingdom", "10476": "Ġalgorith", "10477": "asing", "10478": "Ġaccel", "10479": "aints", "10480": "control", "10481": "Ġalgorithm", "10482": "Ġinsiste", "10483": "Ġutilit", "10484": "Ġbruta", "10485": "ĠMoh", "10486": "ĠSir", "10487": "ĠInvest", "10488": "ĠWisconsin", "10489": "ĠStand", "10490": "ĠBol", "10491": "Ġdozens", "10492": "Ġbasketb", "10493": "Ġwides", "10494": "Ġlosse", "10495": "Ġlaid", "10496": "Ġingr", "10497": "Ġbasketba", "10498": "Ġbasketbal", "10499": "Ġbasketball", "10500": "Ġlosses", "10501": "losing", "10502": "ĠFair", "10503": "ĠAa", "10504": "Ġbrutal", "10505": "Ġintegrat", "10506": "Ġarchitectu", "10507": "Ġagricu", "10508": "Ġarchitectur", "10509": "Ġagricul", "10510": "Ġstrikes", "10511": "Ġagricult", "10512": "ĠAlabam", "10513": "ĠSS", "10514": "Ġdestin", "10515": "Ġscoring", "10516": "ĠTurki", "10517": "ĠMarke", "10518": "Ġtranslate", "10519": "Ġagricultu", "10520": "Ġagricultur", "10521": "oins", "10522": "ĠTemp", "10523": "ĠRadio", "10524": "Ġbehal", "10525": "Ġmun", "10526": "intere", "10527": "ĠPO", "10528": "ĠNazi", "10529": "ĠCentre", "10530": "ĠBak", "10531": "Ġexterna", "10532": "Ġbehalf", "10533": "ĠHave", "10534": "Ġsorr", "10535": "ĠDoug", "10536": "ĠMagi", "10537": "ortion", "10538": "ĠBall", "10539": "Ġsociali", "10540": "ĠArg", "10541": "Ġadviser", "10542": "Ġdiversi", "10543": "ĠLaur", "10544": "ĠLate", "10545": "ĠHenry", "10546": "Ġrestore", "10547": "ĠThus", "10548": "Ġevolv", "10549": "Ġborr", "10550": "ĠJudge", "10551": "Ġloy", "10552": "Ġgained", "10553": "Ġexternal", "10554": "ĠVietn", "10555": "ĠESP", "10556": "ĠVietna", "10557": "Ġfounded", "10558": "ĠVietnam", "10559": "Ġji", "10560": "Ġloya", "10561": "Ġdict", "10562": "Ġinnov", "10563": "Ġfoundation", "10564": "Ġprocee", "10565": "Ġconsiderab", "10566": "Ġproceed", "10567": "Ġloyal", "10568": "Ġpremie", "10569": "Ġconsiderabl", "10570": "ĠAlabama", "10571": "Ġpremier", "10572": "ĠVideo", "10573": "Ġevolve", "10574": "Ġgent", "10575": "Ġmanufacturing", "10576": "Ġinquir", "10577": "Ġrely", "10578": "ĠLeade", "10579": "ĠProp", "10580": "Ġpriz", "10581": "Ġremarka", "10582": "Ġremarkab", "10583": "Ġpercei", "10584": "Ġremarkabl", "10585": "Ġperceiv", "10586": "Ġridi", "10587": "ĠThree", "10588": "Ġneutra", "10589": "ĠDid", "10590": "Ġridic", "10591": "ĠPack", "10592": "Ġgenuine", "10593": "Ġenormo", "10594": "ĠLeader", "10595": "Ġenormou", "10596": "Ġenormous", "10597": "ĠBee", "10598": "Ġprize", "10599": "Ġbacks", "10600": "ĠCommunit", "10601": "ĠMean", "10602": "Ġrelief", "10603": "Ġdemocratic", "10604": "Ġsaved", "10605": "Ġlegitimat", "10606": "Ġyie", "10607": "Ġswing", "10608": "ĠProgram", "10609": "Ġheaded", "10610": "mplications", "10611": "ĠBerni", "10612": "Ġlegitimate", "10613": "Ġfaul", "10614": "izon", "10615": "Ġdad", "10616": "Ġridicu", "10617": "Ġpetition", "10618": "Ġ->", "10619": "lenging", "10620": "llenging", "10621": "Ġperceive", "10622": "Ġstad", "10623": "Ġunifo", "10624": "ĠPay", "10625": "Ġfoota", "10626": "ĠAlbert", "10627": "Ġfootag", "10628": "Ġfootage", "10629": "Ġunifor", "10630": "Ġships", "10631": "Ġuniform", "10632": "ĠVR", "10633": "Ġdeco", "10634": "Ġbanned", "10635": "Ġspin", "10636": "Ġstac", "10637": "Ġsheet", "10638": "Ġethni", "10639": "Ġdens", "10640": "Ġ53", "10641": "Ġunfort", "10642": "Ġreplie", "10643": "Ġethnic", "10644": "Ġfailing", "10645": "Ġneutral", "10646": "ĠConfer", "10647": "Ġrecognized", "10648": "Ġunfortu", "10649": "Ġ1960", "10650": "Ġtransge", "10651": "Ġtransgen", "10652": "Ġcontaining", "10653": "ĠHay", "10654": "Ġunfortun", "10655": "Ġunfortuna", "10656": "Ġasy", "10657": "Ġfab", "10658": "Ġunfortunat", "10659": "Ġpreserv", "10660": "Ġwalls", "10661": "Ġperpe", "10662": "Ġstruggling", "10663": "Ġunfortunate", "10664": "ĠConfere", "10665": "ĠSnow", "10666": "ĠAcademy", "10667": "ĠConferen", "10668": "Ġachieved", "10669": "Ġlandsc", "10670": "Ġlandsca", "10671": "Ġstadi", "10672": "ĠGun", "10673": "ĠConferenc", "10674": "ĠAbou", "10675": "ĠConference", "10676": "Ġhorro", "10677": "Ġfault", "10678": "Ġhorror", "10679": "Ġdelib", "10680": "Ġmovements", "10681": "Ġrear", "10682": "ĠPha", "10683": "ĠOregon", "10684": "Ġaci", "10685": "onar", "10686": "ĠIraqi", "10687": "Ġepisodes", "10688": "ĠFull", "10689": "ĠAth", "10690": "Ġhypot", "10691": "ĠRevie", "10692": "rising", "10693": "Ġmilk", "10694": "ĠMayor", "10695": "ĠNob", "10696": "Ġintegrate", "10697": "Ġscare", "10698": "Ġpropag", "10699": "Ġratio", "10700": "allenging", "10701": "hallenging", "10702": "ĠAz", "10703": "Ġ1998", "10704": "Ġdestruction", "10705": "spons", "10706": "Ġbeliefs", "10707": "Ġato", "10708": "Ġbacked", "10709": "ĠFred", "10710": "Ġacid", "10711": "ĠLyn", "10712": "Ġliked", "10713": "ĠHead", "10714": "Ġhired", "10715": "ĠDieg", "10716": "Ġregr", "10717": "Ġrede", "10718": "ĠGan", "10719": "porations", "10720": "ĠAtlanta", "10721": "Ġroles", "10722": "Ġlanguages", "10723": "Ġentering", "10724": "rporations", "10725": "orporations", "10726": "ĠRoger", "10727": "Ġmole", "10728": "ĠLiby", "10729": "ĠComme", "10730": "ĠTurkis", "10731": "Ġuniversa", "10732": "Ġinterviews", "10733": "ĠVar", "10734": "Ġtox", "10735": "Ġphilosophy", "10736": "ĠAdministration", "10737": "Ġstack", "10738": "ĠBernie", "10739": "turing", "10740": "Ġuniversal", "10741": "Ġbiologi", "10742": "Ġflaw", "10743": "Ġsacri", "10744": "ĠLibya", "10745": "ĠManche", "10746": "ĠMala", "10747": "ĠYO", "10748": "Ġstadiu", "10749": "Ġdirt", "10750": "Ġflexi", "10751": "Ġridicul", "10752": "ĠME", "10753": "Ġstadium", "10754": "Ġ'", "10755": "Ġreduction", "10756": "Ġpresum", "10757": "ĠTurkish", "10758": "Ġeur", "10759": "Ġ9", "10760": "Ġ90", "10761": "Ġtole", "10762": "Ġgonna", "10763": "challenging", "10764": "ĠGian", "10765": "Ġfisc", "10766": "ĠTai", "10767": "ĠChai", "10768": "ĠMexica", "10769": "Ġplug", "10770": "Ġaccounta", "10771": "ĠManches", "10772": "ĠDiego", "10773": "Ġproportion", "10774": "ĠReview", "10775": "Ġtoler", "10776": "ĠManchest", "10777": "ĠMancheste", "10778": "ĠManchester", "10779": "Ġfarmers", "10780": "Ġinevitabl", "10781": "Ġspectr", "10782": "Ġlia", "10783": "Ġbarel", "10784": "Ġteamm", "10785": "ĠJason", "10786": "Ġbarely", "10787": "Ġteamma", "10788": "Ġtolera", "10789": "Ġteammat", "10790": "ĠDoe", "10791": "Ġteammate", "10792": "Ġvital", "10793": "Ġstructures", "10794": "Ġsalt", "10795": "Ġflee", "10796": "Ġloos", "10797": "Ġcontained", "10798": "Ġhypoth", "10799": "ĠCuba", "10800": "ĠBibl", "10801": "ĠMatth", "10802": "ĠReut", "10803": "ĠDol", "10804": "Ġflexib", "10805": "Ġfisca", "10806": "Ġdispa", "10807": "ĠWI", "10808": "ĠHarri", "10809": "Ġpersi", "10810": "Ġdelivery", "10811": "tono", "10812": "Ġfiscal", "10813": "Ġbegu", "10814": "eption", "10815": "Ġprocessing", "10816": "Ġincent", "10817": "Ġdiscrimination", "10818": "Ġreliabl", "10819": "Ġunclea", "10820": "ĠIndep", "10821": "Ġswor", "10822": "ĠUC", "10823": "ĠIndepe", "10824": "Ġshell", "10825": "ĠIndepen", "10826": "Ġveri", "10827": "ĠIndepend", "10828": "Ġincenti", "10829": "corporations", "10830": "ĠMassac", "10831": "Ġincentiv", "10832": "Ġpraye", "10833": "ĠMexican", "10834": "front", "10835": "ĠVanc", "10836": "Ġslide", "10837": "Ġslip", "10838": "Ġstup", "10839": "coins", "10840": "Ġamendm", "10841": "Ġamendme", "10842": "Ġamendmen", "10843": "Ġamendment", "10844": "ĠOm", "10845": "ĠAuto", "10846": "Ġangl", "10847": "ĠPerh", "10848": "ĠDor", "10849": "ĠReute", "10850": "Ġspark", "10851": "ĠBry", "10852": "Ġliqui", "10853": "Ġwine", "10854": "ĠPerha", "10855": "Ġdicta", "10856": "ĠOK", "10857": "ĠPs", "10858": "ĠMuse", "10859": "Ġfen", "10860": "ĠReuter", "10861": "Ġsop", "10862": "ĠTab", "10863": "ĠPerhap", "10864": "ĠPerhaps", "10865": "ĠMun", "10866": "ĠIndepende", "10867": "ĠIndependen", "10868": "eaning", "10869": "Ġshak", "10870": "ĠEducation", "10871": "Ġchallenging", "10872": "ĠBir", "10873": "Ġproven", "10874": "Ġrestrictions", "10875": "roving", "10876": "Ġdistu", "10877": "Ġforev", "10878": "ĠLen", "10879": "rong", "10880": "Ġbullet", "10881": "Ġforeve", "10882": "Ġforever", "10883": "Ġfilte", "10884": "Ġfilter", "10885": "overing", "10886": "ĠLim", "10887": "Ġeduca", "10888": "Ġhitting", "10889": "Ġeuro", "10890": "Ġdistur", "10891": "Ġunex", "10892": "ĠBridg", "10893": "Ġsacrif", "10894": "ĠDeb", "10895": "Ġsacrifi", "10896": "Ġdictat", "10897": "Ġpreva", "10898": "Ġreviews", "10899": "Ġsoi", "10900": "ĠLitt", "10901": "Ġconvicte", "10902": "Ġconvicted", "10903": "Ġstal", "10904": "Ġretired", "10905": "Ġblocke", "10906": "Ġindicated", "10907": "ĠAllen", "10908": "Ġsumma", "10909": "Ġrecognition", "10910": "Ġproducing", "10911": "ĠCiti", "10912": "Ġequall", "10913": "ĠAbout", "10914": "Ġrapidl", "10915": "Ġrapidly", "10916": "ĠHarry", "10917": "Ġdono", "10918": "Ġpropaga", "10919": "Ġpreserve", "10920": "Ġcorporations", "10921": "Ġlistening", "10922": "ĠSquar", "10923": "ĠChristians", "10924": "ĠNam", "10925": "ĠNAT", "10926": "Ġtablet", "10927": "ĠReuters", "10928": "ĠUFC", "10929": "Ġrebo", "10930": "ĠSquare", "10931": "Ġtransgend", "10932": "Ġtransgende", "10933": "Ġtransgender", "10934": "ĠBeac", "10935": "ptain", "10936": "aptain", "10937": "Ġeducat", "10938": "Ġdonor", "10939": "Ġbegun", "10940": "ĠHard", "10941": "ĠRh", "10942": "ĠBeach", "10943": "Ġari", "10944": "ĠAnti", "10945": "tring", "10946": "Ġthor", "10947": "Ġdialo", "10948": "Ġconspirac", "10949": "ĠPag", "10950": "Ġneck", "10951": "ĠContinue", "10952": "Ġseize", "10953": "Ġpartia", "10954": "Ġassociation", "10955": "Ġ54", "10956": "Ġdialog", "10957": "Ġpartial", "10958": "ĠBridge", "10959": "Ġattache", "10960": "doned", "10961": "Ġasks", "10962": "ĠCrim", "10963": "Ġforgo", "10964": "Ġwebsites", "10965": "infor", "10966": "ĠCirc", "10967": "Ġsegm", "10968": "Ġdescription", "10969": "Ġtickets", "10970": "ĠFurt", "10971": "Ġpassa", "10972": "Ġech", "10973": "ĠNeve", "10974": "Ġsuggesting", "10975": "Ġlandscap", "10976": "ĠSO", "10977": "Ġly", "10978": "Ġlandscape", "10979": "ĠDesi", "10980": "Ġfantast", "10981": "Ġfantasti", "10982": "onnel", "10983": "Ġreaching", "10984": "Ġmigran", "10985": "lone", "10986": "ĠFoll", "10987": "Ġsau", "10988": "Ġhardl", "10989": "Ġfrag", "10990": "ĠPenns", "10991": "Ġmigrant", "10992": "Ġelectora", "10993": "Ġburd", "10994": "Ġsegme", "10995": "Ġsegmen", "10996": "Ġfantastic", "10997": "Ġequally", "10998": "Ġfrequenc", "10999": "ĠWalke", "11000": "Ġhardly", "11001": "Ġperpet", "11002": "Ġwidesp", "11003": "Ġsegment", "11004": "Ġwidespr", "11005": "Ġwidespre", "11006": "Ġwidesprea", "11007": "Ġwidespread", "11008": "ĠABC", "11009": "Ġsummar", "11010": "ĠHear", "11011": "Ġunclear", "11012": "ĠChap", "11013": "Ġgrass", "11014": "Ġpill", "11015": "Ġsensitive", "11016": "Ġpersis", "11017": "Ġpersist", "11018": "Ġshir", "11019": "ĠPennsy", "11020": "Ġangle", "11021": "Ġnormall", "11022": "Ġinvolvem", "11023": "Ġinvolveme", "11024": "Ġinvolvemen", "11025": "onnell", "11026": "Ġinvolvement", "11027": "Ġnormally", "11028": "ĠHosp", "11029": "ĠFurth", "11030": "Ġeld", "11031": "ĠHoo", "11032": "Ġsteal", "11033": "ĠPennsyl", "11034": "ĠCore", "11035": "ĠIntelli", "11036": "ĠPennsylv", "11037": "Ġscores", "11038": "ĠPennsylva", "11039": "ĠPennsylvan", "11040": "ĠFel", "11041": "ruction", "11042": "Ġrend", "11043": "ĠPennsylvani", "11044": "Ġwelf", "11045": "Ġwelfa", "11046": "Ġwelfar", "11047": "ĠPennsylvania", "11048": "Ġreducing", "11049": "Ġbroade", "11050": "Ġfriendly", "11051": "ĠNext", "11052": "ĠHD", "11053": "ĠStad", "11054": "ĠIv", "11055": "Ġrespectivel", "11056": "ĠPap", "11057": "ĠBad", "11058": "Ġrespectively", "11059": "Ġexem", "11060": "ĠHospi", "11061": "Ġincu", "11062": "ĠFreed",
[...]
