{"vocab": {"0": "Ā", "1": "ā", "2": "Ă", "3": "ă", "4": "Ą", "5": "ą", "6": "Ć", "7": "ć", "8": "Ĉ", "9": "ĉ", "10": "Ċ", "11": "ċ", "12": "Č", "13": "č", "14": "Ď", "15": "ď", "16": "Đ", "17": "đ", "18": "Ē", "19": "ē", "20": "Ĕ", "21": "ĕ", "22": "Ė", "23": "ė", "24": "Ę", "25": "ę", "26": "Ě", "27": "ě", "28": "Ĝ", "29": "ĝ", "30": "Ğ", "31": "ğ", "32": "Ġ", "33": "!", "34": "\"", "35": "#", "36": "$", "37": "%", "38": "&", "39": "'", "40": "(", "41": ")", "42": "*", "43": "+", "44": ",", "45": "-", "46": ".", "47": "/", "48": "0", "49": "1", "50": "2", "51": "3", "52": "4", "53": "5", "54": "6", "55": "7", "56": "8", "57": "9", "58": ":", "59": ";", "60": "<", "61": "=", "62": ">", "63": "?", "64": "@", "65": "A", "66": "B", "67": "C", "68": "D", "69": "E", "70": "F", "71": "G", "72": "H", "73": "I", "74": "J", "75": "K", "76": "L", "77": "M", "78": "N", "79": "O", "80": "P", "81": "Q", "82": "R", "83": "S", "84": "T", "85": "U", "86": "V", "87": "W", "88": "X", "89": "Y", "90": "Z", "91": "[", "92": "\\", "93": "]", "94": "^", "95": "_", "96": "`", "97": "a", "98": "b", "99": "c", "100": "d", "101": "e", "102": "f", "103": "g", "104": "h", "105": "i", "106": "j", "107": "k", "108": "l", "109": "m", "110": "n", "111": "o", "112": "p", "113": "q", "114": "r", "115": "s", "116": "t", "117": "u", "118": "v", "119": "w", "120": "x", "121": "y", "122": "z", "123": "{", "124": "|", "125": "}", "126": "~", "127": "ġ", "128": "Ģ", "129": "ģ", "130": "Ĥ", "131": "ĥ", "132": "Ħ", "133": "ħ", "134": "Ĩ", "135": "ĩ", "136": "Ī", "137": "ī", "138": "Ĭ", "139": "ĭ", "140": "Į", "141": "į", "142": "İ", "143": "ı", "144": "Ĳ", "145": "ĳ", "146": "Ĵ", "147": "ĵ", "148": "Ķ", "149": "ķ", "150": "ĸ", "151": "Ĺ", "152": "ĺ", "153": "Ļ", "154": "ļ", "155": "Ľ", "156": "ľ", "157": "Ŀ", "158": "ŀ", "159": "Ł", "160": "ł", "161": "¡", "162": "¢", "163": "£", "164": "¤", "165": "¥", "166": "¦", "167": "§", "168": "¨", "169": "©", "170": "ª", "171": "«", "172": "¬", "173": "Ń", "174": "®", "175": "¯", "176": "°", "177": "±", "178": "²", "179": "³", "180": "´", "181": "µ", "182": "¶", "183": "·", "184": "¸", "185": "¹", "186": "º", "187": "»", "188": "¼", "189": "½", "190": "¾", "191": "¿", "192": "À", "193": "Á", "194": "Â", "195": "Ã", "196": "Ä", "197": "Å", "198": "Æ", "199": "Ç", "200": "È", "201": "É", "202": "Ê", "203": "Ë", "204": "Ì", "205": "Í", "206": "Î", "207": "Ï", "208": "Ð", "209": "Ñ", "210": "Ò", "211": "Ó", "212": "Ô", "213": "Õ", "214": "Ö", "215": "×", "216": "Ø", "217": "Ù", "218": "Ú", "219": "Û", "220": "Ü", "221": "Ý", "222": "Þ", "223": "ß", "224": "à", "225": "á", "226": "â", "227": "ã", "228": "ä", "229": "å", "230": "æ", "231": "ç", "232": "è", "233": "é", "234": "ê", "235": "ë", "236": "ì", "237": "í", "238": "î", "239": "ï", "240": "ð", "241": "ñ", "242": "ò", "243": "ó", "244": "ô", "245": "õ", "246": "ö", "247": "÷", "248": "ø", "249": "ù", "250": "ú", "251": "û", "252": "ü", "253": "ý", "254": "þ", "255": "ÿ", "256": "<|endoftext|>", "257": "Ġt", "258": "he", "259": "Ġa", "260": "Ġs", "261": "nd", "262": "Ġw", "263": "Ġthe", "264": "ed", "265": "Ġb", "266": "Ġto", "267": "Ġand", "268": "Ġh", "269": "Ġf", "270": "in", "271": "ĠT", "272": "Ġwa", "273": "re", "274": "it", "275": "ou", "276": "Ġl", "277": "Ġd", "278": "Ġc", "279": "Ġp", "280": "ay", "281": "Ġm", "282": "er", "283": "Ġwas", "284": "om", "285": "ĠThe", "286": "Ġhe", "287": "is", "288": "ar", "289": "Ġn", "290": "on", "291": "im", "292": "Ġsa", "293": "id", "294": "ll", "295": "Ġha", "296": "Ġg", "297": "at", "298": "ing", "299": "ĠS", "300": "ot", "301": "en", "302": "an", "303": "le", "304": "or", "305": "end", "306": "ir", "307": "of", "308": "am", "309": "et", "310": "ĠH", "311": "Ġit", "312": "Ġth", "313": "ig", "314": "ĠThey", "315": "il", "316": "Ġin", "317": "Ġpl", "318": "ĠHe", "319": "Ġ\"", "320": "ow", "321": "ver", "322": "ri", "323": "ut", "324": "Ġbe", "325": "Ġu", "326": "Ġsaid", "327": "Ġplay", "328": "ith", "329": "Ġwith", "330": "Ġday", "331": "pp", "332": "On", "333": "Ġy", "334": "oo", "335": "ked", "336": "Ġr", "337": "Ġher", "338": "ex", "339": "ce", "340": "ĠI", "341": "ĠShe", "342": "ld", "343": "Ġhis", "344": "ĠTim", "345": "Ġst", "346": "ke", "347": "Ġbig", "348": "ck", "349": "Ġyou", "350": "nt", "351": "very", "352": "st", "353": "ve", "354": "Ġon", "355": "Ġhapp", "356": "un", "357": "riend", "358": "Ġfriend", "359": "all", "360": "ily", "361": "ĠL", "362": "ext", "363": "Ġthey", "364": "oft", "365": "Ġhad", "366": "Ġwe", "367": "Ġnot", "368": "Ġli", "369": "Ġup", "370": "her", "371": "Ġwant", "372": "Ġof", "373": "ad", "374": "itt", "375": "|>", "376": "oftext", "377": "endoftext", "378": "<|", "379": "se", "380": "ĠB", "381": "Ġdo", "382": "Ġe", "383": "Ġhappy", "384": "ent", "385": "Ġvery", "386": "ĠM", "387": "Ġthat", "388": "es", "389": "Ġsaw", "390": "One", "391": "'s", "392": "ould", "393": "Ġmom", "394": "Ġfor", "395": "Ġsh", "396": "ittle", "397": "Ġlittle", "398": "Ġshe", "399": "ime", "400": "ch", "401": "Ġnam", "402": "Ġtime", "403": ".\"", "404": "Ġk", "405": "Ġso", "406": "ound", "407": "Ġthere", "408": "Ġnamed", "409": "Ġsm", "410": "Ġbo", "411": "ĠLily", "412": "Ġwere", "413": "Ġne", "414": "Ġwanted", "415": "Ġbut", "416": "out", "417": "The", "418": "Ġfriends", "419": "ved", "420": "!\"", "421": "ird", "422": "ht", "423": "ĠTom", "424": "Ġbird", "425": "el", "426": "Ġan", "427": "ake", "428": "al", "429": "ug", "430": "ome", "431": "Ġtoo", "432": "ĠIt", "433": "ide", "434": "Ġwent", "435": "Ġwh", "436": "Ġhel", "437": "Once", "438": "Ġis", "439": "Ġall", "440": "Ġhelp", "441": "ue", "442": "Ġlo", "443": "Ġloo", "444": "ter", "445": "Ġupon", "446": "ĠA", "447": "ry", "448": "ore", "449": "ill", "450": "ind", "451": "Ġfun", "452": "get", "453": "Ġtoy", "454": "ame", "455": "Ġas", "456": "Ġat", "457": "Ġj", "458": "Ġdid", "459": "Ġre", "460": "ack", "461": "gether", "462": "ur", "463": "Ġo", "464": "Ġse", "465": "Ġtogether", "466": "ra", "467": "Ġcat", "468": "Ġtre", "469": "ly", "470": "ood", "471": "ted", "472": "ic", "473": "Ġdog", "474": "Ġcan", "475": "Ġcould", "476": "Ġtheir", "477": "ard", "478": "ark", "479": "ec", "480": "irl", "481": "Ġhim", "482": "?\"", "483": "Ġplayed", "484": "Ġball", "485": "Ġgirl", "486": "way", "487": "Ġgo", "488": "Ġro", "489": "hed", "490": "Ġare", "491": "my", "492": "Ġle", "493": "Ġfr", "494": "Ġout", "495": "um", "496": "'t", "497": "ain", "498": "Ġkn", "499": "hen", "500": "Ġthem", "501": "Ġsad", "502": "ax", "503": "ul", "504": "Ġboy", "505": "Ġtree", "506": "other", "507": "Ġhave", "508": "Ġman", "509": "Ġloved", "510": "Ġcl", "511": "Ġlooked", "512": "oug", "513": "Ġfound", "514": "Ġsp", "515": "Ġstar", "516": "one", "517": "hing", "518": "Ġsc", "519": "Ġback", "520": "ĠSue", "521": "own", "522": "ĠMax", "523": "are", "524": "Ġlike", "525": "Ġme", "526": "ful", "527": "side", "528": "Ġbec", "529": "Ġpark", "530": "ong", "531": "Ġcar", "532": "ight", "533": "elt", "534": "ĠOne", "535": "Ġwould", "536": "op", "537": "Ġla", "538": "Ġliked", "539": "round", "540": "Ġfa", "541": "Ġmake", "542": "You", "543": "Ġfelt", "544": "ĠW", "545": "ĠBut", "546": "omet", "547": "ell", "548": "Ġsee", "549": "Ġasked", "550": "ĠSam", "551": "Ġno", "552": "ice", "553": "ag", "554": "ouse", "555": "ared", "556": "Ġnew", "557": "Ġcame", "558": "Ġstarted", "559": "Ġother", "560": "Ġal", "561": "ĠBen", "562": "ought", "563": "iled", "564": "Ġsomet", "565": "Ġag", "566": "Ġsmall", "567": "Ġgood", "568": "Ġbr", "569": "Ġsay", "570": "ried", "571": "ings", "572": "ob", "573": "Ġsmiled", "574": "ss", "575": "ade", "576": "pot", "577": "Ġwor", "578": "Ġfind", "579": "Ġaway", "580": "Ġsomething", "581": "Ġput", "582": "Ġmade", "583": "ia", "584": "Ġex", "585": "Ġwhat", "586": "ty", "587": "Ġfrom", "588": "Ġhome", "589": "Ġplaying", "590": "ened", "591": "Ġthought", "592": "Ġco", "593": "ook", "594": "Ġmu", "595": "Ġevery", "596": "uc", "597": "ach", "598": "Ġwal", "599": "ĠSpot", "600": "arn", "601": "ile", "602": "Ġran", "603": "ĠF", "604": "ave", "605": "ĠJ", "606": "Ġsome", "607": "Ġagain", "608": "Ġlaug", "609": "Ġfl", "610": "Ġhouse", "611": "Ġdown", "612": "ie", "613": "Ġscared", "614": "king", "615": "dd", "616": "Ġpr", "617": "ĠYou", "618": "Ġtook", "619": "Ġlearn", "620": "ure", "621": "Ġtoys", "622": "Ġwill", "623": "ick", "624": "ny", "625": "if", "626": "ret", "627": "ish", "628": "Ġbox", "629": "Ġaround", "630": "Ġyour", "631": "Ġthings", "632": "ab", "633": "Ġbl", "634": "Ġmy", "635": "ep", "636": "Ġwhen", "637": "oud", "638": "Ġlived", "639": "uck", "640": "Ġfe", "641": "Ġthen", "642": "Ġsw", "643": "Ġsun", "644": ",\"", "645": "pped", "646": "Ġch", "647": "ĠMia", "648": "Ġab", "649": "as", "650": "ank", "651": "ump", "652": "ucy", "653": "us", "654": "ist", "655": "Ġget", "656": "Tim", "657": "Th", "658": "Ġlot", "659": "Ġsays", "660": "Ġtried", "661": "oth", "662": "Ġgot", "663": "ust", "664": "ited", "665": "ap", "666": "Ġkne", "667": "Ġknow", "668": "Ġwho", "669": "Ġmany", "670": "Ġint", "671": "nder", "672": "Lily", "673": "ive", "674": "Ġpret", "675": "Ġabout", "676": "Ġany", "677": "Ġdec", "678": "Ġred", "679": "ace", "680": "ĠD", "681": "Ġknew", "682": "ous", "683": "Ġmore", "684": "ise", "685": "ally", "686": "Ġv", "687": "Ġcare", "688": "qu", "689": "ĠLucy", "690": "Ġpo", "691": "Ġhug", "692": "Ġpic", "693": "Ġwater", "694": "use", "695": "Ġlearned", "696": "Ġbest", "697": "Ġbecame", "698": "fter", "699": "ause", "700": "Ġgre", "701": "ways", "702": "ĠBob", "703": "Ġexc", "704": "Ġlaughed", "705": "Ġun", "706": "Ġop", "707": "ers", "708": "Ġalways", "709": "Ġoutside", "710": "urp", "711": "Ġlook", "712": "ant", "713": "Ġho", "714": "Ġshow", "715": "Ġinto", "716": "ided", "717": "ite", "718": "Ġjump", "719": "Ġbecause", "720": "ĠSo", "721": "Ġdecided", "722": "Ġroom", "723": "fe", "724": "Ġeat", "725": "ĠAnd", "726": "Ġpe", "727": "Ġdad", "728": "Ġboth", "729": "They", "730": "Ġke", "731": "udd", "732": "Ġone", "733": "ĠMom", "734": "Ġthis", "735": "Ġfast", "736": "Tom", "737": "Ġrun", "738": "Yes", "739": "Ġexcited", "740": "Ġnice", "741": "Ġfeel", "742": "ĠE", "743": "Ġtr", "744": "Ġlong", "745": "Ġam", "746": "Ġsk", "747": "Ġtold", "748": "our", "749": "ink", "750": "urpr", "751": "iny", "752": "Ġinside", "753": "ull", "754": "Ġpretty", "755": "Ġsurpr", "756": "nn", "757": "Ġmo", "758": "Ġsor", "759": "Ġsl", "760": "Ġtake", "761": "ara", "762": "Wh", "763": "og", "764": "Ġeach", "765": "lew", "766": "Ġgave", "767": "Ġstr", "768": "imal", "769": "Ġgra", "770": "Ġmuch", "771": "Ġanimal", "772": "Ġrock", "773": "ged", "774": "Ġhow", "775": "Ġneed", "776": "Ġtow", "777": "ven", "778": "Ġthan", "779": "nna", "780": "But", "781": "ĠC", "782": "etter", "783": "Ġor", "784": "Ġsorry", "785": "ess", "786": "Ġunder", "787": "Ġfish", "788": "Ġold", "789": "ised", "790": "urt", "791": "and", "792": "Ġbear", "793": "Ġwalked", "794": "Ġcle", "795": "ast", "796": "ase", "797": "Ġclo", "798": "urn", "799": "Ġhand", "800": "ĠWe", "801": "Ġkind", "802": "ge", "803": "Ġflow", "804": "Ġjust", "805": "ro", "806": "ĠHis", "807": "Ġhappened", "808": "Ġte", "809": "Ġfood", "810": "Ġdidn", "811": "here", "812": "Ġhig", "813": "Ġanimals", "814": "Ġsn", "815": "Ġlist", "816": "Ġtry", "817": "rom", "818": "ine", "819": "Ġnear", "820": "Ġsky", "821": "ched", "822": "Ġide", "823": "ving", "824": "ĠAmy", "825": "Ġfi", "826": "Ġus", "827": "Ġits", "828": "Ġbetter", "829": "Ġidea", "830": "Ġwat", "831": "gry", "832": "pec", "833": "pl", "834": "Ġtw", "835": "Ġheard", "836": "Ġbug", "837": "ate", "838": "ion", "839": "Ġlet", "840": "able", "841": "Ġen", "842": "ff", "843": "Ġstor", "844": "Ġcareful", "845": "Thank", "846": "Ġshare", "847": "Ġif", "848": "Ġcom", "849": "Ġflew", "850": "ĠTh", "851": "more", "852": "Ġanymore", "853": "Ġfly", "854": "ial", "855": "ber", "856": "Mom", "857": "Ġlots", "858": "Ġspec", "859": "lf", "860": "Ġnever", "861": "Ġspecial", "862": "Ġby", "863": "ream", "864": "ort", "865": "Ġbu", "866": "Ġfo", "867": "Ġwind", "868": "Ġdon", "869": "Ġdan", "870": "Ġgr", "871": "Ġclean", "872": "Ġlove", "873": "Ġeven", "874": "Ġtal", "875": "Ġshiny", "876": "Ġhard", "877": "Ġend", "878": "ĠThen", "879": "ĊĊ", "880": "ople", "881": "Ġbook", "882": "rm", "883": "Ġover", "884": "Ġfore", "885": "udden", "886": "Ġturn", "887": "Ġfam", "888": "Ġcol", "889": "Ġmag", "890": "Ġbad", "891": "Ġsafe", "892": "ady", "893": "Ġproud", "894": "pected", "895": "ak", "896": "Ġcake", "897": "Ġafter", "898": "ĠEvery", "899": "uddenly", "900": "Ġpicked", "901": "Ġgl", "902": "Ġhigh", "903": "Ġhurt", "904": "imb", "905": "Ġcu", "906": "Ġpeople", "907": "Ġcome", "908": "ble", "909": "expected", "910": "Ġunexpected", "911": "Ġsurprised", "912": "Ġground", "913": "Ġclimb", "914": "Ġim", "915": "arden", "916": "Let", "917": "Ġgarden", "918": "Ġloud", "919": "Ġdoor", "920": "Ġopened", "921": "ĠAnna", "922": "Ġgive", "923": "ild", "924": "Ġway", "925": "Ġstill", "926": "As", "927": "Ġblue", "928": "ĠSara", "929": "ĠFrom", "930": "ail", "931": "Ġche", "932": "Ġcolor", "933": "'m", "934": "Ġthanked", "935": "Ġhugged", "936": "age", "937": "ĠHer", "938": "Ġever", "939": "ough", "940": "Ġoff", "941": "No", "942": "ĠWhen", "943": "Ġcall", "944": "Ġfar", "945": "uff", "946": "Ġjumped", "947": "iz", "948": "Ġfamily", "949": "ummy", "950": "hes", "951": "ip", "952": "Ġshould", "953": "Ġpar", "954": "Ġmagic", "955": "Ġsmile", "956": "ĠK", "957": "ĠIn", "958": "kay", "959": "ool", "960": "Ġkid", "961": "Ġqu", "962": "Ġplace", "963": "Ġgreat", "964": "Ġunt", "965": "Ġnow", "966": "Ġstrong", "967": "em", "968": "Ġstay", "969": "Ġboat", "970": "Ġfrog", "971": "aut", "972": "Ġwalk", "973": "ct", "974": "Ġuntil", "975": "ane", "976": "Ġforest", "977": "Ġbro", "978": "Ġbeaut", "979": "Ġsto", "980": "ture", "981": "oon", "982": "Ġstick", "983": "lease", "984": "Ġsqu", "985": "ĠP", "986": "Ġnext", "987": "Ġbra", "988": "itty", "989": "ies", "990": "ning", "991": "aking", "992": "Ġhappily", "993": "iful", "994": "Ġbeautiful", "995": "Ġlisten", "996": "Ġstory", "997": "dy", "998": "Ġimp", "999": "Ġhelped", "1000": "unny", "1001": "Ġkids", "1002": "rel", "1003": "Ġshowed", "1004": "Ġclos", "1005": "Ġwhile", "1006": "ress", "1007": "pt", "1008": "ree", "1009": "Ġdra", "1010": "by", "1011": "Ġtown", "1012": "Ġapp", "1013": "ary", "1014": "Ġeveryone", "1015": "Ġrem", "1016": "oy", "1017": "Ġmor", "1018": "Ġbeing", "1019": "Ġrain", "1020": "Ġad", "1021": "Ġmet", "1022": "It", "1023": "Ġpicture", "1024": "He", "1025": "Ġgame", "1026": "Now", "1027": "uffy", "1028": "Ġcalled", "1029": "Can", "1030": "ĠWh", "1031": "ger", "1032": "Ġkeep", "1033": "ĠSally", "1034": "Ġstopped", "1035": "Ġangry", "1036": "Ġhat", "1037": "Ġwo", "1038": "th", "1039": "be", "1040": "Ġdoll", "1041": "ĠLet", "1042": "Ġsoft", "1043": "Ġcry", "1044": "Ġlost", "1045": "When", "1046": "Ġwarm", "1047": "Ġyummy", "1048": "ished", "1049": "Ġmouse", "1050": "Ġde", "1051": "fore", "1052": "vent", "1053": "Ġopen", "1054": "Ġate", "1055": "Ġleave", "1056": "Ġhole", "1057": "bit", "1058": "Ġtruck", "1059": "Ġbrave", "1060": "Ġals", "1061": "Ġalso", "1062": "Ġbed", "1063": "Ġcouldn", "1064": "Ġflowers", "1065": "iss", "1066": "abbit", "1067": "Ġfell", "1068": "Ġtra", "1069": "Ġgreen", "1070": "Ġface", "1071": "dded", "1072": "Ġnoise", "1073": "irst", "1074": "ĠKitty", "1075": "Ġslide", "1076": "gan", "1077": "Ġtwo", "1078": "What", "1079": "Ġsoon", "1080": "ĠFl", "1081": "Ġwatch", "1082": "self", "1083": "Ġrabbit", "1084": "ock", "1085": "az", "1086": "illy", "1087": "owl", "1088": "Ġpa", "1089": "Ġwhere", "1090": "irrel", "1091": "Ġbefore", "1092": "ear", "1093": "ĠR", "1094": "les", "1095": "ired", "1096": "Ġkept", "1097": "Ġhear", "1098": "That", "1099": "Ġsat", "1100": "Then", "1101": "Ġpus", "1102": "Ġuse", "1103": "Ġsquirrel", "1104": "Ġstore", "1105": "uit", "1106": "Ġbirds", "1107": "Ġnodded", "1108": "Ġhands", "1109": "Ġsing", "1110": "Ġgoing", "1111": "Hi", "1112": "Look", "1113": "aug", "1114": "Ġfunny", "1115": "aught", "1116": "Ġey", "1117": "uch", "1118": "ĠG", "1119": "Ġthink", "1120": "Ġexpl", "1121": "ĠFluffy", "1122": "day", "1123": "Ġhaving", "1124": "Ġfin", "1125": "Ġcook", "1126": "ub", "1127": "ĠCan", "1128": "Ġfix", "1129": "Ġcatch", "1130": "aybe", "1131": "Ġpain", "1132": "Ġlooking", "1133": "leep", "1134": "Ġtired", "1135": "Ġbre", "1136": "Ben", "1137": "Ġpull", "1138": "ting", "1139": "thing", "1140": "Ġwork", "1141": "Ġbunny", "1142": "air", "1143": "Ġyell", "1144": "Ġwr", "1145": "ember", "1146": "Ġused", "1147": "Ġsound", "1148": "Ġmean", "1149": "ĠNow", "1150": "Ġothers", "1151": "Ġthr", "1152": "Ġjo", "1153": "Ġour", "1154": "ange", "1155": "Ġdr", "1156": "Ġbus", "1157": "Ġpond", "1158": "Ġbeh", "1159": "Ġwait", "1160": "Ġhas", "1161": "Ġsunny", "1162": "Ġreal", "1163": "We", "1164": "Ġask", "1165": "Ġkit", "1166": "ath", "1167": "Ġmommy", "1168": "Ġeyes", "1169": "Ġflo", "1170": "ĠJo", "1171": "Ġimport", "1172": "Ġfirst", "1173": "Ġpie", "1174": "ello", "1175": "Ġremember", "1176": "Ġhead", "1177": "led", "1178": "Ġparty", "1179": "Hello", "1180": "Ġdif", "1181": "Ġswe", "1182": "Ġtalk", "1183": "Ġflower", "1184": "Ġfav", "1185": "Ġtri", "1186": "Ġcon", "1187": "chen", "1188": "orn", "1189": "Ġkitchen", "1190": "Ġright", "1191": "Ġz", "1192": "Ġmess", "1193": "zy", "1194": "Ġsand", "1195": "ma", "1196": "Ġimportant", "1197": "Ġcold", "1198": "Ġrace", "1199": "ĠDo", "1200": "ious", "1201": "Ġvo", "1202": "joy", "1203": "Ġmoral", "1204": "Ġcuri", "1205": "ded", "1206": "ft", "1207": "rew", "1208": "Ġri", "1209": "Ġice", "1210": "llow", "1211": "Ġshared", "1212": "ĠJack", "1213": "ount", "1214": "Ġokay", "1215": "Ġtall", "1216": "Ġduck", "1217": "Ġmaking", "1218": "imes", "1219": "Ġadvent", "1220": "Ġworked", "1221": "ĠâĢľ", "1222": "Ġcurious", "1223": "Ġhill", "1224": "Ġdress", "1225": "reed", "1226": "At", "1227": "Ġbright", "1228": "Ġhop", "1229": "Ġhid", "1230": "Ġown", "1231": "Ġbegan", "1232": "ect", "1233": "Ġfavor", "1234": "hn", "1235": "Ġenjoy", "1236": "bed", "1237": "Ġfavorite", "1238": "Ġdis", "1239": "Ġrest", "1240": "Ġcra", "1241": "Ġcr", "1242": "Don", "1243": "Ġmon", "1244": "Ġdir", "1245": "Ġbag", "1246": "Ġcla", "1247": "Ġthing", "1248": "Wow", "1249": "Ġyard", "1250": "Ġfollow", "1251": "Ġsleep", "1252": "que", "1253": "Ġhere", "1254": "Ġnight", "1255": "ĠFin", "1256": "Ġtell", "1257": "Ġcut", "1258": "Ġbel", "1259": "Ġpick", "1260": "ied", "1261": "ede", "1262": "Ġagreed", "1263": "Ġstop", "1264": "Ġblock", "1265": "ster", "1266": "Ġdark", "1267": "Ġwatched", "1268": "Ġmove", "1269": "Ġhun", "1270": "Ġdraw", "1271": "Ġhot", "1272": "aper", "1273": "ĠThis", "1274": "Ġbehind", "1275": "Ġgrab", "1276": "Ġtop", "1277": "Ġsurprise", "1278": "lly", "1279": "Ġplease", "1280": "Ġtrees", "1281": "ac", "1282": "Ġtable", "1283": "Ġworry", "1284": "Ġleaves", "1285": "Ġlion", "1286": "Ġbutter", "1287": "Ġvoice", "1288": "fere", "1289": "Ġgrass", "1290": "Ġsweet", "1291": "Ġsho", "1292": "After", "1293": "Ġshout", "1294": "Ġwalking", "1295": "Ġdiffere", "1296": "Ġtail", "1297": "ign", "1298": "Ġread", "1299": "Ġfloor", "1300": "Ġneeded", "1301": "Ġforg", "1302": "Max", "1303": "Ġcolors", "1304": "Ġlady", "1305": "ĠDad", "1306": "Ġsong", "1307": "Ġcars", "1308": "Ġcried", "1309": "aring", "1310": "ike", "1311": "ĠMr", "1312": "Ġturned", "1313": "ered", "1314": "Sam", "1315": "Ġdel", "1316": "Ġhair", "1317": "Why", "1318": "Ġfarm", "1319": "Ġtast", "1320": "Ġcloser", "1321": "Ġlaugh", "1322": "Ġwood", "1323": "Ġpiece", "1324": "Ġdifferent", "1325": "Ġadventure", "1326": "Ġper", "1327": "Ġdoes", "1328": "ĠAs", "1329": "Ġroll", "1330": "Ġfire", "1331": "Ġfriendly", "1332": "isy", "1333": "Ġhungry", "1334": "Ġtouch", "1335": "Ġfruit", "1336": "Ġpaper", "1337": "ging", "1338": "ĠBobo", "1339": "Ġfeeling", "1340": "ĠSuddenly", "1341": "oom", "1342": "ken", "1343": "Ġprin", "1344": "Anna", "1345": "ppy", "1346": "Ġyellow", "1347": "Sue", "1348": "cked", "1349": "ila", "1350": "Ġready", "1351": "ached", "1352": "Ġfull", "1353": "Ġbroken", "1354": "Ġprom", "1355": "ndma", "1356": "ĠThat", "1357": "co", "1358": "ater", "1359": "Ġswing", "1360": "Ġwet", "1361": "Ġanother", "1362": "Ġpretend", "1363": "Ġclimbed", "1364": "Ġswim", "1365": "Sara", "1366": "Ġdance", "1367": "bye", "1368": "Ġrunning", "1369": "ient", "1370": "where", "1371": "Ġgone", "1372": "Ġonly", "1373": "Ġdanc", "1374": "Suddenly", "1375": "Ġlistened", "1376": "ĠJane", "1377": "Ġlight", "1378": "Ġclose", "1379": "Ġplan", "1380": "oney", "1381": "ĠTimmy", "1382": "Ġblocks", "1383": "bo", "1384": "Ġsees", "1385": "ĠAll", "1386": "Ġamaz", "1387": "Ġhold", "1388": "Ġcream", "1389": "ather", "1390": "Ġrepl", "1391": "Ġpu", "1392": "av", "1393": "Ġsmell", "1394": "Ġwonder", "1395": "ins", "1396": "Ġbutterf", "1397": "She", "1398": "Ġglad", "1399": "Ġreached", "1400": "Ġslow", "1401": "Ġhelping", "1402": "Ġmus", "1403": "red", "1404": "Ġac", "1405": "Ġdri", "1406": "So", "1407": "Ġmust", "1408": "Ġbeen", "1409": "Ġfight", "1410": "Ġfair", "1411": "aby", "1412": "Ġwall", "1413": "Mia", "1414": "Ġsnow", "1415": "Ġperf", "1416": "Ġpushed", "1417": "iced", "1418": "Ġcool", "1419": "Ġless", "1420": "Ġant", "1421": "ĠO", "1422": "Ġar", "1423": "Ġgoodbye", "1424": "Ġmoment", "1425": "Ġbuy", "1426": "Ġsit", "1427": "Ġdone", "1428": "Ġhide", "1429": "Ġbar", "1430": "Ġwished", "1431": "Ġstuck", "1432": "ash", "1433": "ĠEveryone", "1434": "Ġquick", "1435": "Ġcoming", "1436": "Ġwindow", "1437": "Ġthank", "1438": "Ġexplore", "1439": "Ġbit", "1440": "Ġwag", "1441": "key", "1442": "Ġtrying", "1443": "ames", "1444": "af", "1445": "ized", "1446": "Ġballoon", "1447": "Ġbuild", "1448": "Ġfall", "1449": "Ġscary", "1450": "Ġdin", "1451": "Ġmight", "1452": "Ġname", "1453": "Ġbran", "1454": "Ġdream", "1455": "Ġlooks", "1456": "Ġdirty", "1457": "Ġbaby", "1458": "Ġunderst", "1459": "ott", "1460": "Ġwhy", "1461": "icy", "1462": "Ġdoing", "1463": "Ġreach", "1464": "Ġbooks", "1465": "Ġcount", "1466": "Ġheld", "1467": "Ġchild", "1468": "Ġthree", "1469": "Ġste", "1470": "Ġleft", "1471": "ield", "1472": "avy", "1473": "Ġshouted", "1474": "Ġreplied", "1475": "Ġpulled", "1476": "Ġpink", "1477": "Ġbutterfly", "1478": "Ġplant", "1479": "Ġmat", "1480": "Ġmar", "1481": "ask", "1482": "Ġseen", "1483": "Ġapple", "1484": "Ġtiny", "1485": "Ġdro", "1486": "Ġgrow", "1487": "Ġthrough", "1488": "Ġnest", "1489": "Ġland", "1490": "Ġair", "1491": "Ġtrain", "1492": "Ġfill", "1493": "Ġwin", "1494": "In", "1495": "ely", "1496": "Ġsure", "1497": "ries", "1498": "Ġspl", "1499": "Ġchair", "1500": "outh", "1501": "Ġwoods", "1502": "Ġcre", "1503": "room", "1504": "Ġcup", "1505": "Ġtreat", "1506": "Ġremembered", "1507": "aisy", "1508": "Ġsometimes", "1509": "uddy", "1510": "art", "1511": "Ġmouth", "1512": "Okay", "1513": "Ġowl", "1514": "'re", "1515": "Ġclapped", "1516": "ĠThere", "1517": "ix", "1518": "Ġswam", "1519": "Ġgrabbed", "1520": "Ġwise", "1521": "Ġbigger", "1522": "Ġcolorful", "1523": "andy", "1524": "Ġclot", "1525": "ation", "1526": "Ġstayed", "1527": "Ġbrother", "1528": "Ġclothes", "1529": "Ġquickly", "1530": "Ġword", "1531": "Ġgames", "1532": "Ġcont", "1533": "Oh", "1534": "Ġjoin", "1535": "Ġwaited", "1536": "cle", "1537": "Ġlesson", "1538": "Ġblew", "1539": "man", "1540": "ucky", "1541": "This", "1542": "ower", "1543": "Ġjob", "1544": "ton", "1545": "Ġhopped", "1546": "Ġgent", "1547": "Ġwaved", "1548": "Ġbroke", "1549": "ĠAfter", "1550": "Ġbott", "1551": "Ġnoticed", "1552": "ĠMommy", "1553": "ud", "1554": "oup", "1555": "Ġanything", "1556": "Ġcloud", "1557": "Her", "1558": "Ġspot", "1559": "Ġtower", "1560": "Ġenjoyed", "1561": "Ġarm", "1562": "Ġworld", "1563": "Ġbike", "1564": "Ġset", "1565": "Ġheavy", "1566": "Ġturns", "1567": "Ġhimself", "1568": "Ġgif", "1569": "Ġalone", "1570": "Ġlikes", "1571": "Ġpaint", "1572": "Ġsea", "1573": "Ġpen", "1574": "Lucy", "1575": "Ġcast", "1576": "ph", "1577": "Ġcomp", "1578": "less", "1579": "Ġmiss", "1580": "Ġpictures", "1581": "Ġyear", "1582": "orm", "1583": "der", "1584": "Ġpot", "1585": "asure", "1586": "Ġmix", "1587": "Ġwon", "1588": "Bob", "1589": "ape", "1590": "Ġpat", "1591": "ĠBuddy", "1592": "Ġfollowed", "1593": "lc", "1594": "Ġride", "1595": "thy", "1596": "Ġwhite", "1597": "Ġeverywhere", "1598": "ini", "1599": "Ġthrew", "1600": "Ġwrong", "1601": "Ġbee", "1602": "Ġtight", "1603": "Jo", "1604": "ctor", "1605": "ves", "1606": "ĠWhat", "1607": "row", "1608": "amp", "1609": "nin", "1610": "Ġkey", "1611": "Ġmakes", "1612": "\".", "1613": "ren", "1614": "iet", "1615": "Ġwear", "1616": "Spot", "1617": "ingin", "1618": "arent", "1619": "Ġpol", "1620": "Ġbreak", "1621": "Ġquiet", "1622": "Ġdelic", "1623": "Ġem", "1624": "Ġmusic", "1625": "ued", "1626": "Ġje", "1627": "Ġblack", "1628": "Ġwants", "1629": "olly", "1630": "Ġparent", "1631": "Ġprince", "1632": "ang", "1633": "Ġdeep", "1634": "ars", "1635": "ner", "1636": "Ġforgot", "1637": "ully", "1638": "Ġleg", "1639": "Ġhit", "1640": "ance", "1641": "ĠJohn", "1642": "ister", "1643": "Ġnap", "1644": "Ġcastle", "1645": "Ġround", "1646": "itten", "1647": "rot", "1648": "Ġvis", "1649": "Ġunderstand", "1650": "Ġbranch", "1651": "Ġbor", "1652": "Ġve", "1653": "His", "1654": "Ġsharing", "1655": "Ġres", "1656": "Ġbrought", "1657": "ĠDaisy", "1658": "ĠLila", "1659": "Ġtalked", "1660": "Ġmum", "1661": "Ġdanced", "1662": "oun", "1663": "Ġbowl", "1664": "Ġleaf", "1665": "Ġdry", "1666": "fully", "1667": "Ġmonster", "1668": "From", "1669": "Ġfaster", "1670": "Ġrocks", "1671": "ards", "1672": "Ġperfect", "1673": "Ġfinished", "1674": "Ġsign", "1675": "ĠInside", "1676": "Ġside", "1677": "ĠTo", "1678": "Ġsomeone", "1679": "Ġhappen", "1680": "Ġriver", "1681": "Ġsmart", "1682": "zz", "1683": "ross", "1684": "ence", "1685": "Do", "1686": "Ġcow", "1687": "Ġreally", "1688": "Ġcookies", "1689": "Ġworried", "1690": "Ġking", "1691": "Ġbutton", "1692": "Ġfur", "1693": "Ġsec", "1694": "up", "1695": "John", "1696": "Ġcontin", "1697": "pper", "1698": "Ġpoin", "1699": "Ġsan", "1700": "Ġsister", "1701": "ĠSarah", "1702": "Ġfield", "1703": "Ġeverything", "1704": "While", "1705": "Ġbeach", "1706": "Ġrel", "1707": "Ġel", "1708": "cy", "1709": "Ġwell", "1710": "Ġele", "1711": "ĠAt", "1712": "ĠSoon", "1713": "Ġflying", "1714": "eddy", "1715": "Ġspr", "1716": "Ġdinner", "1717": "Ġrealized", "1718": "Ġsang", "1719": "Ġvisit", "1720": "Ġgift", "1721": "Ġdanger", "1722": "Ġtoday", "1723": "Ġfilled", "1724": "ĠMaybe", "1725": "Ġpig", "1726": "Ġsecret", "1727": "Ġsmiles", "1728": "ĠGra", "1729": "Ġque", "1730": "Ġelse", "1731": "ale", "1732": "Ġshin", "1733": "Ġfox", "1734": "os", "1735": "ated", "1736": "Ġsilly", "1737": "itting", "1738": "Ġfree", "1739": "Ġgu", "1740": "Ġwelc", "1741": "Ġdrag", "1742": "Ġpieces", "1743": "cket", "1744": "Ġstart", "1745": "Ġbite", "1746": "ĠJoe", "1747": "Ġpromised", "1748": "Ġwish", "1749": "ead", "1750": "iver", "1751": "Ġcontinued", "1752": "Ġgi", "1753": "Ġeating", "1754": "ĠEm", "1755": "ĠBilly", "1756": "Ġsnack", "1757": "Ġmud", "1758": "Ġpet", "1759": "Ġblank", "1760": "Ġpast", "1761": "Ġbath", "1762": "Ġparents", "1763": "Ġcrying", "1764": "Ġenough", "1765": "Just", "1766": "Ġju", "1767": "Amy", "1768": "ush", "1769": "imi", "1770": "Ġcarefully", "1771": "Ġchildren", "1772": "ĠCh", "1773": "Ġblanket", "1774": "bble", "1775": "Ġwords", "1776": "Ġrolled", "1777": "Ġbarked", "1778": "Ġlaughing", "1779": "Maybe", "1780": "Ġfairy", "1781": "Ġbottle", "1782": "stead", "1783": "gy", "1784": "Ġwithout", "1785": "pping", "1786": "Ġmoney", "1787": "Ġthrow", "1788": "pe", "1789": "ana", "1790": "ĠZ", "1791": "Ġamazing", "1792": "ses", "1793": "Ġdrink", "1794": "Ġsail", "1795": "ze", "1796": "isk", "1797": "Ġpudd", "1798": "ass", "1799": "Ġyes", "1800": "Ġmonkey", "1801": "Ġdoctor", "1802": "ord", "1803": "unch", "1804": "ich", "1805": "Ġgetting", "1806": "Ġpurp", "1807": "Ġorange", "1808": "Ġwagged", "1809": "chool", "1810": "Ġjar", "1811": "Ġdragon", "1812": "ĠLe", "1813": "Ġatt", "1814": "Fin", "1815": "ĠBl", "1816": "fort", "1817": "Ġsnake", "1818": "vel", "1819": "Ġsitting", "1820": "ire", "1821": "Ġcrab", "1822": "ises", "1823": "Ġlake", "1824": "Ġpurple", "1825": "Ġpaw", "1826": "Ġclosed", "1827": "althy", "1828": "Ġshop", "1829": "Ġschool", "1830": "used", "1831": "Ġpass", "1832": "Ġasks", "1833": "Ġgrandma", "1834": "Ġsmo", "1835": "Ġbrown", "1836": "Ġwhe", "1837": "Ġmail", "1838": "Ġcreat", "1839": "Ġshoes", "1840": "Ġwelcome", "1841": "Ġboun", "1842": "Ġdangerous", "1843": "Ġmoved", "1844": "Ġshining", "1845": "Ġmorning", "1846": "Ġhigher", "1847": "Ġwhist", "1848": "Ġra", "1849": "Ġmother", "1850": "Ġcaught", "1851": "ible", "1852": "est", "1853": "Ġlon", "1854": "!âĢĿ", "1855": "Ġowner", "1856": "Ġsoup", "1857": "Ġ-", "1858": "iskers", "1859": "Ġlonely", "1860": "Ġwings", "1861": "Ġroad", "1862": "Ġcandy", "1863": "Ġpre", "1864": "fish", "1865": "Ġapples", "1866": "Ġstrange", "1867": "ere", "1868": "ased", "1869": "Ġtalking", "1870": "Ġbuck", "1871": "Ġsam", "1872": "Ġruns", "1873": "Ġhor", "1874": "Ġliving", "1875": "Ġsame", "1876": "Mommy", "1877": "Ġtom", "1878": "set", "1879": "asket", "1880": "Ġkite", "1881": ".âĢĿ", "1882": "ĠMimi", "1883": "arm", "1884": "itch", "1885": "Ġletter", "1886": "Ġfan", "1887": "Ġcoat", "1888": "Ġbasket", "1889": "ĠTommy", "1890": "Ġnose", "1891": "Ġdelicious", "1892": "Ġmine", "1893": "Ġsear", "1894": "Ġgentle", "1895": "Ġsinging", "1896": "Ġthinks", "1897": "Ġtreasure", "1898": "ches", "1899": "Ġmad", "1900": "Ġheart", "1901": "ons", "1902": "ier", "1903": "board", "1904": "irt", "1905": "Ġswings", "1906": "Ġbelie", "1907": "Ġyears", "1908": "Ġeg", "1909": "Ġegg", "1910": "Ġfinally", "1911": "Ġshell", "1912": "Ġstand", "1913": "Ġcho", "1914": "Ġbring", "1915": "Ġarri", "1916": "Ġfit", "1917": "ined", "1918": "Ġstone", "1919": "una", "1920": "Ġdays", "1921": "Ġans", "1922": "Ġansw", "1923": "Ġvill", "1924": "Ġteddy", "1925": "Ġwore", "1926": "ĠWhiskers", "1927": "Ġscream", "1928": "Ġpile", "1929": "isa", "1930": "Ġhoped", "1931": "ball", "1932": "bow", "1933": "Ġtouc", "1934": "Ġtrou", "1935": "Ġbat", "1936": "Ġchee", "1937": "Ġshap", "1938": "aughty", "1939": "Ġph", "1940": "igh", "1941": "Ġbelong", "1942": "Ġpill", "1943": "Ġnaughty", "1944": "Ġben", "1945": "erry", "1946": "ract", "1947": "Ġpuddle", "1948": "Ġtasty", "1949": "Ġcour", "1950": "phant", "1951": "Ġhiding", "1952": "gly", "1953": "Ġherself", "1954": "ian", "1955": "Ġteac", "1956": "ĠBlue", "1957": "Please", "1958": "Ġfarmer", "1959": "Ġcarrot", "1960": "Ġdropped", "1961": "Ġcoll", "1962": "Ġrub", "1963": "Ġbush", "1964": "col", "1965": "Ġshapes", "1966": "ude", "1967": "Ġjuice", "1968": "Ġtouched", "1969": "Ġcourse", "1970": "Ġnut", "1971": "Ġtwins", "1972": "Ġlunch", "1973": "Ġpart", "1974": "reet", "1975": "Ġrainbow", "1976": "Ġbell", "1977": "Ġteach", "1978": "Ġpush", "1979": "Ġelephant", "1980": "Ġcheered", "1981": "'ll", "1982": "Ġnum", "1983": "Ġwoke", "1984": "Ġvillage", "1985": "Ġmin", "1986": "emy", "1987": "Ġgrew", "1988": "Ġeas", "1989": "arp", "1990": "Ġstreet", "1991": "Ġarrived", "1992": "ipped", "1993": "ella", "1994": "Ġcray", "1995": "Ġfence", "1996": "OK", "1997": "Jack", "1998": "Ġpers", "1999": "llie", "2000": "Ġprob", "2001": "ilk", "2002": "Ġdes", "2003": "lem", "2004": "fused", "2005": "Ġable", "2006": "irth", "2007": "Ġinc", "2008": "Ġspoon", "2009": "Ġshook", "2010": "Ġseem", "2011": "irthday", "2012": "Ġwra", "2013": "Ġneck", "2014": "Ġrope", "2015": "Ġpuppy", "2016": "Ġmost", "2017": "Ġpromise", "2018": "Ġsharp", "2019": "Ġbow", "2020": "Ġteacher", "2021": "Ġbench", "2022": "sy", "2023": "Ġsounds", "2024": "Ġfeels", "2025": "Ġsack", "2026": "Ġproblem", "2027": "Ġfew", "2028": "Ġcute", "2029": "Ġrob", "2030": "Ġspin", "2031": "ĠFred", "2032": "Ġcorn", "2033": "ost", "2034": "Ġmilk", "2035": "app", "2036": "ato", "2037": "Ġforever", "2038": "Ġyoun", "2039": "Ġpocket", "2040": "Ġband", "2041": "Ġwonderful", "2042": "Ġstorm", "2043": "irp", "2044": "Ġear", "2045": "Ġjoy", "2046": "Ġpop", "2047": "Ġbirthday", "2048": "Ġcarry", "2049": "Ġkiss", "2050": "Ġgray", "2051": "Good", "2052": "Ġrec", "2053": "Ġbugs", "2054": "ĊĠ", "2055": "Ġshake", "2056": "Ġspo", "2057": "Finally", "2058": "Ġhelpful", "2059": "ĠGrandma", "2060": "Ġseed", "2061": "Ġfold", "2062": "sh", "2063": "ĠJen", "2064": "Ġdolls", "2065": "umpy", "2066": "Ġpower", "2067": "Ġsug", "2068": "ĠThank", "2069": "ama", "2070": "Ġhorse", "2071": "Ġwar", "2072": "Ġbread", "2073": "unt", "2074": "Ġcave", "2075": "Ġturt", "2076": "aur", "2077": "Ġslowly", "2078": "Ġhoney", "2079": "Ġbelieve", "2080": "idge", "2081": "gle", "2082": "Ġrobot", "2083": "Ġplane", "2084": "eter", "2085": "Ġbusy", "2086": "Ġseat", "2087": "ider", "2088": "sc", "2089": "Ġlem", "2090": "Ġshy", "2091": "Ġcheese", "2092": "ountain", "2093": "lla", "2094": "ucce", "2095": "Ġcover", "2096": "Ġtowards", "2097": "Ġwhistle", "2098": "Ġsandw", "2099": "Ġnoises", "2100": "Ġstories", "2101": "ĠBe", "2102": "Ġlive", "2103": "Ġholding", "2104": "Ġdisapp", "2105": "Ġpuzz", "2106": "Ġyoung", "2107": "adow", "2108": "Ġsucce", "2109": "ove", "2110": "Ġupset", "2111": "Ġmist", "2112": "eared", "2113": "Ġshr", "2114": "Ġpatient", "2115": "ens", "2116": "ĠEmma", "2117": "read", "2118": "cks", "2119": "Ġdist", "2120": "Ġwild", "2121": "Ġlate", "2122": "Ġturtle", "2123": "Ġkitten", "2124": "ator", "2125": "Ġmeet", "2126": "Ġglow", "2127": "alm", "2128": "Ġhan", "2129": "ĠLisa", "2130": "Ġhugs", "2131": "iling", "2132": "Sure", "2133": "ĠRemy", "2134": "Ġbucket", "2135": "Ġballs", "2136": "Ġmark", "2137": "Ġtreats", "2138": "ling", "2139": "Ġcir", "2140": "Ġseek", "2141": "Ġnote", "2142": "Ġugly", "2143": "ope", "2144": "br", "2145": "Ġsplas", "2146": "Ġdriver", "2147": "fortable", "2148": "ĠJim", "2149": "ors", "2150": "Ġamazed", "2151": "Ġcoin", "2152": "Lila", "2153": "Ġtrip", "2154": "Ġzoom", "2155": "Ġdirt", "2156": "ert", "2157": "Ġwheel", "2158": "Ġmagical", "2159": "Ġsnowman", "2160": "not", "2161": "Ġfighting", "2162": "oose", "2163": "oggy", "2164": "Hey", "2165": "Ġhuge", "2166": "Ġlucky", "2167": "Of", "2168": "Ġspider", "2169": "Ġca", "2170": "bled", "2171": "Ġjoke", "2172": "Ġwide", "2173": "Ġspark", "2174": "Ġcloth", "2175": "Ġstars", "2176": "ity", "2177": "Ġinv", "2178": "ĠMark", "2179": "oop", "2180": "Ġsne", "2181": "Ġdrove", "2182": "Ġdi", "2183": "Ġcannot", "2184": "epend", "2185": "ourn", "2186": "Ġsongs", "2187": "Ġspicy", "2188": "Ġrad", "2189": "ĠLeo", "2190": "Ġbone", "2191": "Ġtaking", "2192": "ĠBella", "2193": "Ġcookie", "2194": "Ġpath", "2195": "Ġprincess", "2196": "Ġjourn", "2197": "Ġcard", "2198": "Ġboss", "2199": "Ġrude", "2200": "Ġforget", "2201": "Ġdaddy", "2202": "Ġstring", "2203": "Ġtea", "2204": "ĠJust", "2205": "Ġmach", "2206": "Ġinstead", "2207": "Ġcraw", "2208": "ular", "2209": "Ġfoot", "2210": "Ġorgan", "2211": "Ġlast", "2212": "Ġnet", "2213": "erest", "2214": "Ġsour", "2215": "ĠFinally", "2216": "Ġmoon", "2217": "Ġshelf", "2218": "Ġfruits", "2219": "ĠCat", "2220": "Ġjog", "2221": "Ġfle", "2222": "oph", "2223": "Ġsel", "2224": "Ġlife", "2225": "Ġlanded", "2226": "Ġinterest", "2227": "Ġbri", "2228": "Ġpillow", "2229": "Ġcomes", "2230": "Ġthin", "2231": "ize", "2232": "Ġfixed", "2233": "Ġcart", "2234": "Ġworm", "2235": "Ġnod", "2236": "Ġcou", "2237": "we", "2238": "Ġsal", "2239": "Ġbubble", "2240": "Ġdrive", "2241": "pect", "2242": "den", "2243": "Ġtaste", "2244": "Ġwave", "2245": "Ġser", "2246": "Ġdrum", "2247": "ĠAnn", "2248": "Ġtakes", "2249": "Ġlemon", "2250": "Later", "2251": "ife", "2252": "Ġgiant", "2253": "lower", "2254": "kin", "2255": "Ġru", "2256": "eth", "2257": "let", "2258": "Ġselfish", "2259": "Ġmessy", "2260": "Ġba", "2261": "Ġsick", "2262": "Ġpeace", "2263": "Ġducks", "2264": "Ġadventures", "2265": "ĠJill", "2266": "Ġsmooth", "2267": "ĠSt", "2268": "Ġwrite", "2269": "Ġwasn", "2270": "Ġval", "2271": "Ġsuddenly", "2272": "Ġstepped", "2273": "Ġgrumpy", "2274": "Ġslid", "2275": "elly", "2276": "izzy", "2277": "Ġhidden", "2278": "Ġent", "2279": "Ġbark", "2280": "ĠOn", "2281": "Ġmed", "2282": "Ġexp", "2283": "Ġbought", "2284": "Ġash", "2285": "Ġmissed", "2286": "Ġchange", "2287": "Ġconfused", "2288": "Ġspray", "2289": "yard", "2290": "Ġchased", "2291": "amed", "2292": "Ġzoo", "2293": "Ġtie", "2294": "Ġlegs", "2295": "Ġban", "2296": "Ġacross", "2297": "mer", "2298": "Ġbeak", "2299": "Ġsheep", "2300": "Ġpuzzle", "2301": "ĠCome", "2302": "Ġbackyard", "2303": "upp", "2304": "box", "2305": "ions", "2306": "ey", "2307": "Ġfake", "2308": "Ġshirt", "2309": "Ġfil", "2310": "Ġoven", "2311": "unk", "2312": "Ġmachine", "2313": "Ġspe", "2314": "Ġinteresting", "2315": "Ġsticks", "2316": "Ġring", "2317": "Ġgrate", "2318": "Ġfing", "2319": "Ġship", "2320": "Ġmot", "2321": "Ġlater", "2322": "ever", "2323": "Ġplate", "2324": "Ġsmelly", "2325": "Ġwash", "2326": "Ġeasy", "2327": "Ġprot", "2328": "Ġpour", "2329": "Ġmyster", "2330": "irpy", "2331": "Ġsupp", "2332": "Ġimag", "2333": "Ġclever", "2334": "Ġstep", "2335": "Ġgrateful", "2336": "Soon", "2337": "ol", "2338": "Ġce", "2339": "Ġsave", "2340": "ose", "2341": "bar", "2342": "ont", "2343": "era", "2344": "Ġpin", "2345": "ment", "2346": "Ġwatching", "2347": "Ġarms", "2348": "urse", "2349": "Ġscar", "2350": "Ġchick", "2351": "?âĢĿ", "2352": "Ġdrew", "2353": "nan", "2354": "Ġrod", "2355": "Ġclouds", "2356": "Ġdogs", "2357": "Ġhope", "2358": "ĠBunny", "2359": "Ġign", "2360": "rass", "2361": "ipp", "2362": "Ġlay", "2363": "Ġpan", "2364": "Ġemp", "2365": "ĠN", "2366": "Ġthough", "2367": "barrass", "2368": "Ġdig", "2369": "Ġcalm", "2370": "llo", "2371": "izz", "2372": "Ġfinish", "2373": "Ġsplash", "2374": "Ġmaybe", "2375": "Ġempty", "2376": "Ġline", "2377": "Ġwhole", "2378": "Ġhealthy", "2379": "idy", "2380": "Ġplants", "2381": "Ġphone", "2382": "Ġembarrass", "2383": "wel", "2384": "Ġwolf", "2385": "Ġalong", "2386": "gest", "2387": "Ġforgive", "2388": "Ġkick", "2389": "Ġfaces", "2390": "Ġfront", "2391": "ult", "2392": "Ġsleepy", "2393": "Ġact", "2394": "Ġbossy", "2395": "ĠLuna", "2396": "arge", "2397": "Ġfancy", "2398": "ĠDaddy", "2399": "Ġpract", "2400": "Ġwondered", "2401": "ward", "2402": "Ġworking", "2403": "Ġanyone", "2404": "Ġgives", "2405": "Ġjelly", "2406": "Ġquest", "2407": "Ġsuch", "2408": "irr", "2409": "Ġstra", "2410": "Ġsur", "2411": "ĠSp", "2412": "Ġvan", "2413": "Ġfeather", "2414": "Ġtrouble", "2415": "And", "2416": "Ġgather", "2417": "Ġweak", "2418": "Ġcozy", "2419": "Ġexplain", "2420": "onest", "2421": "Ġlonger", "2422": "aughter", "2423": "Come", "2424": "Ġseemed", "2425": "Ġjewel", "2426": "ĠMolly", "2427": "ming", "2428": "Ġlift", "2429": "ually", "2430": "Ġmistake", "2431": "ĠChirpy", "2432": "oomy", "2433": "ĠMomo", "2434": "Ġputs", "2435": "Ġtidy", "2436": "Ġsaved", "2437": "iting", "2438": "Ġret", "2439": "ocked", "2440": "Ġlarge", "2441": "ones", "2442": "ĠMy", "2443": "Ġhum", "2444": "Be", "2445": "Ġrocket", "2446": "Ġhonest", "2447": "ery", "2448": "Ġcrayons", "2449": "Ġstret", "2450": "Ġcheer", "2451": "Ġsol", "2452": "Ġstood", "2453": "Ġaf", "2454": "ĠWhy", "2455": "iger", "2456": "Ġnothing", "2457": "Ġwaiting", "2458": "osaur", "2459": "Ġont", "2460": "Ġlock", "2461": "Ġonto", "2462": "Ġsandwich", "2463": "orrow", "2464": "Ġreturn", "2465": "Ġscarf", "2466": "Ġnumber", "2467": "Ġdeer", "2468": "Ġchew", "2469": "Ġdaughter", "2470": "Ġmind", "2471": "Ġfurry", "2472": "Ġjumping", "2473": "Sally", "2474": "Ġeag", "2475": "Ġwip", "2476": "Ġdish", "2477": "Ġlovely", "2478": "ĠJerry", "2479": "Ġmatch", "2480": "Ġexplor", "2481": "ĠOllie", "2482": "ina", "2483": "Ġrich", "2484": "Ġboring", "2485": "Ġsmelled", "2486": "ĠMary", "2487": "ĠWith", "2488": "erly", "2489": "Ġneigh", "2490": "Ġlazy", "2491": "iff", "2492": "Ġprint", "2493": "Ġgently", "2494": "Ġdinosaur", "2495": "bor", "2496": "Ġmotor", "2497": "Ġcleaned", "2498": "raid", "2499": "ned", "2500": "Ġlad", "2501": "My", "2502": "Ġsearch", "2503": "aced", "2504": "Ġafraid", "2505": "Ġfear", "2506": "Ġav", "2507": "Ġclown", "2508": "Ġbal", "2509": "Ġashamed", "2510": "Ġlaw", "2511": "Ġsplashed", "2512": "Ġtrue", "2513": "Ġbald", "2514": "Ġtomorrow", "2515": "Ġpretended", "2516": "Ġpack", "2517": "Ġteeth", "2518": "arl", "2519": "Ġpointed", "2520": "ĠTheir", "2521": "Ġcouch", "2522": "ĠDoggy", "2523": "Ġgoes", "2524": "oman", "2525": "Ġcross", "2526": "Ġyog", "2527": "Ġswimming", "2528": "erv", "2529": "Ġsmiling", "2530": "ugg", "2531": "Ġplaces", "2532": "Ġladder", "2533": "Ġqueen", "2534": "icked", "2535": "Ġnearby", "2536": "Ġcreative", "2537": "Ġloves", "2538": "Ġwoman", "2539": "Ġants", "2540": "Ġperson", "2541": "Ġsuccess", "2542": "Ġpool", "2543": "ĠSomet", "2544": "Ġanswer", "2545": "ĠTogether", "2546": "ĠGo", "2547": "Ġchocol", "2548": "ĠBear", "2549": "Ġknee", "2550": "Ġsugar", "2551": "Ġscreamed", "2552": "Ġchase", "2553": "elp", "2554": "Ġtest", "2555": "Ġprotect", "2556": "Kitty", "2557": "oppy", "2558": "Ġmatter", "2559": "Ġrespect", "2560": "Ġhello", "2561": "Ġfat", "2562": "ervous", "2563": "Ġwing", "2564": "Ġcap", "2565": "Ġnervous", "2566": "Ġmic", "2567": "Ġgen", "2568": "St", "2569": "Ġpri", "2570": "Ġwand", "2571": "Ġbounce", "2572": "Ġflag", "2573": "Ġtrust", "2574": "Ġbuilding", "2575": "Ġtries", "2576": "ĠPlease", "2577": "Ġnoisy", "2578": "ĠIf", "2579": "Ġpizz", "2580": "ĠDon", "2581": "ony", "2582": "Ġembarrassed", "2583": "Ġbrush", "2584": "Ġtape", "2585": "Ġpowerful", "2586": "Ġpolite", "2587": "Ġgold", "2588": "To", "2589": "itter", "2590": "Ġtool", "2591": "ness", "2592": "Ġdecor", "2593": "ensive", "2594": "Ġcarried", "2595": "Ġballoons", "2596": "erries", "2597": "Ġdizzy", "2598": "Ġcri", "2599": "ute", "2600": "Ġmirr", "2601": "Ġexpensive", "2602": "Ġclass", "2603": "Ġwearing", "2604": "Ġsold", "2605": "Ġberries", "2606": "uce", "2607": "imp", "2608": "ork", "2609": "ĠTiny", "2610": "ĠTV", "2611": "Ġmirror", "2612": "Ġsque", "2613": "Ġtowel", "2614": "Ġwhale", "2615": "Ġchocolate", "2616": "Ġpizza", "2617": "Ġcage", "2618": "ĠBird", "2619": "Ġsnee", "2620": "Ġappeared", "2621": "ado", "2622": "ĠBenny", "2623": "Ġcrown", "2624": "Ġclap", "2625": "scape", "2626": "Ġpump", "2627": "Ġreg", "2628": "issors", "2629": "any", "2630": "Ġhero", "2631": "Ġgener", "2632": "Ġcircle", "2633": "Help", "2634": "Ġpres", "2635": "Ġlead", "2636": "ĠPe", "2637": "owed", "2638": "Ġtent", "2639": "ĠBr", "2640": "Ġglue", "2641": "Ġimpress", "2642": "ek", "2643": "nic", "2644": "Ġwrap", "2645": "ĠBu", "2646": "Ġgun", "2647": "ser", "2648": "lves", "2649": "Ġthese", "2650": "Ġdisco", "2651": "Ġscissors", "2652": "Ġjourney", "2653": "ual", "2654": "Ġpeaceful", "2655": "Ġmap", "2656": "Ġtasted", "2657": "isp", "2658": "Ġdrank", "2659": "Ġcloset", "2660": "rag", "2661": "Ġsaf", "2662": "Ġpoor", "2663": "Ġpicnic", "2664": "Ġtick", "2665": "aw", "2666": "Ġgate", "2667": "Stop", "2668": "Ġkicked", "2669": "rob", "2670": "Ġfeet", "2671": "Ġdancing", "2672": "Ġrough", "2673": "Ġyarn", "2674": "Ġstraw", "2675": "airs", "2676": "Ġlog", "2677": "ĠDucky", "2678": "Ġdrawing", "2679": "Ġboot", "2680": "Ġshadow", "2681": "ventually", "2682": "Ġgig", "2683": "Ġcand", "2684": "Ġgenerous", "2685": "Ġbake", "2686": "Ġglass", "2687": "ĠHow", "2688": "ubb", "2689": "Ġscare", "2690": "Ġmysterious", "2691": "Ġadm", "2692": "ote", "2693": "Ġmixed", "2694": "Ġvase", "2695": "ndp", "2696": "Ġrelie", "2697": "Ġtele", "2698": "port", "2699": "Dad", "2700": "Ġmarch", "2701": "Ġblow", "2702": "Ġap", "2703": "Ġpay", "2704": "Ġincred", "2705": "Ġhur", "2706": "Ġyelled", "2707": "Ġweird", "2708": "Ġstrawber", "2709": "alous", "2710": "land", "2711": "Ġmel", "2712": "Ġrare", "2713": "Ġgroup", "2714": "Ġcorner", "2715": "Ġclear", "2716": "ĠSometimes", "2717": "ĠBobby", "2718": "Ġmoms", "2719": "Ġicy", "2720": "als", "2721": "Ġfamous", "2722": "asp", "2723": "Ġsword", "2724": "Ġwake", "2725": "Ġpray", "2726": "ond", "2727": "Ġjealous", "2728": "Tommy", "2729": "Ġwhisp", "2730": "Ġfool", "2731": "Ġincredible", "2732": "Ġfright", "2733": "ray", "2734": "ustr", "2735": "Ġbalance", "2736": "Ġsoap", "2737": "Ġbranches", "2738": "robe", "2739": "Ġwis", "2740": "Ġfrag", "2741": "Ġbecome", "2742": "ĠTr", "2743": "Ġnosy", "2744": "Ġeggs", "2745": "Ġter", "2746": "Ġlose", "2747": "Ġtomato", "2748": "Ġclay", "2749": "Ġhose", "2750": "Ġrat", "2751": "Ġtoug", "2752": "Ġchan", "2753": "Ġburn", "2754": "Ġspent", "2755": "lebr", "2756": "Ġob", "2757": "Ġwouldn", "2758": "Ġthick", "2759": "Ġignor", "2760": "Ġfine", "2761": "Ġwealthy", "2762": "Ġmeasure", "2763": "Ġmis", "2764": "ighed", "2765": "Ġfrustr", "2766": "bers", "2767": "Ġfragile", "2768": "lace", "2769": "Ġtrack", "2770": "Ġcelebr", "2771": "Ġpresent", "2772": "cer", "2773": "Ġexam", "2774": "Ġsock", "2775": "Ġfoolish", "2776": "Ġfeed", "2777": "Ġunderstood", "2778": "Ġjam", "2779": "ique", "2780": "Ġtough", "2781": "Ġpainted", "2782": "yal", "2783": "Ġwaves", "2784": "Ġnorm", "2785": "Ġmod", "2786": "Ġhorn", "2787": "ndpa", "2788": "Ġnecklace", "2789": "Ġknocked", "2790": "Ġbridge", "2791": "cil", "2792": "Ġterri", "2793": "Ġsco", "2794": "Ġuseful", "2795": "Ġspread", "2796": "Ġspace", "2797": "Ġnormal", "2798": "Ġfrightened", "2799": "Ġguess", "2800": "Ġpaws", "2801": "Ġunique", "2802": "Ġmighty", "2803": "Ġsell", "2804": "dle", "2805": "Ġstir", "2806": "getable", "2807": "Ġunus", "2808": "Ġmountain", "2809": "Ġloyal", "2810": "Ġdug", "2811": "orry", "2812": "Ġteam", "2813": "Ġsearched", "2814": "Ġpencil", "2815": "Where", "2816": "Ġrelieved", "2817": "Ġfrustrated", "2818": "Ġfinding", "2819": "ced", "2820": "Ġunusual", "2821": "Ġvegetable", "2822": "light", "2823": "Ġcomfortable", "2824": "Ġdead", "2825": "Ġdiscover", "2826": "Ġbathroom", "2827": "Ġtwist", "2828": "Ġhears", "2829": "ubborn", "2830": "Ġstubborn", "2831": "Ġcreature", "2832": "Ġclum", "2833": "ipper", "2834": "Ġguit", "2835": "Ġbreath", "2836": "Ġunk", "2837": "Ġpumpkin", "2838": "Ġwashed", "2839": "ĠSome", "2840": "nown", "2841": "Ġbean", "2842": "Ġclumsy", "2843": "Ġmask", "2844": "Here", "2845": "Ġhairy", "2846": "Ġfinger", "2847": "Ġspoiled", "2848": "Ġcone", "2849": "ino", "2850": "Ġ3", "2851": "Together", "2852": "Ġcher", "2853": "Ġrh", "2854": "cient", "2855": "Ġroar", "2856": "Ġpolice", "2857": "iant", "2858": "Ġyours", "2859": "Ġstuff", "2860": "Ġclock", "2861": "Ġord", "2862": "Ġguitar", "2863": "Ġsort", "2864": "Ġsuit", "2865": "selves", "2866": "reen", "2867": "Ġtaught", "2868": "Ġunknown", "2869": "ume", "2870": "udy", "2871": "Ġdough", "2872": "Ġwrote", "2873": "Ġeld", "2874": "apped", "2875": "ĠRex", "2876": "ilt", "2877": "Ġtells", "2878": "irsty", "2879": "Ġshark", "2880": "Ġknife", "2881": "Ġbarn", "2882": "Ġorganized", "2883": "Ġancient", "2884": "ĠAl", "2885": "ates", "2886": "Ġdull", "2887": "Ġexploring", "2888": "Ġchanged", "2889": "Ġwagon", "2890": "Ġyourself", "2891": "Ġchest", "2892": "com", "2893": "Ġasking", "2894": "Ġsquare", "2895": "Ġcab", "2896": "ĠU", "2897": "Ġdrop", "2898": "ory", "2899": "fic", "2900": "Ġjet", "2901": "ym", "2902": "ĠJimmy", "2903": "Ġpepper", "2904": "Ġham", "2905": "ĠNo", "2906": "Ġbitter", "2907": "inky", "2908": "Ġwhich", "2909": "Ġterrible", "2910": "Ġadd", "2911": "ict", "2912": "Ġlab", "2913": "Ġthirsty", "2914": "Ġacorn", "2915": "iness", "2916": "Ġtoast", "2917": "Ġshoe", "2918": "Ġfrown", "2919": "Ġdiffic", "2920": "Ġjack", "2921": "Ġind", "2922": "Ġharm", "2923": "Ġending", "2924": "corn", "2925": "Ġisland", "2926": "Ġrose", "2927": "Ġfier", "2928": "Ġdifficult", "2929": "anut", "2930": "Ġthankful", "2931": "Ġelderly", "2932": "unn", "2933": "lliant", "2934": "Ġflash", "2935": "Ġfierce", "2936": "Ġcro", "2937": "Ġbubbles", "2938": "Ġcabin", "2939": "Ġwitch", "2940": "Ġcrane", "2941": "Ġgloomy", "2942": "Ġexciting", "2943": "Ġbrilliant", "2944": "Ġshore", "2945": "Ġcrazy", "2946": "Ġzip", "2947": "Ġsunf", "2948": "Ġlamp", "2949": "ĠSn", "2950": "erp", "2951": "Ġshiver", "2952": "xible", "2953": "Ġescape", "2954": "Ġswan", "2955": "Ġsquee", "2956": "Ġmush", "2957": "live", "2958": "Ġdesign", "2959": "Ġpopcorn", "2960": "Ġjacket", "2961": "ĠMany", "2962": "ground", "2963": "ĠMama", "2964": "Ġcovered", "2965": "Ġflexible", "2966": "pes", "2967": "Ġunl", "2968": "Ġlif", "2969": "Ġvalue", "2970": "Ġsolve", "2971": "Ġheal", "2972": "Ġgar", "2973": "Ġboard", "2974": "Ġbody", "2975": "ormous", "2976": "Ġasleep", "2977": "Ġnuts", "2978": "Ġknowing", "2979": "Ġhoop", "2980": "met", "2981": "Every", "2982": "Jim", "2983": "Ġenormous", "2984": "Ġcounted", "2985": "Ġmushroom", "2986": "alk", "2987": "Ġmov", "2988": "ĠYour", "2989": "Ġ'", "2990": "Ġdest", "2991": "Ġcheap", "2992": "Ġnods", "2993": "ats", "2994": "Ġfearful", "2995": "ungle", "2996": "Ġtrick", "2997": "Ġsalad", "2998": "Ġbloom", "2999": "Ġhay", "3000": "Ġscr", "3001": "ident", "3002": "ying", "3003": "Ġgem", "3004": "Are", "3005": "Ġcollect", "3006": "Ġgum", "3007": "Ġjoined", "3008": "Ġcries", "3009": "most", "3010": "Ġjungle", "3011": "Ġhats", "3012": "Ġpasta", "3013": "Ġeager", "3014": "Ġpir", "3015": "ĠBrown", "3016": "Ġbuilt", "3017": "ĠAndy", "3018": "iddle", "3019": "Ġfour", "3020": "Ġsmaller", "3021": "Ġhouses", "3022": "Ġhelmet", "3023": "Ġadventur", "3024": "Ġmarket", "3025": "ĠInstead", "3026": "dile", "3027": "bre", "3028": "Ġmarble", "3029": "erpill", "3030": "Ġcaterpill", "3031": "und", "3032": "Ġstage", "3033": "Ġdove", "3034": "Ġadventurous", "3035": "Ġalmost", "3036": "codile", "3037": "Ġsuccessful", "3038": "Ġexplained", "3039": "Ġgarage", "3040": "Ġcam", "3041": "Ġbored", "3042": "Ġjolly", "3043": "Ġdepend", "3044": "Ġraven", "3045": "Ġmailbox", "3046": "ĠElla", "3047": "Ġneighbor", "3048": "Ġfilthy", "3049": "Mum", "3050": "Ġcareless", "3051": "Ġmeal", "3052": "ours", "3053": "Ġcomet", "3054": "Ġbottom", "3055": "Ġscale", "3056": "Ġperform", "3057": "Ġpebble", "3058": "Ġcats", "3059": "Ġmoving", "3060": "ĠWhile", "3061": "Ġones", "3062": "Ġdisg", "3063": "Ġbanana", "3064": "Ġpotato", "3065": "Ġchicken", "3066": "Ġjug", "3067": "Ġdelicate", "3068": "Ġstove", "3069": "Ġlibr", "3070": "If", "3071": "Ġnews", "3072": "Ġobed", "3073": "Who", "3074": "Ġtiger", "3075": "Ġbelonged", "3076": "net", "3077": "Ġshine", "3078": "Ġsnacks", "3079": "Ġpian", "3080": "Ġeng", "3081": "host", "3082": "Ġmiddle", "3083": "Ġcube", "3084": "Ġtimes", "3085": "Ġcomput", "3086": "shine", "3087": "Ġwaff", "3088": "Ġsighed", "3089": "Ġcrocodile", "3090": "ube", "3091": "Ġslipped", "3092": "Ġcompet", "3093": "ipe", "3094": "Ġseeds", "3095": "Ġmole", "3096": "erable", "3097": "Ġobedient", "3098": "Ġhumble", "3099": "igin", "3100": "Ġmedic", "3101": "Ġcaterpillar", "3102": "oto", "3103": "Ġpiano", "3104": "Ġraced", "3105": "Ġgets", "3106": "mbre", "3107": "Ġhurts", "3108": "aken", "3109": "How", "3110": "Ġstones", "3111": "Ġfountain", "3112": "Their", "3113": "usting", "3114": "Ġgoose", "3115": "Inside", "3116": "ĠWill", "3117": "There", "3118": "Ġsunflower", "3119": "Ġstri", "3120": "Ġchoose", "3121": "iginal", "3122": "Ġparrot", "3123": "Timmy", "3124": "ĠSh", "3125": "Ġghost", "3126": "cream", "3127": "azz", "3128": "Ġumbre", "3129": "Ġshoot", "3130": "Ġborrow", "3131": "aff", "3132": "Ġrug", "3133": "Ġcomputer", "3134": "Ġhopping", "3135": "upid", "3136": "Ġpoem", "3137": "Ġmedicine", "3138": "ages", "3139": "Ġcost", "3140": "Ġbelt", "3141": "Ġpopular", "3142": "Ġbedroom", "3143": "Ġboats", "3144": "ants", "3145": "Ġsunshine", "3146": "Ġgrace", "3147": "Ġtaken", "3148": "Ġref", "3149": "Ġdependable", "3150": "amond", "3151": "Sorry", "3152": "Ġbatter", "3153": "Ġdisgusting", "3154": "Ġremind", "3155": "Ġpoint", "3156": "Ġindepend", "3157": "Ġcush", "3158": "Ġsquash", "3159": "Ġoriginal", "3160": "Ġcomb", "3161": "Ġtied", "3162": "Ġspring", "3163": "Ġmiserable", "3164": "Ġcheerful", "3165": "appy", "3166": "Ġserious", "3167": "Ġcarp", "3168": "Ġusing", "3169": "Ġpress", "3170": "Ġsteal", "3171": "oin", "3172": "Ġwander", "3173": "Ġvegetables", "3174": "Ġstanding", "3175": "ĠSammy", "3176": "Ġlifted", "3177": "Ġaunt", "3178": "ccol", "3179": "Ġrep", "3180": "Ġpeanut", "3181": "Ġharmless", "3182": "ccoli", "3183": "Ġtwig", "3184": "Ġindependent", "3185": "Ġdiamond", "3186": "pack", "3187": "Ġvi", "3188": "Ġsmoke", "3189": "Ġsil", "3190": "Ġmoder", "3191": "Ġlean", "3192": "Ġthoughtful", "3193": "Ġstudy", "3194": "Ġneeds", "3195": "Ġflashlight", "3196": "Ġtroubled", "3197": "Ġspotted", "3198": "Ġonion", "3199": "Ġflute", "3200": "Ġstupid", "3201": "Ġrelax", "3202": "Ġmodern", "3203": "Ġenvel", "3204": "Ġpicks", "3205": "elery", "3206": "Ġcrack", "3207": "atch", "3208": "Ġrid", "3209": "weet", "3210": "Ġradish", "3211": "Ġumbrella", "3212": "Ġhammer", "3213": "ulu", "3214": "Ġtur", "3215": "Ġcrawled", "3216": "aze", "3217": "Ġstretch", "3218": "Ġcamera", "3219": "Ġcarpet", "3220": "ief", "3221": "het", "3222": "Ġbroccoli", "3223": "iable", "3224": "Ġtank", "3225": "Ġfridge", "3226": "Ġloop", "3227": "ĠFr", "3228": "gu", "3229": "Ġfig", "3230": "Ġquar", "3231": "Ġbeet", "3232": "Ġavo", "3233": "Ġruined", "3234": "Ġcelery", "3235": "Ġstat", "3236": "Ġtube", "3237": "Ġoffice", "3238": "ung", "3239": "Jane", "3240": "Ġimpressive", "3241": "Ġfork", "3242": "Ġanswered", "3243": "Ġmagnet", "3244": "Ġshows", "3245": "Ġengine", "3246": "Ġgoat", "3247": "zed", "3248": "ilty", "3249": "cean", "3250": "Ġwalks", "3251": "Ġtricks", "3252": "Ġtriang", "3253": "Ġpassed", "3254": "ubby", "3255": "Ġboxes", "3256": "Ġwire", "3257": "Ġvine", "3258": "Ġmelon", "3259": "Ġkissed", "3260": "Ġturkey", "3261": "Ġcompetit", "3262": "Ġcarrots", "3263": "ĠTrue", "3264": "xious", "3265": "Ġharder", "3266": "Ġtears", "3267": "Ġprize", "3268": "Ġocean", "3269": "Ġplayful", "3270": "Ġmovie", "3271": "Ġlow", "3272": "Ġcryst", "3273": "Ġblueber", "3274": "Ġguilty", "3275": "inary", "3276": "illa", "3277": "Ġtor", "3278": "Ġspeed", "3279": "enny", "3280": "Ġpants", "3281": "atter", "3282": "arsh", "3283": "cident", "3284": "Ġnail", "3285": "umpet", "3286": "Ġstamp", "3287": "Ġpale", "3288": "Ġmeant", "3289": "Ġlocked", "3290": "Ġanxious", "3291": "Ġmelt", "3292": "Ġpeach", "3293": "Ġlit", "3294": "Ġdeliver", "3295": "Ġbees", "3296": "book", "3297": "Ġhelps", "3298": "Molly", "3299": "Ġsink", "3300": "Ġreliable", "3301": "Ġhappiness", "3302": "under", "3303": "Ġlearning", "3304": "Ġinse", "3305": "Ġdisappoin", "3306": "celet", "3307": "assion", "3308": "Ġquarrel", "3309": "Ġenv", "3310": "ĠEven", "3311": "ito", "3312": "gled", "3313": "comfortable", "3314": "Ġtem", "3315": "lph", "3316": "Ġhunt", "3317": "Ġtrumpet", "3318": "Ġcandle", "3319": "uth", "3320": "Ġviol", "3321": "Ġsurf", "3322": "Ġpurse", "3323": "hett", "3324": "Ġuncomfortable", "3325": "Ġlicked", "3326": "Ġbracelet", "3327": "Ġwrapped", "3328": "Ġthread", "3329": "Ġcop", "3330": "Ġmuff", "3331": "aghett", "3332": "Ġpony", "3333": "aghetti", "3334": "Ġcompassion", "3335": "Bobo", "3336": "Ġgifted", "3337": "Ġpainting", "3338": "Ġhelpless", "3339": "Ġpersist", "3340": "Ġdeaf", "3341": "unnel", "3342": "Ġfluffy", "3343": "Ġenvelope", "3344": "Ġtorn", "3345": "Ġstatue", "3346": "Ġbarber", "3347": "opl", "3348": "asses", "3349": "Ġforward", "3350": "zzy", "3351": "eropl", "3352": "Ġinvited", "3353": "Ġbeetle", "3354": "ating", "3355": "Ġcreate", "3356": "Ġarrow", "3357": "Ġtunnel", "3358": "edy", "3359": "cles", "3360": "Ġcollar", "3361": "Ġcact", "3362": "Ġspaghetti", "3363": "Ġaeropl", "3364": "Ġraft", "3365": "Ġpipe", "3366": "Ġinsect", "3367": "Ġdolph", "3368": "Ġcurt", "3369": "Ġwhispered", "3370": "Ġviolin", "3371": "Ġpengu", "3372": "Ġfis", "3373": "Ġaccident", "3374": "isted", "3375": "Ġsauce", "3376": "ulif", "3377": "Ġyogurt", "3378": "Ġshade", "3379": "Ġgiving", "3380": "Ġspill", "3381": "Ġspun", "3382": "Ġharsh", "3383": "Ġcushion", "3384": "Ġquestions", "3385": "Ġnumbers", "3386": "Ġthief", "3387": "Ġgraceful", "3388": "Ġdestro", "3389": "Ġways", "3390": "Ġsweater", "3391": "Ġrode", "3392": "igent", "3393": "Ġshrimp", "3394": "Ġliz", "3395": "Ġchubby", "3396": "squ", "3397": "Ġsailed", "3398": "Ġcaulif", "3399": "Ġalert", "3400": "cycle", "3401": "Ġpersistent", "3402": "Ġintell", "3403": "Ġfolder", "3404": "Ġcurtain", "3405": "Ġnotebook", "3406": "Ġknot", "3407": "Ġdelight", "3408": "udge", "3409": "ither", "3410": "Ġears", "3411": "Ġtravel", "3412": "Ġtap", "3413": "Ġrice", "3414": "Ġrestless", "3415": "Ġdisappointed", "3416": "ĠLulu", "3417": "Ġtrunk", "3418": "hip", "3419": "Ġtooth", "3420": "Ġcrystal", "3421": "Ġmill", "3422": "Ġboys", "3423": "Ġregular", "3424": "Ġbicy", "3425": "Ġacce", "3426": "ipop", "3427": "Ġmosqu", "3428": "ulb", "3429": "llipop", "3430": "Ġtag", "3431": "Ġcoins", "3432": "lcan", "3433": "cut", "3434": "Ġsoldier", "3435": "Ġglove", "3436": "pit", "3437": "Ġpoured", "3438": "Ġdecide", "3439": "Ġcricket", "3440": "Ġcoo", "3441": "Ġmosquito", "3442": "Ġlibrary", "3443": "ĠToday", "3444": "axi", "3445": "Ġsle", "3446": "Ġordinary", "3447": "Ġdust", "3448": "Ġbiggest", "3449": "Ġbull", "3450": "ĠOK", "3451": "Ġcactus", "3452": "ĠFo", "3453": "ĠCl", "3454": "ĠJake", "3455": "coa", "3456": "Ġcauliflower", "3457": "asing", "3458": "Ġlollipop", "3459": "lcano", "3460": "Ġticket", "3461": "Ġpracticed", "3462": "Ġintelligent", "3463": "Ġfather", "3464": "Ġtemp", "3465": "Ġtire", "3466": "Ġmop", "3467": "Ġhang", "3468": "Ġhalf", "3469": "Gra", "3470": "Ġshells", "3471": "Ġpost", "3472": "Ġlouder", "3473": "Ġstronger", "3474": "Ġenvious", "3475": "ache", "3476": "Ġreturned", "3477": "Ġrecord", "3478": "Ġshape", "3479": "Ġfeathers", "3480": "Ġlizard", "3481": "Ġcompassionate", "3482": "Ġuniver", "3483": "Ġtrap", "3484": "Ġbulb", "3485": "Ġshut", "3486": "Ġradi", "3487": "Ġer", "3488": "Ġfriendship", "3489": "Ġpro", "3490": "Ġfigure", "3491": "Ġdive", "3492": "omes", "3493": "Ġtaxi", "3494": "Ġgathered", "3495": "Ġdesk", "3496": "Ġvolcano", "3497": "Ġorder", "3498": "Ġload", "3499": "Ġcocoa", "3500": "Ġuncle", "3501": "Ġspend", "3502": "Ġcharm", "3503": "Ġbushes", "3504": "Ġvide", "3505": "Ġhappening", "3506": "Ġcase", "3507": "Ġcrawl", "3508": "Ġattract", "3509": "bra", "3510": "Ġthemselves", "3511": "Ġbehave", "3512": "Ġradio", "3513": "Ġrag", "3514": "Ġyaw", "3515": "Ġmug", "3516": "Ġmitten", "3517": "Ġexcite", "3518": "essie", "3519": "Ġnicely", "3520": "Ġjeep", "3521": "Ġcrayon", "3522": "Ġstrawberry", "3523": "Ġsleeping", "3524": "rill", "3525": "Ġskirt", "3526": "Ġavoc", "3527": "Ġlying", "3528": "Ġdestroy", "3529": "Ġbase", "3530": "ĠLittle", "3531": "aser", "3532": "Ġador", "3533": "Ġitch", "3534": "Ġeventually", "3535": "Ġaeroplane", "3536": "Ġspell", "3537": "Ġattractive", "3538": "kele", "3539": "anger", "3540": "Ġpit", "3541": "Ġbarrel", "3542": "ĠEmily", "3543": "Ġsaus", "3544": "Ġpole", "3545": "Ġcity", "3546": "Ġtriangle", "3547": "Ġscoot", "3548": "ĠPipp", "3549": "oby", "3550": "keleton", "3551": "Ġlively", "3552": "Ġclub", "3553": "aged", "3554": "Ġdreams", "3555": "ention", "3556": "Ġcooked", "3557": "Ġadorable", "3558": "Billy", "3559": "Ġwiped", "3560": "Ġscreen", "3561": "Ġmixer", "3562": "Ġfu", "3563": "sss", "3564": "Ġwheat", "3565": "ĠBuzz", "3566": "Mama", "3567": "Ġcompetitive", "3568": "ĠJenny", "3569": "lies", "3570": "Ġtruth", "3571": "Ġthunder", "3572": "Ġpow", "3573": "Ġdecorate", "3574": "Ġchain", "3575": "Ġsniff", "3576": "Ġlaughs", "3577": "Ġroof", "3578": "Ġpige", "3579": "Ġgrown", "3580": "Ġsoar", "3581": "Ġcharming", "3582": "Ġaut", "3583": "Ġflea", "3584": "pital", "3585": "Ġhos", "3586": "Ġimpro", "3587": "Ġslept", "3588": "Me", "3589": "Ġmotorcycle", "3590": "Ġenth", "3591": "Ġhospital", "3592": "Ġneedle", "3593": "Ġed", "3594": "sss", "3595": "Ġtrucks", "3596": "Ġshowing", "3597": "Ġnurse", "3598": "Ġbicycle", "3599": "usia", "3600": "gel", "3601": "atient", "3602": "Ġmetal", "3603": "Ġcounting", "3604": "old", "3605": "ete", "3606": "acht", "3607": "Ġrubbed", "3608": "etty", "3609": "Ġwalls", "3610": "Ġwallet", "3611": "Ġhomes", "3612": "Ġignorant", "3613": "Ġenthusia", "3614": "opter", "3615": "Ġmarry", "3616": "Ġjudge", "3617": "icopter", "3618": "Ġlime", "3619": "obile", "3620": "Ġsend", "3621": "Ġshield", "3622": "Ġsuggest", "3623": "Ġskeleton", "3624": "Ġbags", "3625": "Ġquestion", "3626": "Ġautom", "3627": "vator", "3628": "Ġskin", "3629": "Ġhelicopter", "3630": "Ġoy", "3631": "Ġplanet", "3632": "Ġimpatient", "3633": "Ġcelebrate", "3634": "Ġmedal", "3635": "Ġscatter", "3636": "Ġautomobile", "3637": "rage", "3638": "irit", "3639": "Ġbump", "3640": "Give", "3641": "Ġgor", "3642": "Ġgear", "3643": "Ġelevator", "3644": "chair", "3645": "Ġyacht", "3646": "Ġhook", "3647": "dge", "3648": "Ġkay", "3649": "Ġhaircut", "3650": "Ġfilm", "3651": "Ġweek", "3652": "Ġforth", "3653": "Ġfootball", "3654": "Ġdistur", "3655": "Ġsupport", "3656": "Ġbandage", "3657": "Ġenc", "3658": "Ġmodest", "3659": "Ġearth", "3660": "Ġdeter", "3661": "igator", "3662": "Ġdistant", "3663": "Ġcleaning", "3664": "Ġbin", "3665": "ophone", "3666": "Ġdeterm", "3667": "Ġcere", "3668": "Ġwheels", "3669": "Ġmeat", "3670": "Ġpolish", "3671": "Ġrhino", "3672": "Ġkayak", "3673": "Ġgrapes", "3674": "?\".", "3675": "Ġink", "3676": "Ġspinning", "3677": "Ġarmchair", "3678": "By", "3679": "Ġmeadow", "3680": "Ġcomplet", "3681": "Ġavocado", "3682": "uring", "3683": "ebra", "3684": "Ġdolphin", "3685": "Ġcalling", "3686": "dom", "3687": "aky", "3688": "Ġonce", "3689": "usie", "3690": "ision", "3691": "Ġwhenever", "3692": "Ġloudly", "3693": "Ġveil", "3694": "Ġswitch", "3695": "Ġalligator", "3696": "ject", "3697": "Ġmicr", "3698": "ĠTweet", "3699": "bul", "3700": "Well", "3701": "Ġsaying", "3702": "Ġplayground", "3703": "Ġpigeon", "3704": "Ġmatt", "3705": "Ġleop", "3706": "Ġdisappeared", "3707": "Ġknows", "3708": "Ġpointing", "3709": "Ġpastry", "3710": "Ġstream", "3711": "stic", "3712": "Ġtummy", "3713": "Ġmule", "3714": "Ġframe", "3715": "tern", "3716": "Ġmaze", "3717": "Ġwaffle", "3718": "Ġsneeze", "3719": "Ġmicrophone", "3720": "Ġhunter", "3721": "Ġfalls", "3722": "ament", "3723": "ushed", "3724": "Sarah", "3725": "Ġstum", "3726": "Ġbuttons", "3727": "ature", "3728": "Ġcompl", "3729": "Ġcamp", "3730": "Ġstranger", "3731": "Ġrepe", "3732": "bulance", "3733": "Ġzebra", "3734": "Ġslides", "3735": "Ġscooter", "3736": "Ġgorilla", "3737": "ĠPeter", "3738": "Ġbrothers", "3739": "ĠPolly", "3740": "phone", "3741": "ctop", "3742": "Ġmattress", "3743": "Ġbounced", "3744": "Ġstack", "3745": "Ġcereal", "3746": "Ġsung", "3747": "Ġmild", "3748": "Ġflame", "3749": "Ġcartoon", "3750": "Ġcane", "3751": "Jill", "3752": "Ġedge", "3753": "Ġambulance", "3754": "utes", "3755": "ric", "3756": "fee", "3757": "keep", "3758": "Ġlights", "3759": "Ġenthusiastic", "3760": "Ġspeak", "3761": "Ġleopard", "3762": "htub", "3763": ",âĢĿ", "3764": "Ġunlock", "3765": "Ġmem", "3766": "gue", "3767": "anda", "3768": "Ġpenguin", "3769": "ĠMar", "3770": "aroo", "3771": "Ġoctop", "3772": "Ġjellyfish", "3773": "par", "3774": "offee", "3775": "lasses", "3776": "esday", "3777": "nament", "3778": "Ġstation", "3779": "Ġreading", "3780": "Ġpassport", "3781": "Ġoats", "3782": "Ġgolf", "3783": "Jimmy", "3784": "Ġvend", "3785": "Ġtelephone", "3786": "Ġpacked", "3787": "Ġple", "3788": "Ġbathtub", "3789": "angaroo", "3790": "Ġpoke", "3791": "Ġskip", "3792": "Ġguard", "3793": "Ġvideo", "3794": "Ġpun", "3795": "ĠMum", "3796": "ney", "3797": "Ġmath", "3798": "Ġtemple", "3799": "Ġsunglasses", "3800": "Ġsheet", "3801": "Ġrake", "3802": "Ġcable", "3803": "Ġpattern", "3804": "Ġdriving", "3805": "Ġoctopus", "3806": "Ġled", "3807": "Ġchalk", "3808": "loo", "3809": "ampoo", "3810": "Ġyet", "3811": "Ġresc", "3812": "Ġvendor", "3813": "Ġkangaroo", "3814": "rosc", "3815": "Ġsalt", "3816": "Ġmanaged", "3817": "val", "3818": "Ġwishes", "3819": "Ġrealised", "3820": "Ġoyster", "3821": "Ġweep", "3822": "Ġrib", "3823": "Ġhours", "3824": "Ġglowing", "3825": "Ġig", "3826": "Ġornament", "3827": "Ġknight", "3828": "ense", "3829": "anas", "3830": "Ġhive", "3831": "Ġcolour", "3832": "Ġcups", "3833": "Ġscrew", "3834": "Ġpatch", "3835": "Ġok", "3836": "roscope", "3837": "Bye", "3838": "Ġskipped", "3839": "Ġminutes", "3840": "Ġeraser", "3841": "ĠSpike", "3842": "Ġtask", "3843": "iew", "3844": "Ġattic", "3845": "ĠZoom", "3846": "umber", "3847": "chor", "3848": "ckey", "3849": "Ġigloo", "3850": "Ġgir", "3851": "case", "3852": "ait", "3853": "Ġvest", "3854": "Ġmakeup", "3855": "aving", "3856": "Ġgrowl", "3857": "Ġflour", "3858": "Ġdiary", "3859": "ĠMiss", "3860": "ceros", "3861": "Ġshampoo", "3862": "Ġprep", "3863": "Ġmeans", "3864": "Ġhockey", "3865": "Ġbananas", "3866": "aches", "3867": "Ġtripped", "3868": "Ġsucceed", "3869": "Ġspirit", "3870": "Ġpenny", "3871": "Ġparade", "3872": "Ġoak", "3873": "Ġrolling", "3874": "Ġfireman", "3875": "was", "3876": "Ġcomplain", "3877": "Ġadded", "3878": "Ġshort", "3879": "Ġsub", "3880": "Ġcob", "3881": "Ġow", "3882": "Ġprun", "3883": "Ġopera", "3884": "Ġencou", "3885": "keeper", "3886": "Ġtowers", "3887": "Ġsplit", "3888": "Ġmissile", "3889": "Ġmen", "3890": "Ġcooking", "3891": "umb", "3892": "eer", "3893": "Ġrhinoceros", "3894": "Ġfile", "3895": "Ġcupboard", "3896": "Ġtrem", "3897": "Ġpine", "3898": "Ġskull", "3899": "Ġphoto", "3900": "ĠGive", "3901": "web", "3902": "Ġwool", "3903": "Ġview", "3904": "Ġangel", "3905": "time", "3906": "Ġwife", "3907": "ĠSnow", "3908": "gie", "3909": "Ġten", "3910": "Ġrever", "3911": "iron", "3912": "head", "3913": "Ġsteps", "3914": "Ġgiggled", "3915": "Ġcoffee", "3916": "Ġanchor", "3917": "ination", "3918": "ĠBetty", "3919": "ines", "3920": "Ġmuffin", "3921": "Ġearly", "3922": "ĠPoppy", "3923": "Ġbathrobe", "3924": "uper", "3925": "Ġtray", "3926": "Ġminer", "3927": "Ġcobweb", "3928": "ĠBirdy", "3929": "washer", "3930": "seum", "3931": "Ġmuseum", "3932": "Ġlaser", "3933": "Ġbasketball", "3934": "rework", "3935": "Ġcord", "3936": "Ġtrash", "3937": "Ġthinking", "3938": "Ġshocked", "3939": "Ġbill", "3940": "iest", "3941": "Ġsandbox", "3942": "ately", "3943": "Ġpicking", "3944": "Ġperm", "3945": "Ġhandle", "3946": "Ġtear", "3947": "Ġsepar", "3948": "Ġkindness", "3949": "ĠDan", "3950": "Ġstairs", "3951": "Ġsausage", "3952": "Ġribb", "3953": "Ġpear", "3954": "imney", "3955": "ĠPeople", "3956": "Ġvalu", "3957": "Ġfive", "3958": "Ġdetermined", "3959": "gen", "3960": "Ġspear", "3961": "Ġpractice", "3962": "Ġmint", "3963": "Ġitself", "3964": "Ġcherries", "3965": "essert", "3966": "Ġhotel", "3967": "Ġhanger", "3968": "Ġchimney", "3969": "Ġwhip", "3970": "Ġcheck", "3971": "arian", "3972": "Ġknock", "3973": "Ġcoal", "3974": "ured", "3975": "Ġrepair", "3976": "Ġmicroscope", "3977": "Ġeye", "3978": "Ġcomplete", "3979": "Ġlend", "3980": "Ġfirework", "3981": "Ġbarking", "3982": "Ġdishwasher", "3983": "Ġbaseball", "3984": "Ġstaff", "3985": "Ġfuel", "3986": "ĠLook", "3987": "place", "3988": "Ġopens", "3989": "Ġlotion", "3990": "indeer", "3991": "Ġseal", "3992": "Ġrot", "3993": "Ġholds", "3994": "iction", "3995": "Ġhall", "3996": "Ġgasp", "3997": "Ġexcitement", "3998": "Ġdessert", "3999": "ĠBessie", "4000": "Ġoil", "4001": "Ġins", "4002": "ival", "4003": "ippo", "4004": "Ġallowed", "4005": "ophy", "4006": "Ġroot", "4007": "Ġjunk", "4008": "Ġbattery", "4009": "cing", "4010": "Ġthose", "4011": "ictionary", "4012": "Ġjournal", "4013": "Ġsett", "4014": "ĠPete", "4015": "Ġhedge", "4016": "ĠPippin", "4017": "Ġreindeer", "4018": "Ġnapkin", "4019": "Ġhut", "4020": "Ġbeef", "4021": "Ġsubway", "4022": "Ġpopped", "4023": "Ġadv", "4024": "ĠSunny", "4025": "ĠBig", "4026": "stairs", "4027": "luffy", "4028": "Ġrise", "4029": "Ġeither", "4030": "Fluffy", "4031": "Ġcooler", "4032": "Ġpor", "4033": "Ġcows", "4034": "Ġoft", "4035": "Ġiron", "4036": "work", "4037": "apers", "4038": "Ġoften", "4039": "Ġdrawings", "4040": "Ġbillboard", "4041": "Ġpee", "4042": "Ġtrophy", "4043": "Ġsoil", "4044": "Ġext", "4045": "Ġpretending", "4046": "Ġfastest", "4047": "azor", "4048": "Ġsilver", "4049": "Ġdrawer", "4050": "'d", "4051": "Ġtub", "4052": "Ġsnap", "4053": "Ġpirate", "4054": "Ġtools", "4055": "Ġtaller", "4056": "Ġfalling", "4057": "Ġmarched", "4058": "Ġmay", "4059": "ready", "4060": "ron", "4061": "ofa", "4062": "ctory", "4063": "Ġfest", "4064": "xy", "4065": "play", "4066": "Ġsight", "4067": "Ġjokes", "4068": "Ġherb", "4069": "Ġdoesn", "4070": "Mr", "4071": "Ġorganize", "4072": "Ġfireplace", "4073": "ĠTina", "4074": "zag", "4075": "Ġimprove", "4076": "Ġattach", "4077": "Ġyoga", "4078": "Ġremain", "4079": "Ġdisag", "4080": "arry", "4081": "Ġsafely", "4082": "Ġpinch", "4083": "Ġhanging", "4084": "urch", "4085": "aid", "4086": "Ġpanda", "4087": "Ġjumps", "4088": "Ġsuper", "4089": "Ġclimbing", "4090": "Ġsofa", "4091": "Ġpowder", "4092": "ĠRose", "4093": "Ġrubber", "4094": "Ġfactory", "4095": "reek", "4096": "Ġhappier", "4097": "igzag", "4098": "come", "4099": "Ġvaluable", "4100": "Ġfestival", "4101": "Ġtelling", "4102": "Ġnature", "4103": "Wait", "4104": "Ġsteak", "4105": "Ġspilled", "4106": "Ġfingers", "4107": "hic", "4108": "Ġmustache", "4109": "Ġboots", "4110": "undry", "4111": "ugged", "4112": "res", "4113": "Ġmessage", "4114": "Ġhippo", "4115": "otter", "4116": "Ġdictionary", "4117": "Ġalready", "4118": "Joe", "4119": "Little", "4120": "Ġquit", "4121": "Ġberry", "4122": "Ġsym", "4123": "Ġgrowing", "4124": "ĠKim", "4125": "istol", "4126": "iches", "4127": "bol", "4128": "Ġvehic", "4129": "Ġpressed", "4130": "Ġjuicy", "4131": "Ġbuckle", "4132": "Ġblin", "4133": "Ġnotice", "4134": "Ġblackboard", "4135": "ailable", "4136": "Ġnewsp", "4137": "Ġlaundry", "4138": "Ġfog", "4139": "Ġcreek", "4140": "ĠRob", "4141": "Ġstretched", "4142": "Ġresist", "4143": "omed", "4144": "Ġtornado", "4145": "Ġstops", "4146": "Ġgrill", "4147": "Ġotter", "4148": "Ġsandwiches", "4149": "Ġsize", "4150": "Ġneat", "4151": "Ġleash", "4152": "Ġcardboard", "4153": "Ġanyway", "4154": "ĠToby", "4155": "Ġjewelry", "4156": "Ġchose", "4157": "Ġstumbled", "4158": "Ġsquirrels", "4159": "Ġenjoying", "4160": "Ġzipper", "4161": "Ġcostume", "4162": "ĠZip", "4163": "Ġbutterflies", "4164": "ĠAre", "4165": "ilet", "4166": "Ġur", "4167": "Ġagainst", "4168": "htray", "4169": "Ġpal", "4170": "Ġincl", "4171": "ium", "4172": "body", "4173": "Ġgain", "4174": "Ġchess", "4175": "lter", "4176": "Ġpackage", "4177": "Ġholes", "4178": "Ġsymbol", "4179": "Ġhurry", "4180": "Ġcliff", "4181": "Ġavailable", "4182": "ĠUn", "4183": "Ġporch", "4184": "Ġgrandpa", "4185": "Ġfort", "4186": "Ġdisplay", "4187": "ĠEverywhere", "4188": "Ġpistol", "4189": "Ġdreamed", "4190": "Ġadvice", "4191": "ucet", "4192": "Ġimagine", "4193": "Ġchurch", "4194": "ola", "4195": "Ġsailor", "4196": "Ġobject", "4197": "Ġhate", "4198": "Ġshaking", "4199": "Ġobser", "4200": "Ġfisher", "4201": "Ġmagaz", "4202": "Ġshelter", "4203": "Ġnames", "4204": "Ġcards", "4205": "ĠJazz", "4206": "ĠHere", "4207": "Ġtoilet", "4208": "Ġdiscovered", "4209": "ĠPandy", "4210": "Ġson", "4211": "Ġspoke", "4212": "Ġhung", "4213": "ucture", "4214": "fast", "4215": "Ġlip", "4216": "Ġfaucet", "4217": "Ġbathe", "4218": "Ġsweetie", "4219": "Ġriding", "4220": "Ġrece", "4221": "Ġlumber", "4222": "Ġextra", "4223": "Ġtightly", "4224": "Ġserve", "4225": "Ġpapers", "4226": "Ġstructure", "4227": "Ġreward", "4228": "Ġpalace", "4229": "Ġmummy", "4230": "Ġlic", "4231": "Ġfisherman", "4232": "Ġwast", "4233": "Ġnovel", "4234": "Mummy", "4235": "Ġoffered", "4236": "Ġblouse", "4237": "Ġroared", "4238": "Ġmusician", "4239": "stri", "4240": "Ġward", "4241": "Ġalarm", "4242": "vision", "4243": "angu", "4244": "Ġstared", "4245": "Ġprov", "4246": "Ġpastel", "4247": "ilot", "4248": "Ġfreez", "4249": "Ġashtray", "4250": "Ġwaste", "4251": "Ġtease", "4252": "Ġped", "4253": "Ġgasped", "4254": "ĠLee", "4255": "Ow", "4256": "Ġshrink", "4257": "Ġreverse", "4258": "Ġletters", "4259": "Ġcomfort", "4260": "ations", "4261": "Ġwardrobe", "4262": "aspoon", "4263": "Ġtelevision", "4264": "Ġdistance", "4265": "ince", "4266": "Ġlangu", "4267": "Ġbreakfast", "4268": "Ġgym", "4269": "Ġbikes", "4270": "Ġbeep", "4271": "ogn", "4272": "Ġsqueeze", "4273": "Ġagree", "4274": "Ġlightning", "4275": "Ġweather", "4276": "Ġbookcase", "4277": "Ġlie", "4278": "Ġlabel", "4279": "astic", "4280": "Ġteaspoon", "4281": "ĠSusie", "4282": "Ġnewspaper", "4283": "Ġtheater", "4284": "Ġbury", "4285": "Ġblueberries", "4286": "Ġwipe", "4287": "Ġrail", "4288": "Ġlugg", "4289": "Ġdisturb", "4290": "Go", "4291": "Ġleaned", "4292": "Ġlawn", "4293": "low", "4294": "alend", "4295": "Ġhelper", "4296": "Ġrecogn", "4297": "Ġpilot", "4298": "Ġsunset", "4299": "Ġsuggested", "4300": "Ġtrail", "4301": "Ġluggage", "4302": "Ġlistening", "4303": "Ġlicense", "4304": "Ġpleased", "4305": "Ġgoal", "4306": "Ġcrib", "4307": "cage", "4308": "aked", "4309": "Ġcaring", "4310": "Ġcudd", "4311": "Ġbelongs", "4312": "Ġcalend", "4313": "Ouch", "4314": "Ġseparate", "4315": "ummer", "4316": "Ġahead", "4317": "omm", "4318": "Ġweigh", "4319": "Ġwig", "4320": "Ġhappens", "4321": "Ġtwirl", "4322": "Ġsparkly", "4323": "Ġbet", "4324": "riger", "4325": "med", "4326": "asis", "4327": "Ġquiz", "4328": "Ġcarrying", "4329": "rigerator", "4330": "Ġpup", "4331": "Ġmagazine", "4332": "Ġinvite", "4333": "amber", "4334": "Ġdancer", "4335": "Ġbent", "4336": "Ġart", "4337": "Ġvehicle", "4338": "eor", "4339": "utor", "4340": "Is", "4341": "Ġfrowned", "4342": "Ġcalendar", "4343": "Ġbirdcage", "4344": "ommend", "4345": "Ġsent", "4346": "ĠCo", "4347": "Ġunpack", "4348": "Ġstickers", "4349": "ĠMrs", "4350": "Ġsticker", "4351": "Ġoasis", "4352": "Ġrefrigerator", "4353": "Ġrazor", "4354": "Ġostri", "4355": "Ġhar", "4356": "uss", "4357": "Ġolder", "4358": "Ġdisc", "4359": "Ġcabinet", "4360": "Ġstirred", "4361": "ĠOw", "4362": "!\".", "4363": "Ġrefused", "4364": "Ġairport", "4365": "Ġrecommend", "4366": "Ġdisappear", "4367": "uggled", "4368": "Ġblinked", "4369": "ĠCarl", "4370": "Ġrules", "4371": "Ġperfume", "4372": "Ġknob", "4373": "ĠAb", "4374": "ari", "4375": "Ġton", "4376": "Ġleaving", "4377": "ĠBow", "4378": "Ġsounded", "4379": "Ġpoked", "4380": "Ġpeek", "4381": "Ġax", "4382": "rmomet", "4383": "Em", "4384": "Ġimagined", "4385": "Ġswinging", "4386": "Ġbrick", "4387": "Ġanywhere", "4388": "Ġrespectful", "4389": "Ġleak", "4390": "Ġbeg", "4391": "Ġaccept", "4392": "Ġthermomet", "4393": "Ġremove", "4394": "Ġolive", "4395": "chan", "4396": "affe", "4397": "Ġtutor", "4398": "Ġproblems", "4399": "Ġpainter", "4400": "Ġpair", "4401": "Ġfrogs", "4402": "Ġchasing", "4403": "ĠBuzzy", "4404": "adium", "4405": "Ġthermometer", "4406": "Ġmonkeys", "4407": "Ġdreaming", "4408": "Ġadmired", "4409": "aurant", "4410": "Ġtuna", "4411": "Ġchance", "4412": "Ġceiling", "4413": "rod", "4414": "ience", "4415": "Ġsaving", "4416": "Ġdrain", "4417": "Ġdelay", "4418": "helf", "4419": "Ġrestaurant", "4420": "Ġmeeting", "4421": "Ġlid", "4422": "Ġfought", "4423": "Ġchamber", "4424": "Ġzoomed", "4425": "Ġstadium", "4426": "Ġstable", "4427": "Ġmistakes", "4428": "ison", "4429": "Grandma", "4430": "Ġsummer", "4431": "Ġgrabs", "4432": "ĠTeddy", "4433": "Ġwinter", "4434": "Ġwine", "4435": "Ġsuff", "4436": "Ġbookshelf", "4437": "Ġribbon", "4438": "Ġaccidentally", "4439": "ĠWhere", "4440": "aul", "4441": "Ġrac", "4442": "Ġpeeked", "4443": "ĠOlive", "4444": "ĠHel", "4445": "Ġrescue", "4446": "Ġostrich", "4447": "Ġfavour", "4448": "Ġaxe", "4449": "Ġmineral", "4450": "Ġfreezer", "4451": "urnit", "4452": "urniture", "4453": "ected", "4454": "Ġwarned", "4455": "Ġmeas", "4456": "Ġsadly", "4457": "Ġranch", "4458": "Ġforgave", "4459": "Ġpushing", "4460": "Ġfixing", "4461": "Ġstarts", "4462": "Ġputting", "4463": "Your", "4464": "Did", "4465": "Ġree", "4466": "Ġcountry", "4467": "Ġappl", "4468": "Ġwindows", "4469": "Ġuniverse", "4470": "Ġshouts", "4471": "Ġreef", "4472": "Ġgiraffe", "4473": "Ġadmire", "4474": "ĠSe", "4475": "Ġneighb", "4476": "Ġintrod", "4477": "Ġshower", "4478": "Ġcircles", "4479": "Daisy", "4480": "Ġtrade", "4481": "Ġfurniture", "4482": "Ġevening", "4483": "Ġrestore", "4484": "Ġhanded", "4485": "Ġfavourite", "4486": "Ġcur", "4487": "Ġlanguage", "4488": "thank", "4489": "Ġyield", "4490": "Ġunite", "4491": "Ġport", "4492": "Ġgas", "4493": "ĠSm", "4494": "Ġstom", "4495": "Ġplayer", "4496": "Ġincre", "4497": "Ġchairs", "4498": "wards", "4499": "Ġharbor", "4500": "Ġgrape", "4501": "Ġcell", "4502": "Ġswung", "4503": "Ġrushed", "4504": "Ġsearching", "4505": "Ġpage", "4506": "vet", "4507": "rise", "4508": "oof", "4509": "Ġprevent", "4510": "Ġplastic", "4511": "yer", "4512": "Ġmenu", "4513": "Ġgrand", "4514": "Ġabove", "4515": "Ġaw", "4516": "ĠNext", "4517": "iform", "4518": "Ġslip", "4519": "Ġpages", "4520": "Ġmissing", "4521": "eorge", "4522": "Ġhoping", "4523": "ĠAn", "4524": "Yay", "4525": "Ġchoice", "4526": "Ġmass", "4527": "hero", "4528": "Ġtrains", "4529": "Ġjail", "4530": "Ġhuman", "4531": "Ġswamp", "4532": "elcome", "4533": "Ġuniform", "4534": "eterin", "4535": "eterinarian", "4536": "ecause", "4537": "Ġmatches", "4538": "ĠRed", "4539": "eady", "4540": "Ġveterinarian", "4541": "Ġsunrise", "4542": "olog", "4543": "Ġsuperhero", "4544": "Ġignore", "4545": "Ġdiscuss", "4546": "Ġdelighted", "4547": "Ġbrightly", "4548": "Ġsupply", "4549": "Ġregret", "4550": "Ġfreeze", "4551": "ik", "4552": "iki", "4553": "Ġmeowed", "4554": "Ġcolourful", "4555": "Ġcopper", "4556": "ĠWould", "4557": "Yuck", "4558": "Ġsniffed", "4559": "Ġpanic", "4560": "Ġargue", "4561": "ĠBoun", "4562": "cast", "4563": "Ġheads", "4564": "Ġfinds", "4565": "Se", "4566": "See", "4567": "Ġtip", "4568": "Ġsneezed", "4569": "Ġshivering", "4570": "chanic", "4571": "Ġproudly", "4572": "Ġpoints", "4573": "Ġkinds", "4574": "ĠV", "4575": "Ġshakes", "4576": "ĠMike", "4577": "ipping", "4578": "Ġsudden", "4579": "Ġkeeping", "4580": "Ġclassroom", "4581": "ĠGrandpa", "4582": "render", "4583": "Ġspoil", "4584": "Ġbend", "4585": "ĠDolly", "4586": "ĠBinky", "4587": "Ġfeelings", "4588": "Ġchickens", "4589": "ĠGr", "4590": "Ġsurprises", "4591": "ĠOr", "4592": "ĠEllie", "4593": "peedy", "4594": "cond", "4595": "Ġtide", "4596": "Ġnavy", "4597": "Ġlawyer", "4598": "ĠBee", "4599": "Ġmechanic", "4600": "Ġpulls", "4601": "Ġshone", "4602": "Ġsoftly", "4603": "Ġpuddles", "4604": "Ġplates", "4605": "house", "4606": "Ġrepeat", "4607": "Ġexcitedly", "4608": "reck", "4609": "Ġletting", "4610": "Ġended", "4611": "Ġdoors", "4612": "Ġapron", "4613": "bles", "4614": "Ġstrawberries", "4615": "Ġsecond", "4616": "Ġfloat", "4617": "alley", "4618": "Ġraise", "4619": "Ġgro", "4620": "ĠHoppy", "4621": "ĠBill", "4622": "arlie", "4623": "Ġshoulder", "4624": "Ġprepare", "4625": "Ġshovel", "4626": "Ġsandcast", "4627": "Ġexamine", "4628": "Ġbreat", "4629": "Ġmodel", "4630": "Ġclapping", "4631": "Ġreve", "4632": "Ġmall", "4633": "Ġkneel", "4634": "Ġappla", "4635": "ĠEnd", "4636": "lex", "4637": "Mary", "4638": "ippery", "4639": "Will", "4640": "Ġsomewhere", "4641": "Ġrow", "4642": "Ġpigs", "4643": "icer", "4644": "Ġsprayed", "4645": "Ġlions", "4646": "Ġpushes", "4647": "Ġjogged", "4648": "Ġslippery", "4649": "Ġmystery", "4650": "Next", "4651": "Ġthrowing", "4652": "Ġthanks", "4653": "Ġclaw", "4654": "ĠFreddy", "4655": "apping", "4656": "ĠAlice", "4657": "imed", "4658": "Ġreminded", "4659": "Ġlives", "4660": "Ġapolog", "4661": "mare", "4662": "Ġbarks", "4663": "ĠZoomy", "4664": "ĠJohnny", "4665": "Ġdear", "4666": "Ġcared", "4667": "Ġvalley", "4668": "Ġreveal", "4669": "Ġflies", "4670": "Ġscoop", "4671": "Ġgiggle", "4672": "Ġcherry", "4673": "hest", "4674": "Ġsurrender", "4675": "Ġreplace", "4676": "Ġfre", "4677": "Ready", "4678": "Mark", "4679": "Ġener", "4680": "ides", "4681": "Ġsticky", "4682": "quest", "4683": "Ġunh", "4684": "sity", "4685": "Ġskill", "4686": "Ġstrip", "4687": "Ġcastles", "4688": "ĠHelp", "4689": "iday", "4690": "Ġdrops", "4691": "Ġprayed", "4692": "Ġbrighter", "4693": "Ġnightmare", "4694": "Ġenter", "4695": "heart", "4696": "Buddy", "4697": "Ġhurric", "4698": "Ġsteam", "4699": "Ġrush", "4700": "All", "4701": "Ġscore", "4702": "Ġflapped", "4703": "Ġbumped", "4704": "Ġsocks", "4705": "Ġmention", "4706": "acked", "4707": "Ġsplashing", "4708": "ittens", "4709": "Ġsuffer", "4710": "Ġinvit", "4711": "ophie", "4712": "Ġtracks", "4713": "icky", "4714": "ero", "4715": "Ġsqueezed", "4716": "Ġrooms", "4717": "Ġparts", "4718": "Ġlaught", "4719": "Ġdishes", "4720": "Ġbuzz", "4721": "Ġstarting", "4722": "Ġrequest", "4723": "Ġhol", "4724": "Ġlaughter", "4725": "ĠFinny", "4726": "Ġunhappy", "4727": "Ġhurricane", "4728": "Ġheat", "4729": "ĠBub", "4730": "ement", "4731": "Ġcoats", "4732": "reeze", "4733": "Ġgreedy", "4734": "xygen", "4735": "Ġspade", "4736": "Ġpirates", "4737": "Ġmassage", "4738": "Ġeaten", "4739": "Ġraining", "4740": "Ġinf", "4741": "Ġimpressed", "4742": "Ġbears", "4743": "ĠSpeedy", "4744": "uggle", "4745": "ason", "4746": "Ġsmells", "4747": "ĠLola", "4748": "Ġbackpack", "4749": "Ġalive", "4750": "Ġprovide", "4751": "ippy", "4752": "gth", "4753": "Ġsparkled", "4754": "Ġpunish", "4755": "Ġholiday", "4756": "Ġbelieved", "4757": "ann", "4758": "edn", "4759": "Ġx", "4760": "ially", "4761": "ednesday", "4762": "Ġtug", "4763": "ween", "4764": "ĠFox", "4765": "Ġupstairs", "4766": "Ġstud", "4767": "Ġleather", "4768": "Ġdaisy", "4769": "Ġbreaks", "4770": "ĠKiki", "4771": "Ġcontent", "4772": "Ġfresh", "4773": "ĠSque", "4774": "inking", "4775": "igi", "4776": "Ġexplored", "4777": "Ġscratch", "4778": "Ġscold", "4779": "Ġflood", "4780": "Ġcourage", "4781": "Ġchirp", "4782": "year", "4783": "lice", "4784": "Alice", "4785": "Ġsandcastle", "4786": "Ġbetween", "4787": "Ġrabbits", "4788": "Ġdare", "4789": "Ġwreck", "4790": "ĠUnder", "4791": "men", "4792": "Ġweap", "4793": "Ġbadly", "4794": "Ġsettle", "4795": "Ġminute", "4796": "Ġvac", "4797": "Ġinsisted", "4798": "Ġenergy", "4799": "Ġdem", "4800": "Ġcrossed", "4801": "ĠDave", "4802": "ges", "4803": "Ġyawn", "4804": "Ġtwisted", "4805": "Ġtrusted", "4806": "Ġrained", "4807": "Ġpalm", "4808": "Ġyawned", "4809": "Ġsigh", "4810": "Ġgiven", "4811": "Ġchecked", "4812": "ĠMummy", "4813": "Ġsweetheart", "4814": "erc", "4815": "Ġignored", "4816": "ĠLilly", "4817": "ĠY", "4818": "Ann", "4819": "Ġlear", "4820": "Ġhorses", "4821": "ĠSk", "4822": "ĠElly", "4823": "izes", "4824": "Ġsport", "4825": "Ġcheek", "4826": "ĠIs", "4827": "ĠEl", "4828": "spec", "4829": "reat", "4830": "Ġthrows", "4831": "Ġlearnt", "4832": "Before", "4833": "ĠWednesday", "4834": "ley", "4835": "Lisa", "4836": "Daddy", "4837": "Ġevent", "4838": "ĠTw", "4839": "Ġstren", "4840": "Ġpitch", "4841": "ĠRo", "4842": "isty", "4843": "Ġexpect", "4844": "Ġbouncing", "4845": "yth", "4846": "specially", "4847": "ifi", "4848": "Ġpad", "4849": "Ġclaws", "4850": "ythm", "4851": "Ġsoak", "4852": "Ġshrugged", "4853": "ĠOwl", "4854": "ffic", "4855": "Ġimagination", "4856": "Ġtoe", "4857": "Ġplanes", "4858": "Ġequ", "4859": "Ġsnowball", "4860": "Ġplaced", "4861": "Ġmyself", "4862": "ĠPat", "4863": "tain", "4864": "Jenny", "4865": "Ġwarn", "4866": "Ġstrength", "4867": "Ġslap", "4868": "Ġthumb", "4869": "Ġpoison", "4870": "Ġblowing", "4871": "ĠMittens", "4872": "ĠSu", "4873": "Ġtour", "4874": "Ġheel", "4875": "rec", "4876": "Ġbother", "4877": "ĠSnowy", "4878": "Emma", "4879": "Ġrhythm", "4880": "Ġimage", "4881": "Ġeasily", "4882": "Ġcub", "4883": "Ġbeauty", "4884": "Ġoffer", "4885": "Ġobserve", "4886": "Ġcalls", "4887": "Ġbaking", "4888": "Ġing", "4889": "Ġluck", "4890": "Ġinclude", "4891": "Ġvacation", "4892": "Ġtraffic", "4893": "Ġspots", "4894": "Ġshopkeeper", "4895": "Ġmice", "4896": "Ġespecially", "4897": "enry", "4898": "Ġplanned", "4899": "illie", "4900": "Ġprune", "4901": "ĠSee", "4902": "Ġwhistled", "4903": "Ġingred", "4904": "Ġfollowing", "4905": "ĠHave", "4906": "ĠChe", "4907": "yle", "4908": "noon", "4909": "aggie", "4910": "Fred", "4911": "Ġpur", "4912": "Ġfloated", "4913": "Ġdemand", "4914": "ecture", "4915": "Welcome", "4916": "Ġvroom", "4917": "Ġingredient", "4918": "Ġhearts", "4919": "Ġblueberry", "4920": "riage", "4921": "ores", "4922": "isses", "4923": "Ġfolded", "4924": "Ġentered", "4925": "Ġattention", "4926": "Ġafternoon", "4927": "Ġwaving", "4928": "Ġkisses", "4929": "Ġfollows", "4930": "bing", "4931": "Ġworms", "4932": "Ġweapon", "4933": "Ġpaid", "4934": "ĠSte", "4935": "quake", "4936": "Ġracing", "4937": "Ġpermit", "4938": "Ġcrash", "4939": "resses", "4940": "eme", "4941": "ĠBubbles", "4942": "Ġlecture", "4943": "Ġnation", "4944": "ĠSqu", "4945": "ĠPinky", "4946": "otten", "4947": "Ġyucky", "4948": "Ġrelease", "4949": "Ġencourage", "4950": "Ġcomf", "4951": "Ġchewed", "4952": "Ġquietly", "4953": "Ġgaz", "4954": "oves", "4955": "Ġintroduce", "4956": "Ġincrease", "4957": "Ġshouting", "4958": "Ġoxygen", "4959": "bling", "4960": "Ġtremble", "4961": "Ġsir", "4962": "Ġrecognize", "4963": "Ġhist", "4964": "Ġexerc", "4965": "Ġclimbs", "4966": "mem", "4967": "Ġprice", "4968": "Ġnobody", "4969": "Ġgrowled", "4970": "Ġearthquake", "4971": "Ġburied", "4972": "ĠPip", "4973": "ecting", "4974": "atched", "4975": "Ġwisdom", "4976": "Ġwags", "4977": "Ġsafari", "4978": "Ġfurt", "4979": "ĠMandy", "4980": "ĠBluey", "4981": "Ġlemonade", "4982": "Ġhopes", "4983": "Ġsew", "4984": "ĠGeorge", "4985": "Ġteaching", "4986": "Ġinfant", "4987": "Ġsteel", "4988": "Ġingredients", "4989": "Ġhistory", "4990": "Ġexcl", "4991": "Ġburned", "4992": "anges", "4993": "aker", "4994": "Ġconf", "4995": "ring", "4996": "Ġsailing", "4997": "Ġpoppy", "4998": "ĠPaul", "4999": "Ġbelow", "5000": "reci", "5001": "Ġvanished", "5002": "Ġstruggle", "5003": "Ġstair", "5004": "Ġpulling", "5005": "Ġgloves", "5006": "ĠFifi", "5007": "emember", "5008": "Ġtwisty", "5009": "Ġhills", "5010": "Ġbeans", "5011": "ĠGigi", "5012": "Qu", "5013": "Ġinvitation", "5014": "Ġfurther", "5015": "ĠWho", "5016": "ĠTu", "5017": "Ġexcla", "5018": "Ġcaptain", "5019": "eration", "5020": "ccer", "5021": "Ġmoves", "5022": "Ġdresses", "5023": "..", "5024": "Ġmarriage", "5025": "ury", "5026": "Ġmailman", "5027": "Ġappreci", "5028": "ipment", "5029": "Ġzigzag", "5030": "Ġwinning", "5031": "Ġuniversity", "5032": "Ġpedal", "5033": "Ġchores", "5034": "ĠAlex", "5035": "Ġclosely", "5036": "ddy", "5037": "Ġflap", "5038": "look", "5039": "anny", "5040": "Ġsnuggled", "5041": "Ġreaches", "5042": "Ġpillows", "5043": "Ġequipment", "5044": "ups", "5045": "Today", "5046": "Ġsimp", "5047": "Ġexclaimed", "5048": "Woof", "5049": "Ġspike", "5050": "Ġsnail", "5051": "Ġwob", "5052": "Ġdigging", "5053": "ĠJoey", "5054": "Ġsoccer", "5055": "Ġeagerly", "5056": "Ġcape", "5057": "Ġbrain", "5058": "ops", "5059": "Ġsizes", "5060": "ena", "5061": "ĠTed", "5062": "Ġwriting", "5063": "Ġwandered", "5064": "Ġstuffed", "5065": "Ġpetals", "5066": "Ġpies", "5067": "ĠPr", "5068": "Ġwashing", "5069": "Ġbouncy", "5070": "Ġapart", "5071": "pted", "5072": "akes", "5073": "Ġworth", "5074": "Ġstomach", "5075": "Ġmemory", "5076": "Ġble", "5077": "ĠLucky", "5078": "Everyone", "5079": "Ġspoons", "5080": "Ġseeing", "5081": "Ġideas", "5082": "Ġelephants", "5083": "ĠGood", "5084": "Ġzipped", "5085": "ĠMe", "5086": "right", "5087": "With", "5088": "These", "5089": "Mimi", "5090": "Ġvanish", "5091": "Ġstrike", "5092": "ĠMaria", "5093": "sters", "5094": "sed", "5095": "ories", "5096": "oral", "5097": "iggly", "5098": "Ġquite", "5099": "Ġplays", "5100": "Ġblood", "5101": "ĠFroggy", "5102": "ĠDanny", "5103": "Ġsolved", "5104": "Ġoh", "5105": "Ġlicks", "5106": "Ġhon", "5107": "Ġagre", "5108": "Ġrang", "5109": "Ġdisagree", "5110": "Ġacorns", "5111": "ĠBo", "5112": "nce", "5113": "Ġunderground", "5114": "ĠFinn", "5115": "Ġfallen", "5116": "Ġoperation", "5117": "Ġencoura", "5118": "Ġdried", "5119": "Ġbreathe", "5120": "Ġmarried", "5121": "Ġexper", "5122": "Ġaccepted", "5123": "ĠZara", "5124": "ĠTony", "5125": "ĠSharing", "5126": "ĠSund", "5127": "Ġfro", "5128": "ĠSqueaky", "5129": "Ġnetwork", "5130": "Ġkitty", "5131": "Ġhurting", "5132": "ĠBounce", "5133": "utter", "5134": "Ġmama", "5135": "ĠWhenever", "5136": "uct", "5137": "hood", "5138": "Ġweb", "5139": "Ġtomatoes", "5140": "Ġprunes", "5141": "Ġpinched", "5142": "Ġhits", "5143": "Ġappear", "5144": "ĠTilly", "5145": "uby", "5146": "cery", "5147": "Ġtrave", "5148": "Ġsits", "5149": "Ġcounter", "5150": "Ġcakes", "5151": "Ġbrings", "5152": "Ġworse", "5153": "Ġskills", "5154": "Ġgifts", "5155": "xury", "5156": "uxury", "5157": "orted", "5158": "chie", "5159": "anna", "5160": "Yum", "5161": "Ġsnapped", "5162": "Ġlemons", "5163": "Ġisn", "5164": "looking", "5165": "Ġsigns", "5166": "Ġmarbles", "5167": "Ġgrocery", "5168": "Ġdeeper", "5169": "ĠGrace", "5170": "ĠCharlie", "5171": "unately", "5172": "uded", "5173": "ents", "5174": "Ġfash", "5175": "ĠTuesday", "5176": "ĠSunday", "5177": "ĠDog", "5178": "Ġplanted", "5179": "ĠSophie", "5180": "Ġdestroyed", "5181": "ĠâĢĵ", "5182": "Because", "5183": "Ġeasier", "5184": "Ġpuzzles", "5185": "Ġpeanuts", "5186": "Ġfashion", "5187": "etch", "5188": "Ġraised", "5189": "Ġblink", "5190": "Ġsorting", "5191": "Ġresp", "5192": "Ġdressed", "5193": "Not", "5194": "Ġweight", "5195": "Ġscattered", "5196": "Ġmuddy", "5197": "Ġfloating", "5198": "ĠHarry", "5199": "cus", "5200": "Ġwhisper", "5201": "Ġpupil", "5202": "ĠBy", "5203": "Ġbricks", "5204": "Ġsip", "5205": "Ġwaist", "5206": "Ġcreatures", "5207": "Ġurge", "5208": "Ġprints", "5209": "aped", "5210": "Ġwelcomed", "5211": "Ġtwirled", "5212": "Ġjazz", "5213": "ĠSmith", "5214": "ĠMo", "5215": "osie", "5216": "Remy", "5217": "Ġfamil", "5218": "Ġwatered", "5219": "Ġsprink", "5220": "Ġscolded", "5221": "Ġreceive", "5222": "Ġallow", "5223": "ĠSky", "5224": "ĠLiz", "5225": "ĠEverything", "5226": "ising", "5227": "eep", "5228": "Ġmemories", "5229": "ester", "5230": "Surpr", "5231": "Ġstyle", "5232": "Ġlined", "5233": "Ġinst", "5234": "Ġgolden", "5235": "Ġbones", "5236": "Ġpaused", "5237": "Ġvisited", "5238": "Ġblankets", "5239": "une", "5240": "apa", "5241": "Ġwarning", "5242": "Ġneighbour", "5243": "Ġcatching", "5244": "ĠWally", "5245": "ssible", "5246": "medi", "5247": "Ġweeping", "5248": "Ġluxury", "5249": "Ġcreated", "5250": "int", "5251": "Ġsliding", "5252": "Ġpeaches", "5253": "Ġhadn", "5254": "bie", "5255": "Ġbeds", "5256": "mediately", "5257": "Ġunlocked", "5258": "Ġcandles", "5259": "atie", "5260": "Ġbites", "5261": "ĠGod", "5262": "ishes", "5263": "ips", "5264": "Ġsimple", "5265": "Ġhers", "5266": "Ġbaked", "5267": "Ġbur", "5268": "Ġshed", "5269": "Ġsince", "5270": "Ġmeasured", "5271": "Ġgazed", "5272": "Ġcartoons", "5273": "Moral", "5274": "Ġwinner", "5275": "Ġtreasures", "5276": "Ġstraight", "5277": "esterday", "5278": "Ġruin", "5279": "Ġwagging", "5280": "Ġhighest", "5281": "Ġcrow", "5282": "ĠUncle", "5283": "ĠQu", "5284": "ucked", "5285": "Ġvel", "5286": "Ġshined", "5287": "Ġmanage", "5288": "Ġexercise", "5289": "ĠEventually", "5290": "bug", "5291": "act", "5292": "Ok", "5293": "Ġvict", "5294": "Ġpears", "5295": "Ġlily", "5296": "Ġcutting", "5297": "ĠMay", "5298": "ety", "5299": "Ġvelvet", "5300": "Ġmentioned", "5301": "Ġdifference", "5302": "ĠTuna", "5303": "ĠJul", "5304": "ived", "5305": "choo", "5306": "Ġsorted", "5307": "ĠPenny", "5308": "Ġforgotten", "5309": "ĠToto", "5310": "ĠHope", "5311": "Bella", "5312": "Ġoranges", "5313": "Ġmelting", "5314": "Ġdecorations", "5315": "Ġapplaud", "5316": "ĠPepper", "5317": "Ġpresents", "5318": "Ġbye", "5319": "Ġbleed", "5320": "ĠCoco", "5321": "sit", "5322": "Surprise", "5323": "Ġkingdom", "5324": "Ġjogging", "5325": "Ġdared", "5326": "Ġpoems", "5327": "Ġdinosaurs", "5328": "omeday", "5329": "night", "5330": "Ġzero", "5331": "Ġpra", "5332": "Ġnowhere", "5333": "Ġemer", "5334": "Ġprett", "5335": "Ġesc", "5336": "Ġcelebrated", "5337": "aded", "5338": "Ġstrang", "5339": "Ġslice", "5340": "Ġseats", "5341": "Ġnone", "5342": "Ġcras", "5343": "Ġattached", "5344": "Ġsorts", "5345": "Ġbreeze", "5346": "Ġwaffles", "5347": "Ġunderstanding", "5348": "Ġdisagreed", "5349": "ĠBefore", "5350": "ĠBoo", "5351": "Ġstro", "5352": "Ġshot", "5353": "Ġmouths", "5354": "Ġmelted", "5355": "Ġguessed", "5356": "Ġbreaking", "5357": "Ġbalan", "5358": "ĠEach", "5359": "Ġpunished", "5360": "Ġlandscape", "5361": "Ġexit", "5362": "Ġstitch", "5363": "Ġduring", "5364": "Ġcones", "5365": "ĠWiggly", "5366": "lue", "5367": "Goodbye", "5368": "Ġkicking", "5369": "ĠSuzy", "5370": "ĠClara", "5371": "Ġwhistling", "5372": "Ġtrapped", "5373": "Ġstrangers", "5374": "Ġfetch", "5375": "ien", "5376": "'ve", "5377": "Ġsomeday", "5378": "Ġperfectly", "5379": "ĠRock", "5380": "eath", "5381": "avid", "5382": "Ġopin", "5383": "Ġmarching", "5384": "ĠKing", "5385": "Ġtwigs", "5386": "Ġmuscles", "5387": "Ġcollected", "5388": "ĠAm", "5389": "osed", "5390": "umes", "5391": "oved", "5392": "ib", "5393": "Ġvictory", "5394": "Ġseason", "5395": "ishing", "5396": "fortunately", "5397": "Andy", "5398": "Ġgrin", "5399": "Ġgrant", "5400": "Ġacted", "5401": "Ġpets", "5402": "Ġolives", "5403": "Ġbowed", "5404": "Ġpiles", "5405": "ship", "5406": "ission", "5407": "Ġwink", "5408": "Ġours", "5409": "walk", "5410": "Meow", "5411": "Ġfireworks", "5412": "Ġburning", "5413": "ĠSlow", "5414": "ĠHenry", "5415": "uzz", "5416": "kins", "5417": "Ġsore", "5418": "Ġskipping", "5419": "Ġjewels", "5420": "ĠRosie", "5421": "vest", "5422": "Ġtext", "5423": "Ġflat", "5424": "ĠStar", "5425": "Ġlaid", "5426": "Ġencouraged", "5427": "sing", "5428": "Ġshouldn", "5429": "Ġresult", "5430": "Ġladybug", "5431": "ĠGreen", "5432": "Ġsurround", "5433": "Ġsisters", "5434": "Ġhurried", "5435": "Ġfishing", "5436": "Ġtoes", "5437": "Ġteasing", "5438": "ĠDr", "5439": "isten", "5440": "Ġurged", "5441": "Ġtexture", "5442": "Ġpotatoes", "5443": "Ġcostumes", "5444": "Ġappreciate", "5445": "ĠHappy", "5446": "ĠDino", "5447": "plash", "5448": "Ġsix", "5449": "Ġkneeled", "5450": "Ġbrus", "5451": "abies", "5452": "Ġtongue", "5453": "Ġspit", "5454": "Ġpaints", "5455": "Ġdrinking", "5456": "Ġbegged", "5457": "ĠFollow", "5458": "inda", "5459": "Ġsidewalk", "5460": "Ġpermission", "5461": "Ġpearl", "5462": "Ġmixing", "5463": "oot", "5464": "Ġwarmth", "5465": "Ġselling", "5466": "Ġordered", "5467": "Ġimmediately", "5468": "Ġlets", "5469": "Ġexperience", "5470": "ĠThese", "5471": "ĠKate", "5472": "ther", "5473": "Ġscratched", "5474": "Ġlands", "5475": "Ġago", "5476": "ids", "5477": "Ġsupposed", "5478": "ĠRabbit", "5479": "ored", "5480": "Ġtrembling", "5481": "Ġtore", "5482": "Ġlips", "5483": "ĠZigzag", "5484": "izing", "5485": "Ġroots", "5486": "iers", "5487": "Ġtwink", "5488": "Momo", "5489": "Ġsoaked", "5490": "Ġclaps", "5491": "ĠMillie", "5492": "ĠJames", "5493": "boo", "5494": "Blue", "5495": "Ġcrunch", "5496": "Ġappro", "5497": "ĠRuby", "5498": "Ġwiggle", "5499": "Ġrested", "5500": "Ġplaytime", "5501": "Ġbang", "5502": "ĠDe", "5503": "Ġturning", "5504": "Ġscreams", "5505": "Ġrecor", "5506": "Ġescaped", "5507": "Ġcurled", "5508": "ĠSandy", "5509": "Ġsetting", "5510": "Ġlung", "5511": "ĠHop", "5512": "!\",", "5513": "Ġsucceeded", "5514": "Ġstrings", "5515": "Ġstealing", "5516": "Ġringing", "5517": "Ġrelaxed", "5518": "Ġprinted", "5519": "Ġmeow", "5520": "Ġheaded", "5521": "Ġflav", "5522": "Ġadmir", "5523": "ĠAnnie", "5524": "ding", "5525": "\",", "5526": "Ġsneak", "5527": "Ġshock", "5528": "Ġreceived", "5529": "icing", "5530": "Ġwest", "5531": "Ġrides", "5532": "Ġcollection", "5533": "Ġanswers", "5534": "Boo", "5535": "Ġmatched", "5536": "ĠSpark", "5537": "Ġmittens", "5538": "Ġemergen", "5539": "Ġchewing", "5540": "ĠPapa", "5541": "Ġtonight", "5542": "Ġstudied", "5543": "Ġsafety", "5544": "Ġremained", "5545": "Ġmoments", "5546": "Ġleader", "5547": "Ġcolours", "5548": "ĠPl", "5549": "ĠBoth", "5550": "osity", "5551": "arth", "5552": "Ġpatterns", "5553": "Ġknown", "5554": "Ġcubes", "5555": "Ġbabies", "5556": "ĠIts", "5557": "Sammy", "5558": "Ġwaits", "5559": "Ġtouching", "5560": "Ġthreat", "5561": "Ġmonsters", "5562": "Ġitem", "5563": "ĠCar", "5564": "allen", "5565": "Mm", "5566": "Mmm", "5567": "Ġkeys", "5568": "Ġbroom", "5569": "Ġbeat", "5570": "Ġsoldiers", "5571": "Ġbravely", "5572": "zing", "5573": "ction", "5574": "Bird", "5575": "Ġwatches", "5576": "Ġsoared", "5577": "igail", "5578": "Emily", "5579": "Ġserved", "5580": "Ġkeeper", "5581": "Ġarea", "5582": "!'", "5583": "Ġtwin", "5584": "Ġtickle", "5585": "Ġgirls", "5586": "Ġbrid", "5587": "please", "5588": "Ġvet", "5589": "Ġlick", "5590": "ĠRe", "5591": "ĠLizzy", "5592": "Ġscaring", "5593": "Ġresting", "5594": "Ġpraised", "5595": "Ġfoods", "5596": "ĠZo", "5597": "ĠDid", "5598": "irring", "5599": "Ġripped", "5600": "Ġofficer", "5601": "Ġdownstairs", "5602": "Jen", "5603": "Ġshadows", "5604": "Ġmarks", "5605": "Ġalright", "5606": "ĠMaggie", "5607": "izard", "5608": "Ġvoices", "5609": "Ġpeel", "5610": "Ġmeasuring", "5611": "Ġfamilies", "5612": "Ġcontest", "5613": "ped", "5614": "antly", "5615": "Ġprinter", "5616": "Ġinstr", "5617": "Ġeats", "5618": "ĠMilly", "5619": "Ġshopping", "5620": "Ġsettled", "5621": "Ġbridges", "5622": "zen", "5623": "Ġquack", "5624": "Ġinvest", "5625": "Ġemergency", "5626": "Ġdads", "5627": "Ġchallen", "5628": "Eventually", "5629": "ĠSc", "5630": "ĠNot", "5631": "cious", "5632": "Would", "5633": "Peter", "5634": "Ġsings", "5635": "Ġrul", "5636": "Ġmister", "5637": "Ġlines", "5638": "Ġimportance", "5639": "Ġglowed", "5640": "eally", "5641": "Really", "5642": "Bobby", "5643": "Ġfed", "5644": "Ġeast", "5645": "Ġsilence", "5646": "Ġmuffins", "5647": "Ġbringing", "5648": "ĠEn", "5649": "ĠBaby", "5650": "oys", "5651": "Ġradishes", "5652": "Ġinvestig", "5653": "Ġhesit", "5654": "fied", "5655": "Ġtheirs", "5656": "Ġhi", "5657": "ĠSteve", "5658": "ites", "5659": "hind", "5660": "Ġyouth", "5661": "Ġstirring", "5662": "Ġnaps", "5663": "ĠFrog", "5664": "Ġwooden", "5665": "Ġnoon", "5666": "Ġbeamed", "5667": "ĠChr", "5668": "Ġstruck", "5669": "Ġslapped", "5670": "ĠPo", "5671": "Ġwizard", "5672": "Ġremem", "5673": "Ġpossible", "5674": "Ġfields", "5675": "Ġdisturbed", "5676": "Ġamazement", "5677": "ĠSomething", "5678": "Cat", "5679": "Ġremembers", "5680": "Ġgust", "5681": "ĠMon", "5682": "aved", "5683": "Ġspaceship", "5684": "Ġfrozen", "5685": "ĠStop", "5686": "Ġpupp", "5687": "Ġnails", "5688": "Ġdrinks", "5689": "Ġcollecting", "5690": "ora", "5691": "Ġsneaky", "5692": "Ġinvestigate", "5693": "Ġarg", "5694": "ĠOut", "5695": "ern", "5696": "ays", "5697": "aty", "5698": "Ġsparkle", "5699": "Ġkeeps", "5700": "Ġherbs", "5701": "Ġtucked", "5702": "ĠSpring", "5703": "ĠFirst", "5704": "ilo", "5705": "Ġscrub", "5706": "Ġrubbing", "5707": "Ġobe", "5708": "Ġnicer", "5709": "Ġachie", "5710": "uggling", "5711": "uke", "5712": "ities", "5713": "ales", "5714": "Ġnapping", "5715": "ĠJam", "5716": "Ġopinion", "5717": "Ġinch", "5718": "ĠOnce", "5719": "mother", "5720": "att", "5721": "Ġtricked", "5722": "Ġsprinkles", "5723": "ĠBeep", "5724": "hello", "5725": "Happy", "5726": "Ġtraveled", "5727": "Ġfiremen", "5728": "Ġcrashed", "5729": "ĠLater", "5730": "ler", "5731": "imy", "5732": "Ġworker", "5733": "Ġweighed", "5734": "Ġrecorded", "5735": "Ġpedals", "5736": "ĠDavid", "5737": "ĠAlways", "5738": "Rex", "5739": "Ġscooped", "5740": "ĠSomeone", "5741": "Jake", "5742": "Ġprecious", "5743": "Ġdot", "5744": "Ġbelly", "5745": "ĠEarth", "5746": "ĠChicky", "5747": "iggy", "5748": "Ġworks", "5749": "Ġpebbles", "5750": "ĠDare", "5751": "hee", "5752": "Mandy", "5753": "Ġtrips", "5754": "Ġourselves", "5755": "Ġcircus", "5756": "urry", "5757": "die", "5758": "Have", "5759": "Ġdire", "5760": "ĠSquirrel", "5761": ".'", "5762": "Ġrust", "5763": "Ġoat", "5764": "Ġmatching", "5765": "elvet", "5766": "Ġwed", "5767": "Ġprop", "5768": "Ġgained", "5769": "bly", "5770": "Somet", "5771": "Ġthrill", "5772": "Ġstamps", "5773": "Ġobey", "5774": "Ġgrinned", "5775": "Ġeagle", "5776": "Ġcrunchy", "5777": "ogo", "5778": "Whiskers", "5779": "Ġsides", "5780": "Ġgigg", "5781": "Ġcuddled", "5782": "Ġapproached", "5783": "ĠAunt", "5784": "'.", "5785": "Ġtastes", "5786": "Ġswims", "5787": "oming", "5788": "ads", "5789": "Ducky", "5790": "Ġwanting", "5791": "Ġruler", "5792": "Ġhated", "5793": "Ġcrawling", "5794": "ĠSplash", "5795": "son", "5796": "aws", "5797": "During", "5798": "Ġgiraff", "5799": "Ġanytime", "5800": "ĠFrank", "5801": "Susie", "5802": "Ġpride", "5803": "Ġeff", "5804": "Ġbuzzing", "5805": "ĠJe", "5806": "ĠBug", "5807": "unnies", "5808": "ira", "5809": "bird", "5810": "Remember", "5811": "Ġneighborhood", "5812": "Ġhardly", "5813": "Ġfiref", "5814": "Ġcomfy", "5815": "Ġbleeding", "5816": "riends", "5817": "Ġstruggled", "5818": "Ġseems", "5819": "Ġpause", "5820": "Ġcontain", "5821": "Ġapologized", "5822": "Ġsweeties", "5823": "Ġsparkling", "5824": "Ġknelt", "5825": "Ġhappiest", "5826": "Ġgaze", "5827": "Ġeight", "5828": "Ġdoggy", "5829": "Ġchirped", "5830": "Ġbrushes", "5831": "Ġadmiring", "5832": "ĠSlowly", "5833": "umble", "5834": "Ġremoved", "5835": "Ġmotion", "5836": "achel", "5837": "Ġtallest", "5838": "Ġslimy", "5839": "Ġrevealed", "5840": "Ġrepeated", "5841": "Ġhorns", "5842": "Ġgiraffes", "5843": "Ġbunnies", "5844": "Ella", "5845": "Ġspraying", "5846": "Ġsneaked", "5847": "Ġbegin", "5848": "ĠKeep", "5849": "Ġseesaw", "5850": "Ġfrost", "5851": "Ġdrives", "5852": "Ġdecorated", "5853": "Ġdecides", "5854": "Ġbehaved", "5855": "cakes", "5856": "Ġtickets", "5857": "Ġloose", "5858": "Ġcomple", "5859": "ĠVelvet", "5860": "ĠBop", "5861": "ishy", "5862": "elle", "5863": "Ġyesterday", "5864": "Ġshooting", "5865": "Ġpockets", "5866": "Ġloaded", "5867": "Ġloving", "5868": "Ġgrey", "5869": "Ġglitter", "5870": "Ġdraws", "5871": "Ġdragons", "5872": "Ġcontinue", "5873": "iders", "5874": "Ġwedding", "5875": "Ġshivered", "5876": "Ġrocking", "5877": "Ġcontro", "5878": "Ġchef", "5879": "Ġbeside", "5880": "uture", "5881": "Ġquarreling", "5882": "Ġpoking", "5883": "Ġowned", "5884": "Ġmane", "5885": "Ġhissed", "5886": "Ġyelling", "5887": "Ġgoodnight", "5888": "lier", "5889": "indy", "5890": "Ġwoof", "5891": "Ġsteep", "5892": "Ġhen", "5893": "Ġfolding", "5894": "Ġfuture", "5895": "Ġeffort", "5896": "ĠWatch", "5897": "ĠRocky", "5898": "ues", "5899": "Ah", "5900": "Ġrespons", "5901": "Ġhugging", "5902": "Ġguy", "5903": "Ġflutter", "5904": "ĠKatie", "5905": "ĠBeth", "5906": "Ġpowers", "5907": "Ġdestination", "5908": "Ġdarker", "5909": "Ġcracked", "5910": "ĠX", "5911": "Ollie", "5912": "Ġzooming", "5913": "Ġstaying", "5914": "Ġagreement", "5915": "ĠStitch", "5916": "Ġpurred", "5917": "Ġpetted", "5918": "Ġpadd", "5919": "Ġcuriosity", "5920": "Ġboo", "5921": "Johnny", "5922": "Ġsi", "5923": "umm", "5924": "anted", "5925": "Ġwiggled", "5926": "Ġstruggling", "5927": "Ġpencils", "5928": "Ġfrosting", "5929": "allow", "5930": "First", "5931": "Ġsnowballs", "5932": "Ġsadness", "5933": "Ġkites", "5934": "Ġgathering", "5935": "Ġbrushed", "5936": "uddles", "5937": "Ġstretching", "5938": "Ġspiders", "5939": "Ġsoaring", "5940": "Ġscrubbed", "5941": "Ġorganizing", "5942": "Ġdragged", "5943": "Ġacting", "5944": "Ġtugged", "5945": "Ġstudying", "5946": "Ġsled", "5947": "Ġrecognized", "5948": "ĠMoo", "5949": "ppers", "5950": "acob", "5951": "Ġshrug", "5952": "Ġpacking", "5953": "Ġdipped", "5954": "Ġapplauded", "5955": "ĠBirdie", "5956": "anta", "5957": "Yummy", "5958": "Sometimes", "5959": "Ġprepared", "5960": "Ġkindly", "5961": "Ġgoals", "5962": "Ġchases", "5963": "Ġbloomed", "5964": "nie", "5965": "ica", "5966": "Thanks", "5967": "Ġspending", "5968": "Ġsmiley", "5969": "Ġshirts", "5970": "Ġbuildings", "5971": "Ġbottles", "5972": "uzzy", "5973": "joyed", "5974": "Mar", "5975": "Ġwrites", "5976": "Ġtoss", "5977": "Ġrings", "5978": "Ġmachines", "5979": "Ġheav", "5980": "Ġbuckets", "5981": "Ġawe", "5982": "ĠAbigail", "5983": "ining", "5984": "Ġunited", "5985": "Ġcomforted", "5986": "Ġbaker", "5987": "ĠAv", "5988": "uggles", "5989": "Watch", "5990": "Ġsecrets", "5991": "Ġpolished", "5992": "Ġopening", "5993": "Ġdemanded", "5994": "Ġwhatever", "5995": "Ġtalent", "5996": "Ġrocked", "5997": "Ġpots", "5998": "Ġapologize", "5999": "ĠBark", "6000": "uest", "6001": "ashed", "6002": "Ġzookeeper", "6003": "Ġsiren", "6004": "Ġprotected", "6005": "Ġoverjoyed", "6006": "Ġlibrarian", "6007": "Ġdiving", "6008": "Ġdecision", "6009": "Ġbeads", "6010": "ĠMouse", "6011": "ĠBecause", "6012": "Ġtails", "6013": "Ġphot", "6014": "Ġdiscovery", "6015": "Ġdam", "6016": "Ġcuddle", "6017": "Ġcatches", "6018": "Ġboom", "6019": "ĠRay", "6020": "Ġthrilled", "6021": "Ġpenguins", "6022": "Ġexplorer", "6023": "Ġcontrol", "6024": "Ġcough", "6025": "ĠEveryday", "6026": "eed", "6027": "aster", "6028": "Tiny", "6029": "Ġpretends", "6030": "Ġpeered", "6031": "Ġonwards", "6032": "Ġgrandmother", "6033": "Ġcreation", "6034": "ĠCra", "6035": "ĠBree", "6036": "Ġsatis", "6037": "Ġrip", "6038": "Ġrele", "6039": "Ġmasks", "6040": "Ġawake", "6041": "Ġann", "6042": "Ġalien", "6043": "ĠSun", "6044": "ĠPippa", "6045": "ĠLike", "6046": "ĠJoy", "6047": "omas", "6048": "agers", "6049": "Ġsurrounded", "6050": "Ġcompany", "6051": "Ġbeard", "6052": "Ġactually", "6053": "Ġweeks", "6054": "Ġpromises", "6055": "Ġneighbors", "6056": "Ġgranted", "6057": "Ġdied", "6058": "Ġargued", "6059": "ĠRemember", "6060": "lowers", "6061": "guing", "6062": "ayl", "6063": "Achoo", "6064": "Ġteaches", "6065": "Ġobserved", "6066": "sses", "6067": "annah", "6068": "Rob", "6069": "Ġsmallest", "6070": "Ġparties", "6071": "Ġlied", "6072": "Ġearlier", "6073": "Ġcompleted", "6074": "ĠMad", "6075": "Ġwherever", "6076": "Ġpaintings", "6077": "Ġfasc", "6078": "Ġexpected", "6079": "Ġarguing", "6080": "ĠPut", "6081": "ĠGogo", "6082": "ĠĊĠ", "6083": "Ġweren", "6084": "Ġsting", "6085": "Ġsob", "6086": "Ġrefres", "6087": "Ġpurr", "6088": "Ġpeas", "6089": "Ġlistens", "6090": "Ġheroes", "6091": "Ġactions", "6092": "ĠBeing", "6093": "Ġstripes", "6094": "Ġpatiently", "6095": "ĠBrownie", "6096": "Ġworkers", "6097": "Ġwonders", "6098": "Ġvillagers", "6099": "Ġribbons", "6100": "Ġitems", "6101": "Ġcrumb", "6102": "Ġchallenge", "6103": "ĠCuddles", "6104": "ĠBye", "6105": "ĠAnt", "6106": "uses", "6107": "Ġscreaming", "6108": "Ġfault", "6109": "ans", "6110": "Ġpouring", "6111": "Ġperched", "6112": "Ġfascin", "6113": "ĠOlly", "6114": "oors", "6115": "Ġrealize", "6116": "Ġpumpkins", "6117": "Ġminerals", "6118": "Ġfears", "6119": "Ġcrabs", "6120": "Ġbank", "6121": "ĠJulie", "6122": "xc", "6123": "Exc", "6124": "gers", "6125": "cher", "6126": "Ġthird", "6127": "Ġsunlight", "6128": "Ġguest", "6129": "ĠBehind", "6130": "âĢĿ.", "6131": "avi", "6132": "angled", "6133": "Ġwhose", "6134": "Ġsplashes", "6135": "Ġsausages", "6136": "Ġplayroom", "6137": "Ġpastries", "6138": "Ġclearing", "6139": "Ġagrees", "6140": "ĠLeave", "6141": "ĠJess", "6142": "ĠChew", "6143": "lee", "6144": "Ġvent", "6145": "Ġteased", "6146": "Ġsticking", "6147": "Ġsnakes", "6148": "Ġprettiest", "6149": "Ġdusty", "6150": "ĠSorry", "6151": "ĠSanta", "6152": "ĠPrince", "6153": "ĠGrumpy", "6154": "ĠAlly", "6155": "Grandpa", "6156": "Ġwondering", "6157": "Ġstaring", "6158": "Ġstare", "6159": "Ġsighs", "6160": "Ġroses", "6161": "Ġripe", "6162": "Ġreply", "6163": "Ġpolishing", "6164": "Ġjoking", "6165": "Ġhelmets", "6166": "Ġdent", "6167": "Ġblows", "6168": "Ġbalancing", "6169": "ĠMa", "6170": "ĠDod", "6171": "ĠBouncy", "6172": "atches", "6173": "Bad", "6174": "Ġstole", "6175": "Ġsitu", "6176": "Ġlearns", "6177": "Ġimproved", "6178": "Ġhonk", "6179": "Ġcrept", "6180": "uckily", "6181": "ten", "6182": "lict", "6183": "Ġcloses", "6184": "Ġarrive", "6185": "ĠZoe", "6186": "ĠRobby", "6187": "uly", "6188": "ives", "6189": "airy", "6190": "Stay", "6191": "Paul", "6192": "Mike", "6193": "Ġphotos", "6194": "Ġmovies", "6195": "Ġma", "6196": "Ġintroduc", "6197": "Ġinsist", "6198": "ĠWater", "6199": "ĠHippy", "6200": "ĠAsh", "6201": "ani", "6202": "Ġtowels", "6203": "Ġtim", "6204": "Ġconflict", "6205": "Ġacti", "6206": "Ġactiv", "6207": "ouch", "6208": "icorn", "6209": "Ġswoop", "6210": "Ġseas", "6211": "Ġforgi", "6212": "Ġdeser", "6213": "ĠRachel", "6214": "ĠHoot", "6215": "zie", "6216": "Silly", "6217": "Ġwrist", "6218": "Ġwound", "6219": "Ġreleased", "6220": "Ġpout", "6221": "Ġknights", "6222": "Ġhitting", "6223": "Ġcuts", "6224": "ĠSus", "6225": "ĠOur", "6226": "ĠOl", "6227": "ĠFriends", "6228": "irm", "6229": "Uh", "6230": "Or", "6231": "Ġpatience", "6232": "Ġoutd", "6233": "Ġhealed", "6234": "Ġgems", "6235": "Ġexamined", "6236": "istle", "6237": "endy", "6238": "Maggie", "6239": "James", "6240": "Ġpeppers", "6241": "Ġbunch", "6242": "ĠGl", "6243": "lled", "6244": "George", "6245": "Doggy", "6246": "Ġvisiting", "6247": "Ġtasks", "6248": "Ġroaring", "6249": "Ġrainbows", "6250": "Ġmisses", "6251": "Ġcreating", "6252": "ĠLove", "6253": "ĠFoxy", "6254": "ĠDodo", "6255": "ĠAd", "6256": "rink", "6257": "Run", "6258": "Fine", "6259": "Ġwins", "6260": "Ġsafer", "6261": "Ġplanets", "6262": "Ġpastels", "6263": "Ġpassing", "6264": "Ġachieve", "6265": "Ġast", "6266": "ĠDuck", "6267": "ĠAr", "6268": "zes", "6269": "you", "6270": "ody", "6271": "ners", "6272": "Dave", "6273": "Ġchirping", "6274": "Ġcaut", "6275": "Ġbrand", "6276": "Ġbedtime", "6277": "ĠLinda", "6278": "ooo", "6279": "Benny", "6280": "Ġwasted", "6281": "Ġunicorn", "6282": "Ġstern", "6283": "Ġsights", "6284": "Ġremote", "6285": "Ġpatted", "6286": "Ġmission", "6287": "Ġaccom", "6288": "ĠAva", "6289": "sie", "6290": "Luna", "6291": "Ġwires", "6292": "Ġsupplies", "6293": "Ġdelivered", "6294": "ĠCatty", "6295": "Pete", "6296": "Ġuses", "6297": "Ġresponsible", "6298": "Ġrescued", "6299": "Ġflags", "6300": "Ġdesert", "6301": "Ġbumpy", "6302": "harlie", "6303": "awn", "6304": "ais", "6305": "ah", "6306": "eah", "6307": "Toby", "6308": "Dog", "6309": "Charlie", "6310": "Bunny", "6311": "Ġunp", "6312": "Ġsparkles", "6313": "Ġshoulders", "6314": "Ġseven", "6315": "Ġreaching", "6316": "Ġlogs", "6317": "Ġfairies", "6318": "ĠWink", "6319": "vin", "6320": "uri", "6321": "seek", "6322": "oed", "6323": "jam", "6324": "dies", "6325": "Ġscales", "6326": "Ġroads", "6327": "Ġreplaced", "6328": "Ġquacked", "6329": "Ġdolphins", "6330": "Ġbeneath", "6331": "Ġbecoming", "6332": "ĠTe", "6333": "ĠSl", "6334": "ĠPaws", "6335": "ĠMag", "6336": "iam", "6337": "athy", "6338": "anes", "6339": "actly", "6340": "Zoom", "6341": "Buzz", "6342": "Ġslam", "6343": "Ġdoctors", "6344": "Ġcause", "6345": "Ġadding", "6346": "ĠDot", "6347": "ĠBlink", "6348": "rance", "6349": "hog", "6350": "bby", "6351": "Poppy", "6352": "Ġyourselves", "6353": "Ġtraded", "6354": "Ġsinger", "6355": "Ġshelves", "6356": "Ġrefuse", "6357": "Ġprayer", "6358": "Ġparked", "6359": "Ġmountains", "6360": "Ġinviting", "6361": "Ġincluded", "6362": "Ġdar", "6363": "rip", "6364": "enty", "6365": "Ġthro", "6366": "Ġsurface", "6367": "Ġrequested", "6368": "Ġlap", "6369": "ĠJan", "6370": "ĠEnjoy", "6371": "hirpy", "6372": "ering", "6373": "Chirpy", "6374": "Ġbowls", "6375": "Ġbare", "6376": "itely", "6377": "araway", "6378": "Ġunf", "6379": "Ġthorn", "6380": "Ġtune", "6381": "Ġfilling", "6382": "Ġfarther", "6383": "Ġcheering", "6384": "ole", "6385": "Days", "6386": "Ġsnowmen", "6387": "Ġrule", "6388": "Ġneither", "6389": "Ġeveryday", "6390": "ĠPeanut", "6391": "rue", "6392": "oll", "6393": "lings", "6394": "Those", "6395": "...\"", "6396": "Ġthroat", "6397": "Ġteamwork", "6398": "Ġcans", "6399": "ĠWant", "6400": "ĠBall", "6401": "neath", "6402": "Hold", "6403": "Ġremembering", "6404": "Ġprotecting", "6405": "Ġpaddle", "6406": "Ġhelpers", "6407": "Ġgotten", "6408": "Ġfaced", "6409": "Ġbatteries", "6410": "ĠZe", "6411": "iles", "6412": "Ġstays", "6413": "Ġnecklaces", "6414": "Ġfaraway", "6415": "Ġdrums", "6416": "Ġdances", "6417": "armer", "6418": "True", "6419": "Some", "6420": "Great", "6421": "Ġwobbled", "6422": "Ġrockets", "6423": "Ġkicks", "6424": "Ġfab", "6425": "Ġcovers", "6426": "Ġcaused", "6427": "Ġblooming", "6428": "Ġairpl", "6429": "Ġaccompl", "6430": "ĠMilo", "6431": "ĠYes", "6432": "uctantly", "6433": "len", "6434": "Our", "6435": "Ġwinked", "6436": "Ġswooped", "6437": "Ġreads", "6438": "Ġoutdoors", "6439": "Ġmer", "6440": "Ġknocks", "6441": "Ġfabric", "6442": "ĠThomas", "6443": "ĠLuke", "6444": "ĠKids", "6445": "ĠFor", "6446": "pite", "6447": "Lola", "6448": "Ġusually", "6449": "Ġtables", "6450": "Ġstarfish", "6451": "Ġrubs", "6452": "Ġrisk", "6453": "Ġimages", "6454": "Ġheavier", "6455": "Ġflavor", "6456": "Ġcrumbs", "6457": "Ġadult", "6458": "ĠSad", "6459": "usted", "6460": "iley", "6461": "coon", "6462": "Big", "6463": "Ġtangled", "6464": "Ġsqueal", "6465": "Ġprettier", "6466": "Ġpracticing", "6467": "Ġpaddled", "6468": "Ġfirm", "6469": "Ġexactly", "6470": "Ġdiscovering", "6471": "Ġchoo", "6472": "ĠSw", "6473": "ĠRover", "6474": "ĠLou", "6475": "ĠJones", "6476": "ĠChrist", "6477": "ept", "6478": "abel", "6479": "Polly", "6480": "...", "6481": "Ġsquares", "6482": "Ġknees", "6483": "Ġintroduced", "6484": "ĠSnuggles", "6485": "ĠJamie", "6486": "ĠJilly", "6487": "iar", "6488": "Ġprincesses", "6489": "Ġornaments", "6490": "Ġhedgehog", "6491": "Ġcandies", "6492": "Ġbiting", "6493": "ĠJenn", "6494": "esome", "6495": "Yeah", "6496": "Un", "6497": "Oops", "6498": "Ġusual", "6499": "Ġsatisfied", "6500": "Ġpens", "6501": "Ġgears", "6502": "Ġfascinated", "6503": "Ġcomm", "6504": "Ġcent", "6505": "ĠTwo", "6506": "ĠQuick", "6507": "ĠMel", "6508": "ĠChirp", "6509": "vers", "6510": "sequ", "6511": "jamas", "6512": "isdom", "6513": "inkle", "6514": "ingo", "6515": "hoo", "6516": "ences", "6517": "Miss", "6518": "Ġtriangles", "6519": "Ġsteady", "6520": "Ġreminder", "6521": "Ġpointy", "6522": "Ġpec", "6523": "Ġlimes", "6524": "Ġgiggling", "6525": "Ġexh", "6526": "Ġdived", "6527": "Ġcuddly", "6528": "Ġcomplaining", "6529": "Ġbuzzed", "6530": "ĠStay", "6531": "tle", "6532": "rie", "6533": "iding", "6534": "Ġtruly", "6535": "Ġrainy", "6536": "Ġmuscle", "6537": "Ġdeal", "6538": "Ġchefs", "6539": "Ġbak", "6540": "ĠWelcome", "6541": "oar", "6542": "aren", "6543": "Whee", "6544": "Ġspeaking", "6545": "Ġpraying", "6546": "Ġmarked", "6547": "Ġcopy", "6548": "Ġconsequ", "6549": "Ġchips", "6550": "ĠRain", "6551": "ita", "6552": "band", "6553": "aya", "6554": "Ġwritten", "6555": "Ġventured", "6556": "Ġswans", "6557": "Ġstartled", "6558": "Ġsobbed", "6559": "Ġreluctantly", "6560": "Ġnine", "6561": "Ġforks", "6562": "Ġcurtains", "6563": "Ġcomplained", "6564": "Ġchuck", "6565": "Ġbalanced", "6566": "ĠSure", "6567": "ĠLion", "6568": "ĠDara", "6569": "ĠCopper", "6570": "urried", "6571": "uppy", "6572": "sey", "6573": "?\",", "6574": "Ġvideos", "6575": "Ġvalued", "6576": "Ġsolut", "6577": "Ġprovided", "6578": "Ġnect", "6579": "Ġinstruct", "6580": "Ġhides", "6581": "Ġglasses", "6582": "Ġcurly", "6583": "Ġcrowd", "6584": "Ġbehaving", "6585": "now", "6586": "immer", "6587": "Roar", "6588": "Excuse", "6589": "Ġunderneath", "6590": "Ġspong", "6591": "Ġplayhouse", "6592": "Ġnectar", "6593": "Ġawesome", "6594": "ĠHowever", "6595": "ĠCara", "6596": "oke", "6597": "hew", "6598": "Unfortunately", "6599": "Henry", "6600": "Ġwid", "6601": "Ġneighbourhood", "6602": "Ġmes", "6603": "Ġexplorers", "6604": "Ġentrance", "6605": "Ġdots", "6606": "Ġdef", "6607": "ĠSnap", "6608": "ĠJosh", "6609": "inny", "6610": "Tweet", "6611": "Ġwarnings", "6612": "Ġsuperheroes", "6613": "Ġstumble", "6614": "Ġsneezing", "6615": "Ġpaying", "6616": "Ġpancakes", "6617": "Ġonions", "6618": "Ġdollhouse", "6619": "Ġcompetition", "6620": "Ġclowns", "6621": "ĠThose", "6622": "ĠJacob", "6623": "ĠGoodbye", "6624": "ĠGet", "6625": "Ġ1", "6626": "weed", "6627": "fit", "6628": "Sophie", "6629": "Joey", "6630": "Ġslower", "6631": "Ġscurried", "6632": "Ġrestored", "6633": "Ġpuppet", "6634": "Ġnoses", "6635": "Ġhonked", "6636": "Ġgrowls", "6637": "per", "6638": "iously", "6639": "eet", "6640": "amb", "6641": "Time", "6642": "Ġskunk", "6643": "Ġsituation", "6644": "Ġperformed", "6645": "Ġhider", "6646": "Ġdecorating", "6647": "Ġconsequences", "6648": "Ġbasement", "6649": "ĠChl", "6650": "ters", "6651": "ollow", "6652": "mas", "6653": "lle", "6654": "itches", "6655": "Ġstomped", "6656": "Ġsense", "6657": "Ġmoo", "6658": "Ġleast", "6659": "Ġinterested", "6660": "Ġinstructions", "6661": "Ġentire", "6662": "Ġcrackers", "6663": "Ġbarely", "6664": "ĠHold", "6665": "ĠHenny", "6666": "ĠChlo", "6667": "oline", "6668": "Ew", "6669": "Ġwishing", "6670": "Ġwandering", "6671": "Ġropes", "6672": "Ġpoliceman", "6673": "Ġleaning", "6674": "ĠJenna", "6675": "ĠHug", "6676": "ĠCr", "6677": "yes", "6678": "umbled", "6679": "orman", "6680": "aura", "6681": "Listen", "6682": "Grace", "6683": "Ġyounger", "6684": "Ġwears", "6685": "Ġtwirling", "6686": "Ġty", "6687": "Ġswept", "6688": "Ġsurfboard", "6689": "Ġsponge", "6690": "Ġproject", "6691": "Ġguns", "6692": "Ġguessing", "6693": "ĠWhistle", "6694": "ĠDee", "6695": "boat", "6696": "bell", "6697": "Mrs", "6698": "Ġsweets", "6699": "Ġspikes", "6700": "Ġrefle", "6701": "Ġpupils", "6702": "Ġpans", "6703": "Ġpajamas", "6704": "Ġmonth", "6705": "Ġgrowling", "6706": "Ġdarling", "6707": "Ġdancers", "6708": "Ġden", "6709": "Ġconfident", "6710": "ĠLaser", "6711": "ĠFarmer", "6712": "ĠDizzy", "6713": "Ġwipes", "6714": "Ġwaiter", "6715": "Ġtreehouse", "6716": "Ġscarves", "6717": "Ġloading", "6718": "Ġlighter", "6719": "Ġfroze", "6720": "Ġbakery", "6721": "ĠUnfortunately", "6722": "ĠBet", "6723": "though", "6724": "arter", "6725": "aisies", "6726": "Follow", "6727": "Ġwindy", "6728": "Ġuntie", "6729": "Ġstudents", "6730": "Ġsilent", "6731": "Ġrecording", "6732": "Ġmushrooms", "6733": "Ġleading", "6734": "Ġbaths", "6735": "Ġairplane", "6736": "ĠNe", "6737": "ĠBra", "6738": "tuce", "6739": "rey", "6740": "ments", "6741": "ammy", "6742": "agull", "6743": "Ġvowed", "6744": "Ġtires", "6745": "Ġtickled", "6746": "Ġruining", "6747": "Ġjackets", "6748": "Ġcous", "6749": "ĠRolly", "6750": "izzie", "6751": "enn", "6752": "cope", "6753": "acky", "6754": "Tina", "6755": "Ġuns", "6756": "Ġtimer", "6757": "Ġsewed", "6758": "Ġscratches", "6759": "Ġpartic", "6760": "Ġlollipops", "6761": "Ġexha", "6762": "Ġdaisies", "6763": "Ġconn", "6764": "Ġbudge", "6765": "Ġbodies", "6766": "Ġbackwards", "6767": "Ġartist", "6768": "ĠMix", "6769": "ĠAbby", "6770": "ĠĠ", "6771": "ĠĠĠ", "6772": "ĠĠĠ", "6773": "ran", "6774": "ormance", "6775": "aired", "6776": "Ġsunflowers", "6777": "Ġsnowf", "6778": "Ġrefreshed", "6779": "Ġitchy", "6780": "Ġblocked", "6781": "ĠChloe", "6782": "stick", "6783": "lling", "6784": "gles", "6785": "ggy", "6786": "ayla", "6787": "Teddy", "6788": "Ġsmarter", "6789": "Ġoutfit", "6790": "Ġmeals", "6791": "Ġlabels", "6792": "Ġhesitated", "6793": "Ġhus", "6794": "Ġgreet", "6795": "Ġbuses", "6796": "ĠBarky", "6797": "rint", "6798": "isc", "6799": "imon", "6800": "aying", "6801": "ael", "6802": "Danny", "6803": "Ġwiping", "6804": "Ġunpacked", "6805": "Ġtractor", "6806": "Ġplayers", "6807": "Ġpiggy", "6808": "Ġlettuce", "6809": "Ġdarkness", "6810": "Ġchuckled", "6811": "ĠWisdom", "6812": "onies", "6813": "ertain", "6814": "Ġtoaster", "6815": "Ġseeker", "6816": "Ġseagull", "6817": "Ġperformance", "6818": "Ġlosing", "6819": "Ġleap", "6820": "Ġknowled", "6821": "Ġflames", "6822": "Ġdesigned", "6823": "Ġclick", "6824": "Ġchoices", "6825": "Ġbeginning", "6826": "ĠWoof", "6827": "ĠMikey", "6828": "ĠCla", "6829": "ĠBones", "6830": "ese", "6831": "alph", "6832": "Beep", "6833": "Ġyells", "6834": "Ġtipt", "6835": "Ġsuitcase", "6836": "Ġsigned", "6837": "Ġranger", "6838": "Ġpeeking", "6839": "Ġneedles", "6840": "Ġmints", "6841": "Ġknowledge", "6842": "Ġhowever", "6843": "Ġguys", "6844": "Ġcushions", "6845": "Ġcheeks", "6846": "Ġblocking", "6847": "Ġarrows", "6848": "ĠLena", "6849": "ĠAbbie", "6850": "but", "6851": "Que", "6852": "Harry", "6853": "Annie", "6854": "Ġties", "6855": "Ġstolen", "6856": "Ġstem", "6857": "Ġstain", "6858": "Ġsquealed", "6859": "Ġsnowfl", "6860": "Ġraces", "6861": "Ġmater", "6862": "Ġlifting", "6863": "Ġjoked", "6864": "Ġfever", "6865": "Ġannoy", "6866": "Ġaimed", "6867": "ĠNothing", "6868": "ĠAnne", "6869": "sty", "6870": "rig", "6871": "mie", "6872": "Take", "6873": "For", "6874": "Bear", "6875": "Ġtwinkling", "6876": "Ġtricky", "6877": "Ġseaweed", "6878": "Ġsalty", "6879": "Ġproperly", "6880": "Ġpecked", "6881": "Ġpassports", "6882": "Ġnests", "6883": "Ġgroups", "6884": "Ġfuzzy", "6885": "Ġchat", "6886": "ĠTrust", "6887": "ĠChristmas", "6888": "angle", "6889": "Ġsolution", "6890": "Ġslammed", "6891": "Ġsailors", "6892": "Ġmaterial", "6893": "Ġincreased", "6894": "Ġexhausted", "6895": "Ġbadge", "6896": "ĠJump", "6897": "ophia", "6898": "iece", "6899": "ctions", "6900": "Queen", "6901": "However", "6902": "Ġstung", "6903": "Ġsnatched", "6904": "Ġrelief", "6905": "Ġrising", "6906": "Ġinsects", "6907": "Ġglued", "6908": "Ġdentist", "6909": "Ġage", "6910": "ĠPup", "6911": "ĠMic", "6912": "omp", "6913": "cky", "6914": "anth", "6915": "Jerry", "6916": "Ġwrapping", "6917": "Ġworries", "6918": "Ġrusty", "6919": "Ġrotting", "6920": "Ġrolls", "6921": "Ġrepaired", "6922": "Ġinstrum", "6923": "Ġhusband", "6924": "Ġgrabbing", "6925": "Ġforgets", "6926": "Ġcounts", "6927": "Ġactivities", "6928": "Ġaff", "6929": "ĠTry", "6930": "ĠSusan", "6931": "ĠSnowman", "6932": "ĠRollie", "6933": "ĠMatt", "6934": "ĠKit", "6935": "ĠJeff", "6936": "oni", "6937": "itted", "6938": "bert", "6939": "ashes", "6940": "Ġyelp", "6941": "Ġturtles", "6942": "Ġshrinking", "6943": "Ġparticular", "6944": "Ġopp", "6945": "Ġlungs", "6946": "Ġlaying", "6947": "Ġcash", "6948": "Ġbravery", "6949": "ĠTree", "6950": "ĠRa", "6951": "uing", "6952": "kelly", "6953": "cake", "6954": "brush", "6955": "antha", "6956": "?'", "6957": "Ġwraps", "6958": "Ġshops", "6959": "Ġrainco", "6960": "Ġjars", "6961": "Ġgrocer", "6962": "Ġdod", "6963": "Ġdamage", "6964": "ĠZero", "6965": "ĠUniver", "6966": "ĠListen", "6967": "ition", "6968": "iti", "6969": "ibble", "6970": "Moo", "6971": "Ġvines", "6972": "Ġtouches", "6973": "Ġsway", "6974": "Ġrains", "6975": "Ġponies", "6976": "Ġkings", "6977": "Ġfeeding", "6978": "Ġfreed", "6979": "Ġdirection", "6980": "ĠJulia", "6981": "yond", "6982": "using", "6983": "eve", "6984": "Ġwow", "6985": "Ġregretted", "6986": "Ġraccoon", "6987": "Ġplenty", "6988": "Ġmerma", "6989": "Ġhops", "6990": "Ġhandful", "6991": "Ġfeast", "6992": "Ġfart", "6993": "Ġcompletely", "6994": "Ġcolored", "6995": "Ġbuying", "6996": "Ġbehavi", "6997": "uel", "6998": "ecc", "6999": "ecca", "7000": "Lilly", "7001": "Kate", "7002": "Alex", "7003": "Ġyum", "7004": "Ġwobbly", "7005": "Ġthud", "7006": "Ġtapped", "7007": "Ġowners", "7008": "Ġfrowning", "7009": "Ġdetermination", "7010": "Ġclues", "7011": "Ġcelebration", "7012": "ĠTri", "7013": "vroom", "7014": "hh", "7015": "Shh", "7016": "atty", "7017": "ades", "7018": "Katie", "7019": "Ġthrown", "7020": "Ġrecommended", "7021": "Ġpins", "7022": "Ġmagnets", "7023": "Ġfarthest", "7024": "Ġbeyond", "7025": "Ġbackward", "7026": "Ġastron", "7027": "Ġache", "7028": "ĠSoft", "7029": "ĠJay", "7030": "ĠFro", "7031": "ĠFire", "7032": "the", "7033": "step", "7034": "mates", "7035": "fall", "7036": "Millie", "7037": "Ġtunnels", "7038": "Ġpresses", "7039": "Ġplanning", "7040": "Ġplain", "7041": "Ġmailed", "7042": "Ġkittens", "7043": "Ġcons", "7044": "Ġbows", "7045": "Ġborrowed", "7046": "ĠUp", "7047": "ĠBa", "7048": "pen", "7049": "indr", "7050": "ici", "7051": "Sunny", "7052": "Kim", "7053": "Ġspreading", "7054": "Ġscra", "7055": "Ġreason", "7056": "Ġprinting", "7057": "Ġpuff", "7058": "Ġliqu", "7059": "Ġinclud", "7060": "Ġfires", "7061": "Ġfins", "7062": "Ġexce", "7063": "Ġcust", "7064": "ĠSkelly", "7065": "ĠRazor", "7066": "ĠJon", "7067": "ĠFish", "7068": "ĠBetsy", "7069": "obody", "7070": "lara", "7071": "ivery", "7072": "een", "7073": "Clara", "7074": "Ġtweet", "7075": "Ġslips", "7076": "Ġlifts", "7077": "Ġhomework", "7078": "Ġforehead", "7079": "Ġbumps", "7080": "Ġaccomplish", "7081": "ĠVi", "7082": "ĠMin", "7083": "ĠIm", "7084": "ĠHo", "7085": "ĠBirthday", "7086": "vity", "7087": "print", "7088": "iblings", "7089": "ene", "7090": "elie", "7091": "Zip", "7092": "Ġwakes", "7093": "Ġtalented", "7094": "Ġsupported", "7095": "Ġfilms", "7096": "Ġcowb", "7097": "Ġburst", "7098": "Ġbub", "7099": "Ġaside", "7100": "ĠMissy", "7101": "river", "7102": "oring", "7103": "ooky", "7104": "hile", "7105": "Ġtemper", "7106": "Ġmatters", "7107": "Ġleads", "7108": "Ġgrows", "7109": "Ġfigured", "7110": "Ġcoup", "7111": "ĠLaura", "7112": "ĠJune", "7113": "ĠHannah", "7114": "ĠFuzzy", "7115": "crow", "7116": "Ġspells", "7117": "Ġsiblings", "7118": "Ġraindr", "7119": "Ġpouted", "7120": "Ġforgetting", "7121": "Ġfirefight", "7122": "Ġdesigns", "7123": "Ġcashier", "7124": "Ġcoop", "7125": "Ġblown", "7126": "ĠToot", "7127": "ibbit", "7128": "Quick", "7129": "Mad", "7130": "Ġtwice", "7131": "Ġstopping", "7132": "Ġstands", "7133": "Ġsecure", "7134": "Ġliquid", "7135": "Ġjobs", "7136": "Ġgroceries", "7137": "Ġflipped", "7138": "Ġfits", "7139": "ĠPrincess", "7140": "ĠPh", "7141": "uster", "7142": "ona", "7143": "itched", "7144": "igning", "7145": "cover", "7146": "ably", "7147": "Ġzebras", "7148": "Ġwept", "7149": "Ġshovels", "7150": "Ġshoo", "7151": "Ġrewarded", "7152": "Ġpassen", "7153": "Ġnapkins", "7154": "Ġgrip", "7155": "Ġcor", "7156": "Ġastronaut", "7157": "ĠSa", "7158": "ĠGranny", "7159": "ĠCow", "7160": "ĠAna", "7161": "ingly", "7162": "Under", "7163": "Pipp", "7164": "Nina", "7165": "Jul", "7166": "Ġtodd", "7167": "Ġsweat", "7168": "Ġslowed", "7169": "Ġshaped", "7170": "Ġpuppies", "7171": "Ġhealth", "7172": "Ġhallway", "7173": "Ġhaw", "7174": "Ġforgiving", "7175": "Ġfact", "7176": "ĠZiggy", "7177": "ĠThunder", "7178": "ĠNut", "7179": "ĠChris", "7180": "ĠChess", "7181": "retch", "7182": "rest", "7183": "ris", "7184": "nies", "7185": "ility", "7186": "ivity", "7187": "cie", "7188": "abby", "7189": "Milly", "7190": "Ġwarmer", "7191": "Ġtwinkle", "7192": "Ġsuffered", "7193": "Ġstroked", "7194": "Ġstorekeeper", "7195": "Ġspat", "7196": "Ġsomebody", "7197": "Ġsewing", "7198": "Ġseasons", "7199": "Ġreflection", "7200": "Ġqueens", "7201": "Ġearn", "7202": "Ġdirections", "7203": "Ġbracelets", "7204": "Ġbars", "7205": "ĠOther", "7206": "ĠNina", "7207": "ĠMac", "7208": "ĠKe", "7209": "ĠQueen", "7210": "ossible", "7211": "abelle", "7212": "Car", "7213": "Ġwhispers", "7214": "Ġuntied", "7215": "Ġsniffs", "7216": "Ġdrivers", "7217": "ĠWithout", "7218": "ĠRoo", "7219": "ĠRich", "7220": "ĠGray", "7221": "lock", "7222": "ative", "7223": "amboo", "7224": "ados", "7225": "Vroom", "7226": "Bee", "7227": "Ġvanilla", "7228": "Ġtwisting", "7229": "Ġstrongest", "7230": "Ġovercome", "7231": "Ġindeed", "7232": "Ġflavors", "7233": "Ġdeserve", "7234": "Ġdip", "7235": "Ġdet", "7236": "ĠMira", "7237": "ĠCathy", "7238": "ĠBon", "7239": "mel", "7240": "lways", "7241": "iri", "7242": "iona", "7243": "Zoomy", "7244": "Out", "7245": "Luckily", "7246": "Always", "7247": "Ġsingle", "7248": "Ġpaths", "7249": "Ġhawk", "7250": "Ġglee", "7251": "Ġelf", "7252": "Ġech", "7253": "Ġdropping", "7254": "Ġcloudy", "7255": "Ġchanging", "7256": "Ġcalmed", "7257": "Ġcrew", "7258": "ĠSleep", "7259": "ĠCrab", "7260": "ĠCle", "7261": "rank", "7262": "ounce", "7263": "bee", "7264": "Lulu", "7265": "Ġswords", "7266": "Ġswimsuit", "7267": "Ġswirl", "7268": "Ġmermaid", "7269": "Ġknives", "7270": "Ġimpossible", "7271": "Ġhoriz", "7272": "Ġhopeful", "7273": "Ġheading", "7274": "Ġflapping", "7275": "Ġcustom", "7276": "Ġcountryside", "7277": "Ġcelebrating", "7278": "Ġcautiously", "7279": "Ġcott", "7280": "Ġais", "7281": "ĠZee", "7282": "ĠWin", "7283": "ĠTurt", "7284": "ĠJu", "7285": "ppies", "7286": "issa", "7287": "illed", "7288": "berry", "7289": "asty", "7290": "Frank", "7291": "Ġtasting", "7292": "Ġtalks", "7293": "Ġsuffering", "7294": "Ġseparated", "7295": "Ġsale", "7296": "Ġexpress", "7297": "Ġdelivering", "7298": "Ġchocolates", "7299": "Ġavoid", "7300": "Ġaud", "7301": "ĠWoo", "7302": "ĠTara", "7303": "ĠTake", "7304": "ĠSuzie", "7305": "ĠOliver", "7306": "ĠLuc", "7307": "ĠLarry", "7308": "rigued", "7309": "omb", "7310": "igers", "7311": "Sandy", "7312": "May", "7313": "Jump", "7314": "Ġwobble", "7315": "Ġwaking", "7316": "Ġunw", "7317": "Ġtramp", "7318": "Ġtemperature", "7319": "Ġstreets", "7320": "Ġrespond", "7321": "Ġramp", "7322": "Ġnapped", "7323": "Ġmarker", "7324": "Ġhotter", "7325": "Ġhorizon", "7326": "Ġhour", "7327": "Ġdisturbing", "7328": "ĠAngel", "7329": "zoom", "7330": "pike", "7331": "opes", "7332": "oor", "7333": "ets", "7334": "Pandy", "7335": "Dan", "7336": "Ġthorns", "7337": "Ġstitches", "7338": "Ġsqueak", "7339": "Ġslices", "7340": "Ġslipping", "7341": "Ġseconds", "7342": "Ġscarecrow", "7343": "Ġperforming", "7344": "Ġimagining", "7345": "Ġhoops", "7346": "Ġguests", "7347": "Ġcreativity", "7348": "Ġcreations", "7349": "Ġbraver", "7350": "Ġblinking", "7351": "Ġbeam", "7352": "ĠYet", "7353": "ĠTwinkle", "7354": "ĠLu", "7355": "ĠDes", "7356": "ushing", "7357": "orter", "7358": "freeze", "7359": "amma", "7360": "Zara", "7361": "Freddy", "7362": "Ġwidened", "7363": "Ġtighter", "7364": "Ġsuits", "7365": "Ġstool", "7366": "Ġsparks", "7367": "Ġpays", "7368": "Ġmarkers", "7369": "Ġmagician", "7370": "Ġlower", "7371": "Ġjoining", "7372": "Ġincluding", "7373": "Ġgross", "7374": "Ġfrowns", "7375": "Ġdrawn", "7376": "Ġdollars", "7377": "Ġcouple", "7378": "Ġbits", "7379": "Ġbacked", "7380": "ĠSadly", "7381": "ĠRudy", "7382": "ĠOnly", "7383": "ĠMoon", "7384": "ĠFlora", "7385": "form", "7386": "ently", "7387": "Spike", "7388": "Jazz", "7389": "Ġtrembled", "7390": "Ġsailboat", "7391": "Ġrobots", "7392": "Ġraindrops", "7393": "Ġplans", "7394": "Ġpennies", "7395": "Ġpanicked", "7396": "Ġfills", "7397": "Ġfamiliar", "7398": "Ġdrawers", "7399": "Ġcousin", "7400": "Ġbully", "7401": "ĠWise", "7402": "ĠTiti", "7403": "ĠKip", "7404": "ĠEmmy", "7405": "ĠEle", "7406": "ĠBerry", "7407": "rap", "7408": "pecting", "7409": "over", "7410": "ooo", "7411": "itude", "7412": "ika", "7413": "?!\"", "7414": "Ġsped", "7415": "Ġsails", "7416": "Ġprove", "7417": "Ġpinching", "7418": "Ġobjects", "7419": "Ġmerry", "7420": "Ġdelivery", "7421": "Ġcuriously", "7422": "Ġcorners", "7423": "Ġchip", "7424": "Ġcoug", "7425": "Ġburrow", "7426": "Ġbackpacks", "7427": "Ġafterwards", "7428": "ĠYesterday", "7429": "ĠWendy", "7430": "ĠRuff", "7431": "ĠPuppy", "7432": "ĠLizzie", "7433": "ĠGina", "7434": "ĠEliz", "7435": "uggy", "7436": "off", "7437": "icker", "7438": "hel", "7439": "fly", "7440": "arac", "7441": "Maria", "7442": "Mine", "7443": "Ġzipping", "7444": "Ġtiptoed", "7445": "Ġtiss", "7446": "Ġtipped", "7447": "Ġswall", "7448": "Ġsurprising", "7449": "Ġsprang", "7450": "Ġsofter", "7451": "Ġsharks", "7452": "Ġraincoat", "7453": "Ġrotten", "7454": "Ġpreparing", "7455": "Ġposter", "7456": "Ġpoppies", "7457": "Ġnodd", "7458": "Ġlamb", "7459": "Ġknocking", "7460": "Ġeverybody", "7461": "Ġcreamy", "7462": "Ġcobwebs", "7463": "Ġcleaner", "7464": "Ġbanged", "7465": "ĠTia", "7466": "ĠSimon", "7467": "ĠRy", "7468": "ĠRon", "7469": "ĠNobody", "7470": "ĠNana", "7471": "ĠMeg", "7472": "ĠMaya", "7473": "ĠFe", "7474": "ĠCro", "7475": "ĠâĢĺ", "7476": "worm", "7477": "ubba", "7478": "tha", "7479": "nif", "7480": "lright", "7481": "andas", "7482": "ala", "7483": "Get", "7484": "Alright", "7485": "Ġswallowed", "7486": "Ġsurroundings", "7487": "Ġsource", "7488": "Ġsending", "7489": "Ġpops", "7490": "Ġmast", "7491": "Ġfirefly", "7492": "Ġends", "7493": "Ġev", "7494": "Ġbitten", "7495": "Ġavocados", "7496": "Ġamong", "7497": "ĠZoey", "7498": "ĠUniversity", "7499": "ĠPam", "7500": "ĠJackie", "7501": "ndparent", "7502": "Put", "7503": "Bessie", "7504": "Ġwilling", "7505": "Ġwadd", "7506": "Ġtricycle", "7507": "Ġtoddler", "7508": "Ġspins", "7509": "Ġrivers", "7510": "Ġmesmer", "7511": "Ġloops", "7512": "Ġgracefully", "7513": "Ġgiggles", "7514": "Ġgardener", "7515": "Ġdonkey", "7516": "Ġdaring", "7517": "Ġcreams", "7518": "ĠYawn", "7519": "ĠRobo", "7520": "ĠBiggie", "7521": "ĠAlong", "7522": "oodles", "7523": "immering", "7524": "agic", "7525": "aver", "7526": "Ribbit", "7527": "Ġund", "7528": "Ġtissue", "7529": "Ġstroke", "7530": "Ġrespected", "7531": "Ġreass", "7532": "Ġrumble", "7533": "Ġrather", "7534": "Ġpours", "7535": "Ġminded", "7536": "Ġlanguages", "7537": "Ġhangers", "7538": "Ġdump", "7539": "Ġcrossing", "7540": "Ġcolder", "7541": "Ġcamping", "7542": "Ġcertain", "7543": "Ġbamboo", "7544": "ĠTwist", "7545": "ĠSophia", "7546": "ĠJessie", "7547": "ĠHolly", "7548": "ĠFloppy", "7549": "ĠFairy", "7550": "ĠDani", "7551": "ĠBri", "7552": "ummies", "7553": "rier", "7554": "olf", "7555": "line", "7556": "inch", "7557": "ichael", "7558": "fire", "7559": "erm", "7560": "child", "7561": "ashing", "7562": "ami", "7563": "ading", "7564": "Hoppy", "7565": "Boys", "7566": "Ġteams", "7567": "Ġsweaty", "7568": "Ġpleasure", "7569": "Ġknots", "7570": "Ġhearing", "7571": "ĠSpirit", "7572": "ĠFrosty", "7573": "ĠAbi", "7574": "urious", "7575": "ilda", "7576": "ighting", "7577": "Keep", "7578": "Ġtrampoline", "7579": "Ġsqueezing", "7580": "Ġsquishy", "7581": "Ġscamp", "7582": "Ġrecipe", "7583": "Ġnervously", "7584": "Ġmagnif", "7585": "Ġgrassy", "7586": "Ġge", "7587": "Ġcrowns", "7588": "Ġcharac", "7589": "Ġaudience", "7590": "ĠRobert", "7591": "ssy", "7592": "ntil", "7593": "idi", "7594": "cess", "7595": "Which", "7596": "Hop", "7597": "!âĢĿ.", "7598": "Ġyielded", "7599": "Ġtigers", "7600": "Ġscored", "7601": "Ġsank", "7602": "Ġreversed", "7603": "Ġpeck", "7604": "Ġmate", "7605": "Ġjoins", "7606": "Ġflip", "7607": "Ġdeed", "7608": "Ġclue", "7609": "Ġcheers", "7610": "Ġchop", "7611": "Ġbru", "7612": "Ġbicycles", "7613": "Ġbells", "7614": "Ġbeloved", "7615": "Ġarran", "7616": "ĠMaddie", "7617": "reg", "7618": "inger", "7619": "erk", "7620": "eal", "7621": "cent", "7622": "Rose", "7623": "Dear", "7624": "Ġworn", "7625": "Ġvehicles", "7626": "Ġtossed", "7627": "Ġtummies", "7628": "Ġsheets", "7629": "Ġpolitely", "7630": "Ġpandas", "7631": "Ġoysters", "7632": "Ġgob", "7633": "Ġdressing", "7634": "Ġdie", "7635": "Ġaccomplishment", "7636": "ĠShow", "7637": "ĠMartha", "7638": "ĠLi", "7639": "ĠJaney", "7640": "ĠBuggy", "7641": "Ġicing", "7642": "bro", "7643": "ali", "7644": "acey", "7645": "Very", "7646": "Uncle", "7647": "Ruby", "7648": "Carl", "7649": "Aunt", "7650": "Ġweed", "7651": "Ġswimmer", "7652": "Ġsurfing", "7653": "Ġrats", "7654": "Ġlessons", "7655": "Ġlent", "7656": "Ġintrigued", "7657": "Ġhandsome", "7658": "Ġfirmly", "7659": "Ġangels", "7660": "Ġanger", "7661": "Ġaeroplanes", "7662": "ĠZippy", "7663": "ĠTurtle", "7664": "ĠGu", "7665": "ĠCici", "7666": "unched", "7667": "oscope", "7668": "onn", "7669": "ilted", "7670": "ears", "7671": "Afterwards", "7672": "Ġwaterfall", "7673": "Ġscrews", "7674": "Ġpunishment", "7675": "Ġmonths", "7676": "Ġmiles", "7677": "Ġgrandparent", "7678": "Ġgoats", "7679": "Ġfocus", "7680": "Ġfluttered", "7681": "Ġelbow", "7682": "Ġdrif", "7683": "Ġdoorbell", "7684": "Ġcovering", "7685": "ĠTruck", "7686": "ĠNavy", "7687": "ĠCindy", "7688": "ĠBloom", "7689": "ĠBiggy", "7690": "well", "7691": "via", "7692": "ippers", "7693": "elia", "7694": "cat", "7695": "aly", "7696": "alia", "7697": "Quack", "7698": "David", "7699": "Bow", "7700": "Ġtravelled", "7701": "Ġsteer", "7702": "Ġprick", "7703": "Ġnightmares", "7704": "Ġnuzz", "7705": "Ġlies", "7706": "Ġgenie", "7707": "Ġencouraging", "7708": "Ġchanges", "7709": "Ġcamel", "7710": "Ġbothering", "7711": "ĠRalph", "7712": "ĠQuack", "7713": "ĠJessica", "7714": "ĠIzzy", "7715": "ĠDoctor", "7716": "rect", "7717": "rat", "7718": "ots", "7719": "driver", "7720": "arlings", "7721": "aps", "7722": "Pat", "7723": "Jam", "7724": "Ġsweep", "7725": "Ġstroll", "7726": "Ġpedaled", "7727": "Ġkangaroos", "7728": "Ġdarlings", "7729": "Ġbandages", "7730": "ĠWor", "7731": "ĠLy", "7732": "ĠBuster", "7733": "while", "7734": "atur", "7735": "Binky", "7736": "Ġtubes", "7737": "Ġsteth", "7738": "Ġsports", "7739": "Ġspoonful", "7740": "Ġsens", "7741": "Ġnur", "7742": "Ġinstruments", "7743": "Ġinter", "7744": "Ġgreeted", "7745": "Ġgazing", "7746": "Ġengines", "7747": "Ġdamaged", "7748": "Ġbreathed", "7749": "Ġamount", "7750": "ĠFrankie", "7751": "ĠDi", "7752": "ĠBro", "7753": "prints", "7754": "osen", "7755": "ighing", "7756": "ibi", "7757": "ager", "7758": "Like", "7759": "Even", "7760": "Bill", "7761": "Ġyelped", "7762": "Ġyumm", "7763": "Ġthoughts", "7764": "Ġterrified", "7765": "Ġspeeding", "7766": "Ġshorter", "7767": "Ġrelaxing", "7768": "Ġopinions", "7769": "Ġoffic", "7770": "Ġnodding", "7771": "Ġloses", "7772": "Ġdiscussed", "7773": "Ġdefin", "7774": "Ġchosen", "7775": "Ġaren", "7776": "Ġang", "7777": "ĠSamantha", "7778": "ĠPen", "7779": "ĠHerb", "7780": "uffin", "7781": "ollen", "7782": "oger", "7783": "inn", "7784": "becca", "7785": "Slow", "7786": "Pippin", "7787": "Behind", "7788": "Betty", "7789": "Ġwaddled", "7790": "Ġswollen", "7791": "Ġstored", "7792": "Ġsneezes", "7793": "Ġsingers", "7794": "Ġshown", "7795": "Ġresisted", "7796": "Ġreminds", "7797": "Ġplayd", "7798": "Ġhanding", "7799": "Ġgest", "7800": "Ġdev", "7801": "Ġcorrect", "7802": "ĠVroom", "7803": "ĠOkay", "7804": "ĠLuckily", "7805": "tock", "7806": "romise", "7807": "ibby", "7808": "how", "7809": "ett", "7810": "arrow", "7811": "Lena", "7812": "Instead", "7813": "Hurry", "7814": "Ġwatering", "7815": "Ġunsure", "7816": "Ġtested", "7817": "Ġtalents", "7818": "Ġsweetest", "7819": "Ġstethoscope", "7820": "Ġstacked", "7821": "Ġsnowflakes", "7822": "Ġsnaps", "7823": "Ġshady", "7824": "Ġrisks", "7825": "Ġnotes", "7826": "Ġnecks", "7827": "Ġmixture", "7828": "Ġmaker", "7829": "Ġhealing", "7830": "Ġhoo", "7831": "Ġfaded", "7832": "Ġexcept", "7833": "Ġbelts", "7834": "ĠWell", "7835": "ĠTweetie", "7836": "ĠNick", "7837": "ĠMissile", "7838": "ĠMarie", "7839": "ĠKay", "7840": "ĠEliza", "7841": "ĠBubba", "7842": "ĠAshley", "7843": "umbling", "7844": "rup", "7845": "iffy", "7846": "idey", "7847": "hat", "7848": "ening", "7849": "eave", "7850": "Leave", "7851": "Kiki", "7852": "Choo", "7853": "Baby", "7854": "Ġtying", "7855": "Ġtid", "7856": "Ġtar", "7857": "Ġscrewdriver", "7858": "Ġsill", "7859": "Ġroars", "7860": "Ġminds", "7861": "Ġlowered", "7862": "Ġflaps", "7863": "Ġexplo", "7864": "Ġcrystals", "7865": "Ġcoloured", "7866": "Ġcenter", "7867": "Ġbrushing", "7868": "Ġbounces", "7869": "ĠRu", "7870": "ĠPatch", "7871": "ĠMonkey", "7872": "ĠMake", "7873": "ĠFlop", "7874": "ĠFiona", "7875": "ĠDotty", "7876": "rum", "7877": "melon", "7878": "issy", "7879": "ces", "7880": "beep", "7881": "bage", "7882": "Tony", "7883": "Ted", "7884": "Snow", "7885": "Mira", "7886": "Ellie", "7887": "Bang", "7888": "Ġwiggly", "7889": "Ġsty", "7890": "Ġserving", "7891": "Ġrustling", "7892": "Ġprayers", "7893": "Ġpound", "7894": "Ġmaterials", "7895": "Ġmassages", "7896": "Ġignoring", "7897": "Ġhiss", "7898": "Ġguide", "7899": "Ġforgiven", "7900": "Ġfloats", "7901": "Ġfiles", "7902": "Ġdisob", "7903": "Ġcooper", "7904": "Ġbravest", "7905": "Ġarranged", "7906": "ĠZack", "7907": "ĠBad", "7908": "ĠAdam", "7909": "ĠAg", "7910": "usty", "7911": "undred", "7912": "iscuit", "7913": "gies", "7914": "cused", "7915": "anwhile", "7916": "ails", "7917": "acy", "7918": "Magic", "7919": "Dolly", "7920": "Buzzy", "7921": "Ġtrot", "7922": "Ġswitched", "7923": "Ġships", "7924": "Ġshines", "7925": "Ġscooters", "7926": "Ġsy", "7927": "Ġorders", "7928": "Ġonward", "7929": "Ġleapt", "7930": "Ġgrandchild", "7931": "Ġenvelopes", "7932": "Ġenthusias", "7933": "Ġenthusiasm", "7934": "Ġencouragement", "7935": "Ġdelayed", "7936": "Ġchecks", "7937": "Ġbehavior", "7938": "ĠToys", "7939": "ĠNear", "7940": "ĠEv", "7941": "ĠDina", "7942": "Ġ10", "7943": "ically", "7944": "hole", "7945": "father", "7946": "ending", "7947": "ellie", "7948": "awk", "7949": "Too", "7950": "Hannah", "7951": "Ġwounds", "7952": "Ġwhimp", "7953": "Ġwider", "7954": "Ġtoolbox", "7955": "Ġtempt", "7956": "Ġsymbols", "7957": "Ġspies", "7958": "Ġscoops", "7959": "Ġrobber", "7960": "Ġquarreled", "7961": "Ġneatly", "7962": "Ġheight", "7963": "Ġgerm", "7964": "Ġfirefighters", "7965": "Ġbride", "7966": "Ġbeeh", "7967": "ĠStretch", "7968": "ĠRuth", "7969": "ĠKaren", "7970": "ĠJudy", "7971": "ĠGrand", "7972": "ĠElle", "7973": "ĠBeaky", "7974": "ĊĠĊ", "7975": "years", "7976": "wise", "7977": "uess", "7978": "steps", "7979": "shadow", "7980": "raw", "7981": "rons", "7982": "rog", "7983": "ongrat", "7984": "ddie", "7985": "broken", "7986": "bigail", "7987": "antastic", "7988": "Sad", "7989": "Pip", "7990": "Guess", "7991": "Abigail", "7992": "Ġwatermelon", "7993": "Ġtesting", "7994": "Ġsqueaked", "7995": "Ġrepeating", "7996": "Ġhumans", "7997": "Ġgeese", "7998": "Ġgoo", "7999": "Ġfluttering", "8000": "Ġfigures", "8001": "Ġdefinitely", "8002": "Ġcaps", "8003": "Ġbreathing", "8004": "Ġbothered", "8005": "Ġbaskets", "8006": "Ġantic", "8007": "ĠUntil", "8008": "ĠSay", "8009": "ĠRyan", "8010": "ĠNice", "8011": "ĠFly", "8012": "ooks", "8013": "ongratul", "8014": "igger", "8015": "ientist", "8016": "covered", "8017": "attered", "8018": "aint", "8019": "Open", "8020": "Jacob", "8021": "Ġwisely", "8022": "Ġweekend", "8023": "Ġtreated", "8024": "Ġtuck", "8025": "Ġspringing", "8026": "Ġspits", "8027": "Ġsmashed", "8028": "Ġscattering", "8029": "Ġresults", "8030": "Ġrescuing", "8031": "Ġquieter", "8032": "Ġpigeons", "8033": "Ġmunch", "8034": "Ġlongest", "8035": "Ġlending", "8036": "Ġfootprints", "8037": "Ġdreamt", "8038": "Ġcombed", "8039": "Ġannoyed", "8040": "Ġaccidents", "8041": "ĠZipper", "8042": "ĠTodd", "8043": "ĠThanks", "8044": "ĠStep", "8045": "ĠSug", "8046": "ĠPoor", "8047": "ĠPeep", "8048": "ĠPig", "8049": "ĠNan", "8050": "ĠMint", "8051": "ĠFighting", "8052": "ĠElephant", "8053": "ĠEx", "8054": "ĠAlf", "8055": "Ġouch", "8056": "unity", "8057": "ille", "8058": "ellow", "8059": "els", "8060": "eling", "8061": "ching", "8062": "anie", "8063": "Goodnight", "8064": "Ġwrig", "8065": "Ġtrans", "8066": "Ġtoward", "8067": "Ġstomp", "8068": "Ġsprinkled", "8069": "Ġscampered", "8070": "Ġscientist", "8071": "Ġplot", "8072": "Ġpeeled", "8073": "Ġpant", "8074": "Ġnovels", "8075": "Ġmanners", "8076": "Ġhumming", "8077": "Ġgerms", "8078": "Ġenjoyable", "8079": "Ġdripping", "8080": "Ġcrashing", "8081": "Ġchar", "8082": "Ġcares", "8083": "Ġcausing", "8084": "Ġbuddy", "8085": "Ġaware", "8086": "Ġaisle", "8087": "ĠWilly", "8088": "ĠTime", "8089": "ĠTess", "8090": "ĠIsn", "8091": "ĠGerry", "8092": "ĠFishy", "8093": "ĠDel", "8094": "rily", "8095": "obby", "8096": "isions", "8097": "iment", "8098": "ico", "8099": "iana", "8100": "ggie", "8101": "con", "8102": "Steve", "8103": "Sun", "8104": "Che", "8105": "Ġzooms", "8106": "Ġtype", "8107": "Ġsternly", "8108": "Ġsteering", "8109": "Ġsprout", "8110": "Ġsoaking", "8111": "Ġslither", "8112": "Ġseals", "8113": "Ġscraped", "8114": "Ġpotion", "8115": "Ġneare", "8116": "Ġnoodles", "8117": "Ġlipstick", "8118": "Ġlapt", "8119": "Ġhesitant", "8120": "Ġevil", "8121": "Ġcuddles", "8122": "Ġcoloring", "8123": "Ġclassmates", "8124": "Ġanticip", "8125": "ĠTre", "8126": "ĠJax", "8127": "ĠGracie", "8128": "ĠEverybody", "8129": "mallow", "8130": "fus", "8131": "cted", "8132": "Nice", "8133": "Birdy", "8134": "Back", "8135": "Ġwarmly", "8136": "Ġtilted", "8137": "Ġstamped", "8138": "Ġsandcastles", "8139": "Ġpermitted", "8140": "Ġmarsh", "8141": "Ġmood", "8142": "Ġhundred", "8143": "Ġgobbled", "8144": "Ġgesture", "8145": "Ġfreezing", "8146": "Ġfocused", "8147": "Ġflight", "8148": "Ġease", "8149": "Ġdodged", "8150": "Ġdisplayed", "8151": "Ġdespite", "8152": "Ġblast", "8153": "Ġbathing", "8154": "Ġaprons", "8155": "Ġachieved", "8156": "ĠSparky", "8157": "ĠSparkle", "8158": "ĠPatty", "8159": "ĠPick", "8160": "ĠInk", "8161": "ĠGold", "8162": "ĠFlutter", "8163": "ĠFle", "8164": "ĠExc", "8165": "ĠClaire", "8166": "ĠChewy", "8167": "ĠCari", "8168": "vey", "8169": "rick", "8170": "ouqu", "8171": "its", "8172": "ils", "8173": "gra", "8174": "gling", "8175": "Kids", "8176": "Ġyummiest", "8177": "Ġtrusting", "8178": "Ġswap", "8179": "Ġspills", "8180": "Ġseller", "8181": "Ġself", "8182": "Ġscurry", "8183": "Ġpuzzled", "8184": "Ġpostman", "8185": "Ġpolar", "8186": "Ġpuck", "8187": "Ġofficers", "8188": "Ġoc", "8189": "Ġmatey", "8190": "Ġlicking", "8191": "Ġghosts", "8192": "Ġfootsteps", "8193": "Ġencount", "8194": "Ġdrifted", "8195": "Ġdoorway", "8196": "Ġdecl", "8197": "Ġcupcakes", "8198": "Ġcrawls", "8199": "Ġconnected", "8200": "Ġcirc", "8201": "Ġcalmly", "8202": "Ġbouqu", "8203": "ĠTra", "8204": "ĠMixy", "8205": "ĠKn", "8206": "ĠElsie", "8207": "utt", "8208": "ument", "8209": "robes", "8210": "rever", "8211": "nap", "8212": "mies", "8213": "inier", "8214": "iko", "8215": "ibbles", "8216": "byes", "8217": "asers", "8218": "affle", "8219": "aven", "8220": "Mon", "8221": "Ġworrying", "8222": "Ġtwinkled", "8223": "Ġteachers", "8224": "Ġstall", "8225": "Ġsquir", "8226": "Ġsnuggle", "8227": "Ġsets", "8228": "Ġscares", "8229": "Ġrespon", "8230": "Ġplaydate", "8231": "Ġneighbours", "8232": "Ġnearly", "8233": "Ġmattered", "8234": "Ġlocks", "8235": "Ġfreedom", "8236": "Ġforgives", "8237": "Ġfailed", "8238": "Ġechoed", "8239": "Ġdestroying", "8240": "Ġcollap", "8241": "Ġcharacters", "8242": "Ġbusiness", "8243": "Ġbelongings", "8244": "Ġbeehive", "8245": "Ġass", "8246": "Ġappreciation", "8247": "ĠTaking", "8248": "ĠSal", "8249": "ĠNutty", "8250": "ĠMus", "8251": "ĠKayla", "8252": "ĠJudge", "8253": "ĠFlo", "8254": "ĠBert", "8255": "oopy", "8256": "oosh", "8257": "hrink", "8258": "che", "8259": "artled", "8260": "Shrink", "8261": "Rain", "8262": "Ġvisitors", "8263": "Ġtarget", "8264": "Ġsuggestion", "8265": "Ġshinier", "8266": "Ġsacks", "8267": "Ġsou", "8268": "Ġreturning", "8269": "Ġresponse", "8270": "Ġreassured", "8271": "Ġreun", "8272": "Ġrushing", "8273": "Ġpurpose", "8274": "Ġpeacefully", "8275": "Ġocc", "8276": "Ġmugs", "8277": "Ġlaptop", "8278": "Ġgrandparents", "8279": "Ġgoodbyes", "8280": "Ġdesper", "8281": "Ġcleared", "8282": "Ġbenches", "8283": "Ġbellies", "8284": "Ġaim", "8285": "ĠSmo", "8286": "ĠSkip", "8287": "ĠMuffin", "8288": "ĠMan", "8289": "ĠLa", "8290": "ĠGill", "8291": "ĠDaniel", "8292": "ĠAnother", "8293": "oco", "8294": "mine", "8295": "lyn", "8296": "lie", "8297": "iter", "8298": "car", "8299": "Wake", "8300": "Find", "8301": "Beth", "8302": "--", "8303": "Ġwithin", "8304": "Ġunderstands", "8305": "Ġtips", "8306": "Ġtumbled", "8307": "Ġskirts", "8308": "Ġsadder", "8309": "Ġresponded", "8310": "Ġrowed", "8311": "Ġproper", "8312": "Ġpresented", "8313": "Ġposit", "8314": "Ġnib", "8315": "Ġjoyful", "8316": "Ġheartbroken", "8317": "Ġgrandson", "8318": "Ġgroom", "8319": "Ġdriveway", "8320": "Ġcond", "8321": "Ġcharge", "8322": "Ġcarries", "8323": "Ġcafe", "8324": "Ġborn", "8325": "Ġastronauts", "8326": "Ġanticipation", "8327": "ĠTooth", "8328": "ĠStan", "8329": "ĠShelly", "8330": "ĠJoke", "8331": "ĠJacky", "8332": "ĠHor", "8333": "ĠApp", "8334": "what", "8335": "storm", "8336": "peck", "8337": "oes", "8338": "lied", "8339": "ilities", "8340": "ended", "8341": "Try", "8342": "Tree", "8343": "Someone", "8344": "Ray", "8345": "Near", "8346": "Elly", "8347": "Ġwrink", "8348": "Ġwasting", "8349": "Ġtests", "8350": "Ġsniffing", "8351": "Ġshorts", "8352": "Ġrefreshing", "8353": "Ġpurrs", "8354": "Ġobserving", "8355": "Ġnurses", "8356": "Ġjourneys", "8357": "Ġinsisting", "8358": "Ġinj", "8359": "Ġglitt", "8360": "Ġflips", "8361": "Ġfinishing", "8362": "Ġfantastic", "8363": "Ġerasers", "8364": "Ġcleans", "8365": "Ġbrightest", "8366": "Ġadults", "8367": "Ġaction", "8368": "ĠSpoon", "8369": "ĠPinch", "8370": "ĠNever", "8371": "ĠMegan", "8372": "ĠInky", "8373": "ĠGus", "8374": "ĠFid", "8375": "ĠDavey", "8376": "ĠCass", "8377": "ĠBess", "8378": "screen", "8379": "reverse", "8380": "oura", "8381": "onna", "8382": "isha", "8383": "ipes", "8384": "ift", "8385": "ata", "8386": "Squ", "8387": "Speedy", "8388": "Jess", "8389": ",'", "8390": "Ġsweaters", "8391": "Ġstepping", "8392": "Ġsimply", "8393": "Ġserv", "8394": "Ġscolds", "8395": "Ġpaintbrush", "8396": "Ġopport", "8397": "Ġmembers", "8398": "Ġmelons", "8399": "Ġmarshmallow", "8400": "Ġmaster", "8401": "Ġhunters", "8402": "Ġhangs", "8403": "Ġdresser", "8404": "Ġdecisions", "8405": "Ġcracks", "8406": "Ġclosing", "8407": "Ġcheat", "8408": "Ġcells", "8409": "Ġbends", "8410": "Ġbeeped", "8411": "Ġactive", "8412": "ĠWilliam", "8413": "ĠPlaying", "8414": "ĠPot", "8415": "ĠPop", "8416": "ĠLo", "8417": "ĠDespite", "8418": "ĠCare", "8419": "Ġ2", "8420": "ulp", "8421": "stand", "8422": "rice", "8423": "ounced", "8424": "ingle", "8425": "immy", "8426": "ili", "8427": "Red", "8428": "Liz", "8429": "Gigi", "8430": "Finny", "8431": "Ġzigzags", "8432": "Ġunz", "8433": "Ġunable", "8434": "Ġthreads", "8435": "Ġstrum", "8436": "Ġspoiling", "8437": "Ġsnuck", "8438": "Ġslapping", "8439": "Ġsever", "8440": "Ġrods", "8441": "Ġreminding", "8442": "Ġnasty", "8443": "Ġmesmerized", "8444": "Ġinsp", "8445": "Ġinches", "8446": "Ġfriendships", "8447": "Ġexpecting", "8448": "Ġdock", "8449": "Ġdep", "8450": "Ġconnect", "8451": "Ġcampfire", "8452": "Ġbulbs", "8453": "Ġbacks", "8454": "Ġapologised", "8455": "Ġadmiration", "8456": "ĠWait", "8457": "ĠViv", "8458": "ĠSet", "8459": "ĠRiley", "8460": "ĠPlay", "8461": "ĠPuff", "8462": "ĠPep", "8463": "ĠOxy", "8464": "ĠOh", "8465": "ĠGreeny", "8466": "ĠGrump", "8467": "ĠFix", "8468": "ĠBibi", "8469": "retty", "8470": "ram", "8471": "ortunately", "8472": "irac", "8473": "iddy", "8474": "ics", "8475": "action", "8476": "Olive", "8477": "Ġtearing", "8478": "Ġtaped", "8479": "Ġtapping", "8480": "Ġstretches", "8481": "Ġseveral", "8482": "Ġrows", "8483": "Ġrays", "8484": "Ġoffering", "8485": "Ġnights", "8486": "Ġnewspapers", "8487": "Ġhaird", "8488": "Ġfleas", "8489": "Ġflashed", "8490": "Ġcomforting", "8491": "Ġcoach", "8492": "Ġburying", "8493": "Ġbelieving", "8494": "Ġbeating", "8495": "ĠWolf", "8496": "ĠSweet", "8497": "ĠOrange", "8498": "ĠMindy", "8499": "ĠMart", "8500": "ĠMabel", "8501": "ĠLong", "8502": "ĠFlicker", "8503": "ĠBingo", "8504": "rust", "8505": "hand", "8506": "found", "8507": "ela", "8508": "daughter", "8509": "Sus", "8510": "Cindy", "8511": "Ġwinding", "8512": "Ġwinners", "8513": "Ġtravelling", "8514": "Ġsurv", "8515": "Ġreapp", "8516": "Ġraking", "8517": "Ġprobably", "8518": "Ġpassengers", "8519": "Ġobeyed", "8520": "Ġminding", "8521": "Ġmagazines", "8522": "Ġhorri", "8523": "Ġgrandfather", "8524": "Ġdisobey", "8525": "Ġdecoration", "8526": "Ġdeclared", "8527": "Ġdears", "8528": "Ġcheated", "8529": "Ġburnt", "8530": "Ġbecomes", "8531": "Ġargument", "8532": "ĠWaffle", "8533": "ĠShare", "8534": "ĠPer", "8535": "ĠMagnet", "8536": "ĠJoj", "8537": "ĠClean", "8538": "uild", "8539": "str", "8540": "rina", "8541": "ivia", "8542": "erpiece", "8543": "eow", "8544": "can", "8545": "aret", "8546": "Mouse", "8547": "Ġweighs", "8548": "Ġvisits", "8549": "Ġupside", "8550": "Ġthroughout", "8551": "Ġthanking", "8552": "Ġstudent", "8553": "Ġsoot", "8554": "Ġsandy", "8555": "Ġhairdress", "8556": "Ġgoodies", "8557": "Ġexperien", "8558": "Ġencountered", "8559": "Ġdisappoint", "8560": "Ġcurl", "8561": "Ġcowboys", "8562": "Ġawful", "8563": "Ġadds", "8564": "Ġaddress", "8565": "ĠTick", "8566": "ĠSquee", "8567": "ĠSofty", "8568": "ĠRebecca", "8569": "ĠKaty", "8570": "ĠJelly", "8571": "ĠFluff", "8572": "ĠCook", "8573": "unes", "8574": "rent", "8575": "orty", "8576": "oss", "8577": "olet", "8578": "lan", "8579": "emon", "8580": "elling", "8581": "eople", "8582": "ctric", "8583": "cha", "8584": "apple", "8585": "anish", "8586": "alth", "8587": "Sque", "8588": "People", "8589": "Nothing", "8590": "Karen", "8591": "Joy", "8592": "Grow", "8593": "Both", "8594": "Ġunpacking", "8595": "Ġtravels", "8596": "Ġsupplied", "8597": "Ġsolving", "8598": "Ġsincere", "8599": "Ġshooed", "8600": "Ġshall", "8601": "Ġscent", "8602": "Ġrely", "8603": "Ġrout", "8604": "Ġmarshmallows", "8605": "Ġlimp", "8606": "Ġhy", "8607": "Ġexplains", "8608": "Ġefforts", "8609": "Ġearned", "8610": "Ġdiamonds", "8611": "Ġcraft", "8612": "Ġcoughed", "8613": "Ġbubbly", "8614": "Ġbond", "8615": "Ġbeetles", "8616": "Ġbiscuit", "8617": "Ġawoke", "8618": "Ġalthough", "8619": "Ġaffect", "8620": "Ġactor", "8621": "ĠReady", "8622": "ĠMis", "8623": "ĠJa", "8624": "ĠHar", "8625": "ĠExcited", "8626": "ĠClay", "8627": "ĠAlthough", "8628": "urf", "8629": "ulf", "8630": "uzy", "8631": "scar", "8632": "oria", "8633": "nut", "8634": "meow", "8635": "llas", "8636": "lay", "8637": "ighty", "8638": "erg", "8639": "Tilly", "8640": "Splash", "8641": "Julie", "8642": "Jamie", "8643": "Does", "8644": ".'\"", "8645": "Ġyoungest", "8646": "Ġtrotted", "8647": "Ġtops", "8648": "Ġsunscreen", "8649": "Ġsoapy", "8650": "Ġsnug", "8651": "Ġsirens", "8652": "Ġrealizes", "8653": "Ġpicnics", "8654": "Ġmotorcy", "8655": "Ġmoons", "8656": "Ġmasterpiece", "8657": "Ġknit", "8658": "Ġkilled", "8659": "Ġinvitations", "8660": "Ġguards", "8661": "Ġgonna", "8662": "Ġform", "8663": "Ġedges", "8664": "Ġdrown", "8665": "Ġcowboy", "8666": "Ġconsider", "8667": "Ġcompete", "8668": "Ġbomb", "8669": "Ġactivity", "8670": "ĠRainbow", "8671": "ĠEd", "8672": "ĠBlinky", "8673": "ĠBirds", "8674": "Ġ5", "8675": "vas", "8676": "match", "8677": "icking", "8678": "ices", "8679": "hhh", "8680": "ema", "8681": "elieve", "8682": "bank", "8683": "alloween", "8684": "Suzy", "8685": "Rosie", "8686": "Mother", "8687": "Hm", "8688": "Hmm", "8689": "Finn", "8690": "Fire", "8691": "Ġwhistles", "8692": "Ġvibr", "8693": "Ġunlo", "8694": "Ġuniforms", "8695": "Ġunfair", "8696": "Ġthump", "8697": "Ġsmelling", "8698": "Ġpizzas", "8699": "Ġhairdresser", "8700": "Ġforests", "8701": "Ġdemanding", "8702": "Ġdangers", "8703": "Ġcooperate", "8704": "Ġchoosing", "8705": "Ġchopped", "8706": "Ġbouquet", "8707": "Ġbob", "8708": "Ġbathrobes", "8709": "ĠWhoever", "8710": "ĠToo", "8711": "ĠStr", "8712": "ĠSleepy", "8713": "ĠRos", "8714": "ĠRoger", "8715": "ĠRight", "8716": "ĠPiggy", "8717": "ĠMichael", "8718": "ĠMamma", "8719": "ĠLaw", "8720": "ĠJojo", "8721": "ĠFridge", "8722": "ĠCe", "8723": "ula", "8724": "rop", "8725": "inted", "8726": "free", "8727": "eading", "8728": "boards", "8729": "build", "8730": "aylor", "8731": "anced", "8732": "acles", "8733": "acing", "8734": "ander", "8735": "Since", "8736": "Rachel", "8737": "Maddie", "8738": "Mittens", "8739": "Ġthumbs", "8740": "Ġsurrendered", "8741": "Ġpleaded", "8742": "Ġplanting", "8743": "Ġmooed", "8744": "Ġmommies", "8745": "Ġmagnifying", "8746": "Ġloudest", "8747": "Ġhover", "8748": "Ġhaircuts", "8749": "Ġgenerosity", "8750": "Ġgap", "8751": "Ġforce", "8752": "Ġfishes", "8753": "Ġexperienced", "8754": "Ġexamining", "8755": "Ġenviron", "8756": "Ġdiscussing", "8757": "Ġdesigning", "8758": "Ġcotton", "8759": "Ġchews", "8760": "Ġchill", "8761": "Ġbeaver", "8762": "Ġbadger", "8763": "Ġattack", "8764": "Ġafford", "8765": "ĠZog", "8766": "ĠWinky", "8767": "ĠSmoke", "8768": "ĠPrun", "8769": "ĠMicroscope", "8770": "ĠJun", "8771": "ĠIce", "8772": "ĠHopp", "8773": "ĠHoney", "8774": "ĠHalloween", "8775": "ĠGary", "8776": "ĠBaa", "8777": "ĠAmelia", "8778": "ĠAp", "8779": "ĠâĢĶ", "8780": "vy", "8781": "udged", "8782": "ragon", "8783": "park", "8784": "lin", "8785": "lers", "8786": "ical", "8787": "iann", "8788": "dam", "8789": "ances", "8790": "aned", "8791": "amm", "8792": "aah", "8793": "Lucky", "8794": "Luc", "8795": "Fly", "8796": "Coco", "8797": "Ball", "8798": "Adam", "8799": "'.\"", "8800": "Ġwhales", "8801": "Ġweeds", "8802": "Ġweaker", "8803": "Ġtraveling", "8804": "Ġtraps", "8805": "Ġtowns", "8806": "Ġstuffing", "8807": "Ġstrips", "8808": "Ġshares", "8809": "Ġscurrying", "8810": "Ġscratching", "8811": "Ġresponsib", "8812": "Ġplug", "8813": "Ġpasses", "8814": "Ġmeaning", "8815": "Ġloc", "8816": "Ġimaginations", "8817": "Ġhonesty", "8818": "Ġgod", "8819": "Ġforts", "8820": "Ġforeshadow", "8821": "Ġflowing", "8822": "Ġfinal", "8823": "Ġenvironment", "8824": "Ġdrift", "8825": "Ġcourt", "8826": "Ġclerk", "8827": "Ġcertainly", "8828": "Ġcanvas", "8829": "Ġcongratul", "8830": "Ġbeaming", "8831": "ĠWooly", "8832": "ĠSpin", "8833": "ĠRufus", "8834": "ĠRub", "8835": "ĠRes", "8836": "ĠPear", "8837": "ĠMona", "8838": "ĠJoanna", "8839": "ĠDream", "8840": "ĠCarla", "8841": "ĠCom", "8842": "ĠBang", "8843": "Ġill", "8844": "vie", "8845": "rough", "8846": "ror", "8847": "pop", "8848": "ously", "8849": "ouraged", "8850": "oison", "8851": "lls", "8852": "lish", "8853": "ispy", "8854": "erald", "8855": "dest", "8856": "alf", "8857": "affy", "8858": "Snowy", "8859": "Sadly", "8860": "Owl", "8861": "Only", "8862": "Milo", "8863": "Lizzy", "8864": "Ant", "8865": "',", "8866": "Ġyawning", "8867": "Ġwhined", "8868": "Ġunfortunately", "8869": "Ġumbrellas", "8870": "Ġteles", "8871": "Ġsquashes", "8872": "Ġsleeps", "8873": "Ġshallow", "8874": "Ġsav", "8875": "Ġrobbers", "8876": "Ġreunited", "8877": "Ġrin", "8878": "Ġposs", "8879": "Ġpatches", "8880": "Ġmesses", "8881": "Ġlar", "8882": "Ġkissing", "8883": "Ġincreasing", "8884": "Ġhooks", "8885": "Ġheaven", "8886": "Ġfries", "8887": "Ġexperiences", "8888": "Ġconvers", "8889": "Ġclip", "8890": "Ġcaw", "8891": "Ġbuilder", "8892": "Ġbattle", "8893": "ĠTy", "8894": "ĠSugar", "8895": "ĠShadow", "8896": "ĠSing", "8897": "ĠPine", "8898": "ĠPet", "8899": "ĠMarg", "8900": "ĠMaisy", "8901": "ĠKen", "8902": "ĠImmediately", "8903": "ĠGeor", "8904": "ĠFar", "8905": "ĠClar", "8906": "ĠCol", "8907": "ĠCars", "8908": "ĠBrad", "8909": "water", "8910": "that", "8911": "sess", "8912": "rib", "8913": "rapped", "8914": "ril", "8915": "rack", "8916": "pin", "8917": "orth", "8918": "obe", "8919": "inoc", "8920": "hould", "8921": "guard", "8922": "five", "8923": "enna", "8924": "elic", "8925": "cutter", "8926": "abra", "8927": "Should", "8928": "Fifi", "8929": "Bluey", "8930": "Bub", "8931": "Bounce", "8932": "Ġwinks", "8933": "Ġweighing", "8934": "Ġwashes", "8935": "Ġstatues", "8936": "Ġsnowflake", "8937": "Ġscores", "8938": "Ġsatisf", "8939": "Ġrewards", "8940": "Ġquestioned", "8941": "Ġprickly", "8942": "Ġprank", "8943": "Ġplucked", "8944": "Ġpassenger", "8945": "Ġoppos", "8946": "Ġnuzzled", "8947": "Ġmovements", "8948": "Ġmodels", "8949": "Ġmayor", "8950": "Ġlectures", "8951": "Ġjig", "8952": "Ġhost", "8953": "Ġgall", "8954": "Ġfloors", "8955": "Ġfights", "8956": "Ġemerged", "8957": "Ġelectric", "8958": "Ġdollar", "8959": "Ġdefe", "8960": "Ġcomets", "8961": "Ġclicked", "8962": "Ġblond", "8963": "Ġbeast", "8964": "ĠStella", "8965": "ĠSpidey", "8966": "ĠPeggy", "8967": "ĠPuffy", "8968": "ĠPol", "8969": "ĠMaddy", "8970": "ĠInd", "8971": "ĠDen", "8972": "ĠChick", "8973": "ĠBar", "8974": "ĠAmber", "8975": "âĢĿ,", "8976": "xie", "8977": "sel", "8978": "rench", "8979": "otion", "8980": "orsie", "8981": "onny", "8982": "mar", "8983": "idd", "8984": "flower", "8985": "empt", "8986": "eline", "8987": "edic", "8988": "arla", "8989": "alu", "8990": "aily", "8991": "Sleep", "8992": "Penny", "8993": "Outside", "8994": "Meanwhile", "8995": "Matt", "8996": "Honey", "8997": "Frog", "8998": "Ahoy", "8999": "Ġwolves", "9000": "Ġwelcoming", "9001": "Ġwealth", "9002": "Ġveg", "9003": "Ġtwists", "9004": "Ġtelescope", "9005": "Ġsnowy", "9006": "Ġrecorder", "9007": "Ġrails", "9008": "Ġparted", "9009": "Ġopportunity", "9010": "Ġnewfound", "9011": "Ġmember", "9012": "Ġlav", "9013": "Ġguarding", "9014": "Ġgrat", "9015": "Ġgarbage", "9016": "Ġfoxes", "9017": "Ġfolders", "9018": "Ġfinishes", "9019": "Ġfoggy", "9020": "Ġexercises", "9021": "Ġdisappointment", "9022": "Ġcustomer", "9023": "Ġcountries", "9024": "Ġcorrectly", "9025": "Ġcapt", "9026": "Ġbreaths", "9027": "Ġamused", "9028": "ĠYog", "9029": "ĠVivi", "9030": "ĠToy", "9031": "ĠSpe", "9032": "ĠRad", "9033": "ĠQuacky", "9034": "ĠMomma", "9035": "ĠMore", "9036": "ĠLung", "9037": "ĠLenny", "9038": "ĠJanie", "9039": "ĠFido", "9040": "ĠDidi", "9041": "ĠBeef", "9042": "ĠBea", "9043": "ĠAc", "9044": "upt", "9045": "tie", "9046": "oing", "9047": "mark", "9048": "lest", "9049": "loth", "9050": "imm", "9051": "ima", "9052": "iving", "9053": "gar", "9054": "emies", "9055": "epper", "9056": "change", "9057": "aling", "9058": "aks", "9059": "Rabbit", "9060": "Pinky", "9061": "Pepper", "9062": "Hope", "9063": "Dino", "9064": "Ġwhoever", "9065": "Ġwhimpered", "9066": "Ġwhine", "9067": "Ġtextures", "9068": "Ġsyrup", "9069": "Ġstretchy", "9070": "Ġsquished", "9071": "Ġribbit", "9072": "Ġposes", "9073": "Ġplugged", "9074": "Ġowns", "9075": "Ġoverw", "9076": "Ġmustaches", "9077": "Ġmedals", "9078": "Ġmirac", "9079": "Ġlaws", "9080": "Ġinvites", "9081": "Ġinstantly", "9082": "Ġhates", "9083": "Ġgranddaughter", "9084": "Ġgasps", "9085": "Ġformed", "9086": "Ġflown", "9087": "Ġexpression", "9088": "Ġexams", "9089": "Ġenemies", "9090": "Ġdeserved", "9091": "Ġcustomers", "9092": "Ġcops", "9093": "Ġburns", "9094": "ĠMer", "9095": "ĠMath", "9096": "ĠLeaf", "9097": "ĠJohnson", "9098": "ĠJumpy", "9099": "ĠFa", "9100": "ĠDin", "9101": "ĠDilly", "9102": "ĠBoat", "9103": "ĠAmanda", "9104": "Ġicky", "9105": "shaped", "9106": "rizz", "9107": "ribble", "9108": "rant", "9109": "pecker", "9110": "olo", "9111": "oxy", "9112": "lap", "9113": "ilies", "9114": "eat", "9115": "dog", "9116": "creams", "9117": "cloth", "9118": "bur", "9119": "bbie", "9120": "anne", "9121": "Zigzag", "9122": "Josh", "9123": "Friends", "9124": "Ġwoodcutter", "9125": "Ġwhispering", "9126": "Ġtypes", "9127": "Ġtrigger", "9128": "Ġtidied", "9129": "Ġtaps", "9130": "Ġstores", "9131": "Ġsneaks", "9132": "Ġsnorted", "9133": "Ġshimmering", "9134": "Ġsigning", "9135": "Ġrips", "9136": "Ġrepeats", "9137": "Ġpositive", "9138": "Ġpineapple", "9139": "Ġpeep", "9140": "Ġparticularly", "9141": "Ġodd", "9142": "Ġmunched", "9143": "Ġhisses", "9144": "Ġdifferences", "9145": "Ġcommon", "9146": "Ġbuckled", "9147": "Ġbirdhouse", "9148": "Ġannoying", "9149": "ĠTippy", "9150": "ĠSadie", "9151": "ĠSpl", "9152": "ĠSil", "9153": "ĠReading", "9154": "ĠNat", "9155": "ĠMole", "9156": "ĠMina", "9157": "ĠFlopsy", "9158": "ĠDuke", "9159": "ĠCloud", "9160": "ĠAny", "9161": "uno", "9162": "shrink", "9163": "saw", "9164": "ousy", "9165": "oise", "9166": "mate", "9167": "maker", "9168": "laying", "9169": "itz", "9170": "isi", "9171": "icke", "9172": "han", "9173": "eka", "9174": "cidents", "9175": "centr", "9176": "bag", "9177": "aries", "9178": "annie", "9179": "aley", "9180": "acock", "9181": "Trust", "9182": "Slowly", "9183": "Rock", "9184": "Play", "9185": "Mel", "9186": "Jenn", "9187": "Got", "9188": "Ġuntangle", "9189": "Ġtickles", "9190": "Ġtin", "9191": "Ġtant", "9192": "Ġstorms", "9193": "Ġspy", "9194": "Ġrewarding", "9195": "Ġraising", "9196": "Ġprod", "9197": "Ġpackages", "9198": "Ġpipes", "9199": "Ġnibbled", "9200": "Ġnibble", "9201": "Ġmotorcycles", "9202": "Ġmoonlight", "9203": "Ġladybugs", "9204": "Ġjumper", "9205": "Ġjets", "9206": "Ġinvent", "9207": "Ġhood", "9208": "Ġfunn", "9209": "Ġfaint", "9210": "Ġexploded", "9211": "Ġdial", "9212": "Ġcottage", "9213": "Ġcollapsed", "9214": "Ġbluebird", "9215": "Ġautomobiles", "9216": "Ġattitude", "9217": "Ġaston", "9218": "Ġapplauding", "9219": "Ġapplause", "9220": "Ġaccomplished", "9221": "ĠTiger", "9222": "ĠSuper", "9223": "ĠRh", "9224": "ĠRel", "9225": "ĠOxygen", "9226": "ĠOscar", "9227": "ĠLina", "9228": "ĠJanet", "9229": "ĠHello", "9230": "ĠEva", "9231": "ĠEddie", "9232": "ĠEat", "9233": "ĠCrabby", "9234": "zzz", "9235": "wee", "9236": "uto", "9237": "urity", "9238": "ordinary", "9239": "oped", "9240": "opper", "9241": "lose", "9242": "iky", "9243": "ifully", "9244": "ierce", "9245": "erson", "9246": "eller", "9247": "chiev", "9248": "athan", "9249": "andra", "9250": "Luke", "9251": "Excited", "9252": "Eat", "9253": "Ġwrinkled", "9254": "Ġveggies", "9255": "Ġslithered", "9256": "Ġshrank", "9257": "Ġseeking", "9258": "Ġsandpit", "9259": "Ġrebuild", "9260": "Ġproviding", "9261": "Ġpressing", "9262": "Ġpills", "9263": "Ġoldest", "9264": "Ġmoat", "9265": "Ġmeows", "9266": "Ġkeyhole", "9267": "Ġhealthier", "9268": "Ġflashing", "9269": "Ġflashes", "9270": "Ġfulf", "9271": "Ġfet", "9272": "Ġexplaining", "9273": "Ġerase", "9274": "Ġdives", "9275": "Ġdiscouraged", "9276": "Ġcrocodiles", "9277": "Ġcongratulated", "9278": "Ġchecking", "9279": "Ġcheating", "9280": "Ġcaterpillars", "9281": "Ġbud", "9282": "Ġbruises", "9283": "Ġbooth", "9284": "Ġafar", "9285": "ĠWil", "9286": "ĠTriangle", "9287": "ĠSundays", "9288": "ĠSmokey", "9289": "ĠRun", "9290": "ĠMat", "9291": "ĠLife", "9292": "ĠLia", "9293": "ĠGlow", "9294": "ĠEric", "9295": "ĠDay", "9296": "ĠButter", "9297": "wor", "9298": "vinced", "9299": "stalk", "9300": "rett", "9301": "rain", "9302": "racted", "9303": "people", "9304": "ouched", "9305": "munk", "9306": "limb", "9307": "ieves", "9308": "hings", "9309": "field", "9310": "etah", "9311": "elope", "9312": "eff", "9313": "cup", "9314": "bear", "9315": "Thomas", "9316": "Ralph", "9317": "Playing", "9318": "Maya", "9319": "Bug", "9320": "?âĢĿ.", "9321": "Ġwaters", "9322": "Ġunzip", "9323": "Ġtimid", "9324": "Ġstriking", "9325": "Ġstreamers", "9326": "Ġstacks", "9327": "Ġsnapping", "9328": "Ġsituations", "9329": "Ġshortcut", "9330": "Ġseagulls", "9331": "Ġscram", "9332": "Ġripp", "9333": "Ġquacking", "9334": "Ġpokes", "9335": "Ġpilots", "9336": "Ġoverwhel", "9337": "Ġopposite", "9338": "Ġoccas", "9339": "Ġmessages", "9340": "Ġlump", "9341": "Ġlim", "9342": "Ġhonking", "9343": "Ġhoof", "9344": "Ġfond", "9345": "Ġfail", "9346": "Ġfacing", "9347": "Ġding", "9348": "Ġcrowded", "9349": "Ġconcentr", "9350": "Ġclearly", "9351": "Ġchallenges", "9352": "Ġchilly", "9353": "Ġbol", "9354": "Ġattacked", "9355": "Ġangrily", "9356": "ĠWood", "9357": "ĠWhe", "9358": "ĠVicky", "9359": "ĠRiri", "9360": "ĠRicky", "9361": "ĠPotato", "9362": "ĠOff", "9363": "ĠNora", "9364": "ĠMu", "9365": "ĠMild", "9366": "ĠLibby", "9367": "ĠJonny", "9368": "ĠHeidi", "9369": "ĠHairy", "9370": "ĠHa", "9371": "ĠGor", "9372": "ĠGoose", "9373": "ĠFran", "9374": "ĠDoes", "9375": "ĠCurious", "9376": "ĠAchoo", "9377": "ware", "9378": "uli", "9379": "stal", "9380": "ssess", "9381": "she", "9382": "oat", "9383": "irty", "9384": "haring", "9385": "friend", "9386": "eck", "9387": "dia", "9388": "cessary", "9389": "azzy", "9390": "aturday", "9391": "aste", "9392": "arr", "9393": "adabra", "9394": "ada", "9395": "Sharing", "9396": "Joh", "9397": "Freeze", "9398": "Foxy", "9399": "Doctor", "9400": "Ġzips", "9401": "Ġwiser", "9402": "Ġunwrapped", "9403": "Ġunless", "9404": "Ġtot", "9405": "Ġtopp", "9406": "Ġthicker", "9407": "Ġtempted", "9408": "Ġteapot", "9409": "Ġtale", "9410": "Ġswaying", "9411": "Ġsurfer", "9412": "Ġstrokes", "9413": "Ġsprays", "9414": "Ġshrugs", "9415": "Ġquacks", "9416": "Ġpossess", "9417": "Ġnoticing", "9418": "Ġniece", "9419": "Ġmold", "9420": "Ġmischiev", "9421": "Ġkneeling", "9422": "Ġkinder", "9423": "Ġinstrument", "9424": "Ġgratitude", "9425": "Ġgruff", "9426": "Ġglittering", "9427": "Ġglimmering", "9428": "Ġdripped", "9429": "Ġdiv", "9430": "Ġdetect", "9431": "Ġdizz", "9432": "Ġconv", "9433": "Ġconcer", "9434": "Ġcosy", "9435": "Ġbund", "9436": "Ġbrakes", "9437": "Ġbehaviour", "9438": "Ġbeaks", "9439": "Ġbound", "9440": "Ġbless", "9441": "Ġattempt", "9442": "ĠYummy", "9443": "ĠWoolly", "9444": "ĠTomorrow", "9445": "ĠTeach", "9446": "ĠTidy", "9447": "ĠTears", "9448": "ĠTaylor", "9449": "ĠSlinky", "9450": "ĠRobbie", "9451": "ĠPass", "9452": "ĠMusic", "9453": "ĠLooking", "9454": "ĠLight", "9455": "ĠKo", "9456": "ĠHorsie", "9457": "ĠGreg", "9458": "ĠBubu", "9459": "ĠBarry", "9460": "ĠArchie", "9461": "ĠAli", "9462": "ĠAlarm", "9463": "wood", "9464": "wist", "9465": "this", "9466": "sorry", "9467": "roy", "9468": "rem", "9469": "rown", "9470": "rin", "9471": "orse", "9472": "oodle", "9473": "lli", "9474": "lar", "9475": "irly", "9476": "iggles", "9477": "ianna", "9478": "chief", "9479": "ams", "9480": "Samantha", "9481": "Mikey", "9482": "Ice", "9483": "Danger", "9484": "Close", "9485": "Bra", "9486": "Abby", "9487": "!'.", "9488": "Ġvests", "9489": "Ġunc", "9490": "Ġtroubles", "9491": "Ġtransform", "9492": "Ġtoothbrush", "9493": "Ġthieves", "9494": "Ġtunes", "9495": "Ġswayed", "9496": "Ġsuns", "9497": "Ġsqueezes", "9498": "Ġsprinkle", "9499": "Ġspilling", "9500": "Ġsooner", "9501": "Ġsnort", "9502": "Ġsipped", "9503": "Ġrubb", "9504": "Ġriverbank", "9505": "Ġrags", "9506": "Ġraked", "9507": "Ġrumbling", "9508": "Ġprizes", "9509": "Ġprog", "9510": "Ġpossib", "9511": "Ġpecks", "9512": "Ġmeowing", "9513": "Ġmarking", "9514": "Ġinspired", "9515": "Ġhesitation", "9516": "Ġhatch", "9517": "Ġhabit", "9518": "Ġgroaned", "9519": "Ġfixer", "9520": "Ġextraordinary", "9521": "Ġexpert", "9522": "Ġdrip", "9523": "Ġdisagreeing", "9524": "Ġcosts", "9525": "Ġconqu", "9526": "Ġcheaper", "9527": "Ġcages", "9528": "Ġbinoc", "9529": "Ġarrives", "9530": "Ġaloud", "9531": "ĠYellow", "9532": "ĠStephen", "9533": "ĠShark", "9534": "ĠSince", "9535": "ĠRia", "9536": "ĠRec", "9537": "ĠPink", "9538": "ĠNate", "9539": "ĠMatthew", "9540": "ĠMartin", "9541": "ĠMine", "9542": "ĠLill", "9543": "ĠJolly", "9544": "ĠIcy", "9545": "ĠClaus", "9546": "ĠCharl", "9547": "ĠCats", "9548": "ĠCream", "9549": "ĠCher", "9550": "ĠCammy", "9551": "ĠBecky", "9552": "ĠBeat", "9553": "ĠBel", "9554": "ĠAgain", "9555": "war", "9556": "ths", "9557": "poison", "9558": "pie", "9559": "oty", "9560": "otch", "9561": "oli", "9562": "mos", "9563": "kie", "9564": "icia", "9565": "iara", "9566": "guess", "9567": "good", "9568": "for", "9569": "ems", "9570": "chanted", "9571": "atform", "9572": "asha", "9573": "aming", "9574": "Maddy", "9575": "Linda", "9576": "Des", "9577": "Dani", "9578": "Con", "9579": "Bless", "9580": "Any", "9581": "Ġwoodpecker", "9582": "Ġweapons", "9583": "Ġunlocking", "9584": "Ġtwenty", "9585": "Ġtantrum", "9586": "Ġstroller", "9587": "Ġsqueaky", "9588": "Ġresponsibility", "9589": "Ġrider", "9590": "Ġrack", "9591": "Ġprof", "9592": "Ġpeacock", "9593": "Ġpancake", "9594": "Ġoutfits", "9595": "Ġnarrow", "9596": "Ġmessed", "9597": "Ġlistener", "9598": "Ġleans", "9599": "Ġhissing", "9600": "Ġfolds", "9601": "Ġexchange", "9602": "Ġdisagre", "9603": "Ġcircled", "9604": "Ġbuckles", "9605": "Ġbeanstalk", "9606": "Ġbas", "9607": "Ġartwork", "9608": "ĠYoga", "9609": "ĠSoar", "9610": "ĠSaturday", "9611": "ĠMonster", "9612": "ĠMousy", "9613": "ĠMother", "9614": "ĠJoh", "9615": "ĠJet", "9616": "ĠJas", "9617": "ĠIron", "9618": "ĠIg", "9619": "ĠGilly", "9620": "ĠGen", "9621": "ĠClose", "9622": "ĠClare", "9623": "ĠCon", "9624": "ĠBry", "9625": "ĠBendy", "9626": "ĠAccidents", "9627": "welcome", "9628": "vis", "9629": "umph", "9630": "ubs", "9631": "osh", "9632": "lessly", "9633": "innie", "9634": "atic", "9635": "aptain", "9636": "acher", "9637": "Robby", "9638": "June", "9639": "Gus", "9640": "Everything", "9641": "Ġyawns", "9642": "Ġwriggled", "9643": "Ġwindowsill", "9644": "Ġwebs", "9645": "Ġvalues", "9646": "Ġunst", "9647": "Ġswallow", "9648": "Ġsmartest", "9649": "Ġshoots", "9650": "Ġshields", "9651": "Ġshh", "9652": "Ġsensation", "9653": "Ġsecurity", "9654": "Ġroller", "9655": "Ġprevented", "9656": "Ġlunchtime", "9657": "Ġluckiest", "9658": "Ġknobs", "9659": "Ġislands", "9660": "Ġintently", "9661": "Ġforgiveness", "9662": "Ġfoam", "9663": "Ġfarmers", "9664": "Ġfade", "9665": "Ġdate", "9666": "Ġcutter", "9667": "Ġconversation", "9668": "Ġconvince", "9669": "Ġconvinced", "9670": "Ġcombs", "9671": "Ġcheetah", "9672": "Ġcautious", "9673": "Ġburgers", "9674": "Ġboards", "9675": "Ġabs", "9676": "ĠWhale", "9677": "ĠWhee", "9678": "ĠUse", "9679": "ĠTube", "9680": "ĠShell", "9681": "ĠSisi", "9682": "ĠPurp", "9683": "ĠPretty", "9684": "ĠMelt", "9685": "ĠKevin", "9686": "ĠKa", "9687": "ĠGoo", "9688": "ĠGinger", "9689": "ĠFlap", "9690": "ĠEls", "9691": "ĠCozy", "9692": "ĠCarol", "9693": "ĠCould", "9694": "ĠBooks", "9695": "ĠAuntie", "9696": "ushes", "9697": "ulture", "9698": "rex", "9699": "rist", "9700": "rid", "9701": "ranny", "9702": "owled", "9703": "oured", "9704": "othy", "9705": "oving", "9706": "keepers", "9707": "ists", "9708": "ism", "9709": "iring", "9710": "inked", "9711": "imbo", "9712": "igo", "9713": "ibb", "9714": "iens", "9715": "flies", "9716": "everse", "9717": "esses", "9718": "eremy", "9719": "eness", "9720": "berries", "9721": "arning", "9722": "apy", "9723": "Wally", "9724": "Sweet", "9725": "OP", "9726": "Never", "9727": "Move", "9728": "Jenna", "9729": "Jeff", "9730": "Isn", "9731": "Grand", "9732": "Ding", "9733": "Bubbles", "9734": "Ġyuck", "9735": "Ġwhiskers", "9736": "Ġwarri", "9737": "Ġtroll", "9738": "Ġsurvive", "9739": "Ġstyles", "9740": "Ġstrolled", "9741": "Ġshowers", "9742": "Ġscrambled", "9743": "Ġrisky", "9744": "Ġreck", "9745": "Ġpounds", "9746": "Ġplatform", "9747": "Ġpearls", "9748": "Ġotters", "9749": "Ġordering", "9750": "Ġopt", "9751": "Ġnearest", "9752": "Ġmischievous", "9753": "Ġmelts", "9754": "Ġmats", "9755": "Ġmarve", "9756": "Ġmailing", "9757": "Ġmur", "9758": "Ġlever", "9759": "Ġlanding", "9760": "Ġlaces", "9761": "Ġlace", "9762": "Ġlilies", "9763": "Ġimaginary", "9764": "Ġhare", "9765": "Ġfrustration", "9766": "Ġfascinating", "9767": "Ġfaith", "9768": "Ġexamp", "9769": "Ġcreep", "9770": "Ġcousins", "9771": "Ġcollage", "9772": "Ġbumping", "9773": "Ġbolt", "9774": "Ġblamed", "9775": "Ġastonished", "9776": "Ġapproach", "9777": "Ġactors", "9778": "ĠWhich", "9779": "ĠTweety", "9780": "ĠSean", "9781": "ĠSof", "9782": "ĠRaven", "9783": "ĠPhil", "9784": "ĠPa", "9785": "ĠOver", "9786": "ĠNelly", "9787": "ĠMoppy", "9788": "ĠMatch", "9789": "ĠLew", "9790": "ĠLoop", "9791": "ĠKy", "9792": "ĠKelly", "9793": "ĠJodie", "9794": "ĠGuard", "9795": "ĠFlash", "9796": "ĠFuzz", "9797": "ĠCoo", "9798": "whe", "9799": "uttered", "9800": "urice", "9801": "umbers", "9802": "pan", "9803": "otte", "9804": "ori", "9805": "onder", "9806": "oard", "9807": "istory", "9808": "isher", "9809": "illas", "9810": "ilar", "9811": "ightly", "9812": "icate", "9813": "ior", "9814": "emo", "9815": "ean", "9816": "cadabra", "9817": "aging", "9818": "Yesterday", "9819": "Toys", "9820": "Susan", "9821": "Simon", "9822": "Many", "9823": "Each", "9824": "Dare", "9825": "Cra", "9826": "Climb", "9827": "Butter", "9828": "Anne", "9829": "Ġzippers", "9830": "Ġwhines", "9831": "Ġvolcanoes", "9832": "Ġtidying", "9833": "Ġtickling", "9834": "Ġsuggests", "9835": "Ġstructures", "9836": "Ġsnar", "9837": "Ġskies", "9838": "Ġshaker", "9839": "Ġrobe", "9840": "Ġrepairing", "9841": "Ġpi", "9842": "Ġnotices", "9843": "Ġluckily", "9844": "Ġlarger", "9845": "Ġlen", "9846": "Ġhooves", "9847": "Ġheels", "9848": "Ġhardest", "9849": "Ġharvest", "9850": "Ġglared", "9851": "Ġgardens", "9852": "Ġendings", "9853": "Ġenchanted", "9854": "Ġdigs", "9855": "Ġdesks", "9856": "Ġdesc", "9857": "Ġdumb", "9858": "Ġcupcake", "9859": "Ġcopied", "9860": "Ġcompan", "9861": "Ġclut", "9862": "Ġcheerfully", "9863": "Ġcalming", "9864": "Ġbeautifully", "9865": "Ġbathed", "9866": "Ġannounced", "9867": "Ġaliens", "9868": "ĠPark", "9869": "ĠLiam", "9870": "ĠLacey", "9871": "ĠKyle", "9872": "ĠHelping", "9873": "ĠHelen", "9874": "ĠHurry", "9875": "ĠGabby", "9876": "ĠBrian", "9877": "ĠBrush", "9878": "ĠAmi", "9879": "working", "9880": "venir", "9881": "urrender", "9882": "umed", "9883": "ulars", "9884": "shirt", "9885": "raser", "9886": "rince", "9887": "outs", "9888": "ooked", "9889": "olut", "9890": "ingy", "9891": "imals", "9892": "icles", "9893": "gues", "9894": "flowers", "9895": "elina", "9896": "eli", "9897": "conut", "9898": "chy", "9899": "bang", "9900": "azy", "9901": "anga", "9902": "Robert", "9903": "Momma", "9904": "Michael", "9905": "Mabel", "9906": "Bop", "9907": "Boom", "9908": "---", "9909": "Ġwoken", "9910": "Ġwinds", "9911": "Ġwhoosh", "9912": "Ġvibrant", "9913": "Ġtrumpets", "9914": "Ġswimsuits", "9915": "Ġspears", "9916": "Ġspaces", "9917": "Ġshyly", "9918": "Ġsinking", "9919": "Ġquilt", "9920": "Ġpraise", "9921": "Ġpistols", "9922": "Ġphones", "9923": "Ġpeeks", "9924": "Ġpedaling", "9925": "Ġpea", "9926": "Ġpalms", "9927": "Ġpaddling", "9928": "Ġoverwhelmed", "9929": "Ġna", "9930": "Ġmanager", "9931": "Ġinchworm", "9932": "Ġhorrible", "9933": "Ġhollow", "9934": "Ġglanced", "9935": "Ġfirefighter", "9936": "Ġfireflies", "9937": "Ġfetched", "9938": "Ġescap", "9939": "Ġelectricity", "9940": "Ġdoorstep", "9941": "Ġdizziness", "9942": "Ġdirtier", "9943": "Ġdevast", "9944": "Ġdashed", "9945": "Ġcroaked", "9946": "Ġconcerned", "9947": "Ġchipmunk", "9948": "Ġchin", "9949": "Ġcy", "9950": "Ġcuc", "9951": "Ġbrains", "9952": "Ġavoided", "9953": "Ġagreeing", "9954": "Ġacc", "9955": "ĠYo", "9956": "ĠViolet", "9957": "ĠTer", "9958": "ĠTell", "9959": "ĠSeeing", "9960": "ĠRace", "9961": "ĠPeace", "9962": "ĠOlivia", "9963": "ĠNeed", "9964": "ĠMarch", "9965": "ĠLucas", "9966": "ĠLots", "9967": "ĠLemon", "9968": "ĠKat", "9969": "ĠIsl", "9970": "ĠHi", "9971": "ĠGret", "9972": "ĠDough", "9973": "ĠDory", "9974": "ĠClub", "9975": "ĠClimb", "9976": "ĠCarrie", "9977": "ĠCut", "9978": "ĠCir", "9979": "ĠCand", "9980": "ĠCally", "9981": "ĠCall", "9982": "ĠCable", "9983": "ĠBoom", "9984": "ĠBell", "9985": "ville", "9986": "unky", "9987": "rystal", "9988": "rend", "9989": "ruck", "9990": "ows", "9991": "opp", "9992": "ngel", "9993": "los", "9994": "lop", "9995": "link", "9996": "izzes", "9997": "ienn", "9998": "ession", "9999": "elix"}, "merges": [["Ġ", "t"], ["h", "e"], ["Ġ", "a"], ["Ġ", "s"], ["n", "d"], ["Ġ", "w"], ["Ġt", "he"], ["e", "d"], ["Ġ", "b"], ["Ġt", "o"], ["Ġa", "nd"], ["Ġ", "h"], ["Ġ", "f"], ["i", "n"], ["Ġ", "T"], ["Ġw", "a"], ["r", "e"], ["i", "t"], ["o", "u"], ["Ġ", "l"], ["Ġ", "d"], ["Ġ", "c"], ["Ġ", "p"], ["a", "y"], ["Ġ", "m"], ["e", "r"], ["Ġwa", "s"], ["o", "m"], ["ĠT", "he"], ["Ġ", "he"], ["i", "s"], ["a", "r"], ["Ġ", "n"], ["o", "n"], ["i", "m"], ["Ġs", "a"], ["i", "d"], ["l", "l"], ["Ġh", "a"], ["Ġ", "g"], ["a", "t"], ["in", "g"], ["Ġ", "S"], ["o", "t"], ["e", "n"], ["a", "n"], ["l", "e"], ["o", "r"], ["e", "nd"], ["i", "r"], ["o", "f"], ["a", "m"], ["e", "t"], ["Ġ", "H"], ["Ġ", "it"], ["Ġt", "h"], ["i", "g"], ["ĠThe", "y"], ["i", "l"], ["Ġ", "in"], ["Ġp", "l"], ["ĠH", "e"], ["Ġ", "\""], ["o", "w"], ["v", "er"], ["r", "i"], ["u", "t"], ["Ġb", "e"], ["Ġ", "u"], ["Ġsa", "id"], ["Ġpl", "ay"], ["it", "h"], ["Ġw", "ith"], ["Ġd", "ay"], ["p", "p"], ["O", "n"], ["Ġ", "y"], ["o", "o"], ["k", "ed"], ["Ġ", "r"], ["Ġhe", "r"], ["e", "x"], ["c", "e"], ["Ġ", "I"], ["ĠS", "he"], ["l", "d"], ["Ġh", "is"], ["ĠT", "im"], ["Ġs", "t"], ["k", "e"], ["Ġb", "ig"], ["c", "k"], ["Ġy", "ou"], ["n", "t"], ["ver", "y"], ["s", "t"], ["v", "e"], ["Ġ", "on"], ["Ġha", "pp"], ["u", "n"], ["ri", "end"], ["Ġf", "riend"], ["a", "ll"], ["il", "y"], ["Ġ", "L"], ["ex", "t"], ["Ġthe", "y"], ["of", "t"], ["Ġha", "d"], ["Ġw", "e"], ["Ġn", "ot"], ["Ġl", "i"], ["Ġu", "p"], ["he", "r"], ["Ġwa", "nt"], ["Ġ", "of"], ["a", "d"], ["it", "t"], ["|", ">"], ["oft", "ext"], ["end", "oftext"], ["<", "|"], ["s", "e"], ["Ġ", "B"], ["Ġd", "o"], ["Ġ", "e"], ["Ġhapp", "y"], ["en", "t"], ["Ġ", "very"], ["Ġ", "M"], ["Ġth", "at"], ["e", "s"], ["Ġsa", "w"], ["On", "e"], ["'", "s"], ["ou", "ld"], ["Ġm", "om"], ["Ġf", "or"], ["Ġs", "h"], ["itt", "le"], ["Ġl", "ittle"], ["Ġs", "he"], ["im", "e"], ["c", "h"], ["Ġn", "am"], ["Ġt", "ime"], [".", "\""], ["Ġ", "k"], ["Ġs", "o"], ["ou", "nd"], ["Ġthe", "re"], ["Ġnam", "ed"], ["Ġs", "m"], ["Ġb", "o"], ["ĠL", "ily"], ["Ġwe", "re"], ["Ġn", "e"], ["Ġwant", "ed"], ["Ġb", "ut"], ["ou", "t"], ["T", "he"], ["Ġfriend", "s"], ["v", "ed"], ["!", "\""], ["ir", "d"], ["h", "t"], ["ĠT", "om"], ["Ġb", "ird"], ["e", "l"], ["Ġa", "n"], ["a", "ke"], ["a", "l"], ["u", "g"], ["om", "e"], ["Ġto", "o"], ["ĠI", "t"], ["id", "e"], ["Ġw", "ent"], ["Ġw", "h"], ["Ġhe", "l"], ["On", "ce"], ["Ġ", "is"], ["Ġa", "ll"], ["Ġhel", "p"], ["u", "e"], ["Ġl", "o"], ["Ġl", "oo"], ["t", "er"], ["Ġup", "on"], ["Ġ", "A"], ["r", "y"], ["o", "re"], ["i", "ll"], ["i", "nd"], ["Ġf", "un"], ["g", "et"], ["Ġto", "y"], ["am", "e"], ["Ġa", "s"], ["Ġa", "t"], ["Ġ", "j"], ["Ġd", "id"], ["Ġ", "re"], ["a", "ck"], ["get", "her"], ["u", "r"], ["Ġ", "o"], ["Ġs", "e"], ["Ġto", "gether"], ["r", "a"], ["Ġc", "at"], ["Ġt", "re"], ["l", "y"], ["oo", "d"], ["t", "ed"], ["i", "c"], ["Ġdo", "g"], ["Ġc", "an"], ["Ġc", "ould"], ["Ġthe", "ir"], ["ar", "d"], ["ar", "k"], ["e", "c"], ["ir", "l"], ["Ġh", "im"], ["?", "\""], ["Ġplay", "ed"], ["Ġb", "all"], ["Ġg", "irl"], ["w", "ay"], ["Ġg", "o"], ["Ġr", "o"], ["he", "d"], ["Ġa", "re"], ["m", "y"], ["Ġl", "e"], ["Ġf", "r"], ["Ġ", "out"], ["u", "m"], ["'", "t"], ["a", "in"], ["Ġk", "n"], ["he", "n"], ["Ġthe", "m"], ["Ġsa", "d"], ["a", "x"], ["u", "l"], ["Ġbo", "y"], ["Ġtre", "e"], ["ot", "her"], ["Ġha", "ve"], ["Ġm", "an"], ["Ġlo", "ved"], ["Ġc", "l"], ["Ġloo", "ked"], ["ou", "g"], ["Ġf", "ound"], ["Ġs", "p"], ["Ġst", "ar"], ["on", "e"], ["h", "ing"], ["Ġs", "c"], ["Ġb", "ack"], ["ĠS", "ue"], ["ow", "n"], ["ĠM", "ax"], ["a", "re"], ["Ġli", "ke"], ["Ġm", "e"], ["f", "ul"], ["s", "ide"], ["Ġbe", "c"], ["Ġp", "ark"], ["on", "g"], ["Ġc", "ar"], ["ig", "ht"], ["el", "t"], ["Ġ", "One"], ["Ġw", "ould"], ["o", "p"], ["Ġl", "a"], ["Ġli", "ked"], ["r", "ound"], ["Ġf", "a"], ["Ġm", "ake"], ["Y", "ou"], ["Ġf", "elt"], ["Ġ", "W"], ["ĠB", "ut"], ["om", "et"], ["e", "ll"], ["Ġse", "e"], ["Ġas", "ked"], ["ĠS", "am"], ["Ġn", "o"], ["i", "ce"], ["a", "g"], ["ou", "se"], ["ar", "ed"], ["Ġne", "w"], ["Ġc", "ame"], ["Ġstar", "ted"], ["Ġ", "other"], ["Ġa", "l"], ["ĠB", "en"], ["oug", "ht"], ["il", "ed"], ["Ġs", "omet"], ["Ġa", "g"], ["Ġsm", "all"], ["Ġg", "ood"], ["Ġb", "r"], ["Ġs", "ay"], ["ri", "ed"], ["ing", "s"], ["o", "b"], ["Ġsm", "iled"], ["s", "s"], ["ad", "e"], ["p", "ot"], ["Ġw", "or"], ["Ġf", "ind"], ["Ġa", "way"], ["Ġsomet", "hing"], ["Ġp", "ut"], ["Ġm", "ade"], ["i", "a"], ["Ġ", "ex"], ["Ġwh", "at"], ["t", "y"], ["Ġfr", "om"], ["Ġh", "ome"], ["Ġplay", "ing"], ["en", "ed"], ["Ġth", "ought"], ["Ġc", "o"], ["oo", "k"], ["Ġm", "u"], ["Ġe", "very"], ["u", "c"], ["a", "ch"], ["Ġwa", "l"], ["ĠS", "pot"], ["ar", "n"], ["i", "le"], ["Ġr", "an"], ["Ġ", "F"], ["a", "ve"], ["Ġ", "J"], ["Ġs", "ome"], ["Ġag", "ain"], ["Ġla", "ug"], ["Ġf", "l"], ["Ġh", "ouse"], ["Ġd", "own"], ["i", "e"], ["Ġsc", "ared"], ["k", "ing"], ["d", "d"], ["Ġp", "r"], ["Ġ", "You"], ["Ġtoo", "k"], ["Ġle", "arn"], ["u", "re"], ["Ġtoy", "s"], ["Ġw", "ill"], ["i", "ck"], ["n", "y"], ["i", "f"], ["re", "t"], ["is", "h"], ["Ġbo", "x"], ["Ġa", "round"], ["Ġyou", "r"], ["Ġth", "ings"], ["a", "b"], ["Ġb", "l"], ["Ġm", "y"], ["e", "p"], ["Ġw", "hen"], ["ou", "d"], ["Ġli", "ved"], ["u", "ck"], ["Ġf", "e"], ["Ġthe", "n"], ["Ġs", "w"], ["Ġs", "un"], [",", "\""], ["pp", "ed"], ["Ġc", "h"], ["ĠM", "ia"], ["Ġa", "b"], ["a", "s"], ["an", "k"], ["um", "p"], ["uc", "y"], ["u", "s"], ["is", "t"], ["Ġg", "et"], ["T", "im"], ["T", "h"], ["Ġl", "ot"], ["Ġsay", "s"], ["Ġt", "ried"], ["ot", "h"], ["Ġg", "ot"], ["u", "st"], ["it", "ed"], ["a", "p"], ["Ġkn", "e"], ["Ġkn", "ow"], ["Ġwh", "o"], ["Ġman", "y"], ["Ġin", "t"], ["nd", "er"], ["L", "ily"], ["i", "ve"], ["Ġp", "ret"], ["Ġab", "out"], ["Ġan", "y"], ["Ġd", "ec"], ["Ġr", "ed"], ["a", "ce"], ["Ġ", "D"], ["Ġkne", "w"], ["ou", "s"], ["Ġm", "ore"], ["is", "e"], ["all", "y"], ["Ġ", "v"], ["Ġc", "are"], ["q", "u"], ["ĠL", "ucy"], ["Ġp", "o"], ["Ġh", "ug"], ["Ġp", "ic"], ["Ġwa", "ter"], ["u", "se"], ["Ġlearn", "ed"], ["Ġbe", "st"], ["Ġbec", "ame"], ["f", "ter"], ["a", "use"], ["Ġg", "re"], ["way", "s"], ["ĠB", "ob"], ["Ġex", "c"], ["Ġlaug", "hed"], ["Ġu", "n"], ["Ġo", "p"], ["er", "s"], ["Ġal", "ways"], ["Ġout", "side"], ["ur", "p"], ["Ġloo", "k"], ["an", "t"], ["Ġh", "o"], ["Ġsh", "ow"], ["Ġint", "o"], ["id", "ed"], ["it", "e"], ["Ġj", "ump"], ["Ġbec", "ause"], ["ĠS", "o"], ["Ġdec", "ided"], ["Ġro", "om"], ["f", "e"], ["Ġe", "at"], ["ĠA", "nd"], ["Ġp", "e"], ["Ġd", "ad"], ["Ġb", "oth"], ["The", "y"], ["Ġ", "ke"], ["u", "dd"], ["Ġon", "e"], ["ĠM", "om"], ["Ġth", "is"], ["Ġfa", "st"], ["T", "om"], ["Ġr", "un"], ["Y", "es"], ["Ġexc", "ited"], ["Ġn", "ice"], ["Ġfe", "el"], ["Ġ", "E"], ["Ġt", "r"], ["Ġl", "ong"], ["Ġa", "m"], ["Ġs", "k"], ["Ġto", "ld"], ["ou", "r"], ["in", "k"], ["urp", "r"], ["in", "y"], ["Ġin", "side"], ["u", "ll"], ["Ġpret", "ty"], ["Ġs", "urpr"], ["n", "n"], ["Ġm", "o"], ["Ġs", "or"], ["Ġs", "l"], ["Ġt", "ake"], ["ar", "a"], ["W", "h"], ["o", "g"], ["Ġe", "ach"], ["le", "w"], ["Ġg", "ave"], ["Ġst", "r"], ["im", "al"], ["Ġg", "ra"], ["Ġmu", "ch"], ["Ġan", "imal"], ["Ġro", "ck"], ["g", "ed"], ["Ġh", "ow"], ["Ġne", "ed"], ["Ġto", "w"], ["v", "en"], ["Ġth", "an"], ["nn", "a"], ["B", "ut"], ["Ġ", "C"], ["et", "ter"], ["Ġ", "or"], ["Ġsor", "ry"], ["es", "s"], ["Ġu", "nder"], ["Ġf", "ish"], ["Ġo", "ld"], ["is", "ed"], ["ur", "t"], ["a", "nd"], ["Ġbe", "ar"], ["Ġwal", "ked"], ["Ġc", "le"], ["a", "st"], ["a", "se"], ["Ġcl", "o"], ["ur", "n"], ["Ġha", "nd"], ["ĠW", "e"], ["Ġk", "ind"], ["g", "e"], ["Ġfl", "ow"], ["Ġj", "ust"], ["r", "o"], ["ĠH", "is"], ["Ġhapp", "ened"], ["Ġt", "e"], ["Ġf", "ood"], ["Ġdid", "n"], ["he", "re"], ["Ġh", "ig"], ["Ġanimal", "s"], ["Ġs", "n"], ["Ġl", "ist"], ["Ġt", "ry"], ["r", "om"], ["in", "e"], ["Ġne", "ar"], ["Ġsk", "y"], ["c", "hed"], ["Ġ", "ide"], ["v", "ing"], ["ĠA", "my"], ["Ġf", "i"], ["Ġu", "s"], ["Ġit", "s"], ["Ġb", "etter"], ["Ġide", "a"], ["Ġwa", "t"], ["g", "ry"], ["p", "ec"], ["p", "l"], ["Ġt", "w"], ["Ġhe", "ard"], ["Ġb", "ug"], ["at", "e"], ["i", "on"], ["Ġl", "et"], ["ab", "le"], ["Ġ", "en"], ["f", "f"], ["Ġst", "or"], ["Ġcare", "ful"], ["Th", "ank"], ["Ġsh", "are"], ["Ġ", "if"], ["Ġc", "om"], ["Ġf", "lew"], ["ĠT", "h"], ["m", "ore"], ["Ġany", "more"], ["Ġf", "ly"], ["i", "al"], ["b", "er"], ["M", "om"], ["Ġlot", "s"], ["Ġsp", "ec"], ["l", "f"], ["Ġne", "ver"], ["Ġspec", "ial"], ["Ġb", "y"], ["re", "am"], ["or", "t"], ["Ġb", "u"], ["Ġf", "o"], ["Ġw", "ind"], ["Ġd", "on"], ["Ġd", "an"], ["Ġg", "r"], ["Ġcle", "an"], ["Ġlo", "ve"], ["Ġe", "ven"], ["Ġt", "al"], ["Ġsh", "iny"], ["Ġh", "ard"], ["Ġ", "end"], ["ĠThe", "n"], ["Ċ", "Ċ"], ["op", "le"], ["Ġb", "ook"], ["r", "m"], ["Ġo", "ver"], ["Ġf", "ore"], ["udd", "en"], ["Ġt", "urn"], ["Ġf", "am"], ["Ġco", "l"], ["Ġm", "ag"], ["Ġb", "ad"], ["Ġsa", "fe"], ["ad", "y"], ["Ġpr", "oud"], ["pec", "ted"], ["a", "k"], ["Ġc", "ake"], ["Ġa", "fter"], ["ĠE", "very"], ["udden", "ly"], ["Ġpic", "ked"], ["Ġg", "l"], ["Ġhig", "h"], ["Ġh", "urt"], ["im", "b"], ["Ġc", "u"], ["Ġpe", "ople"], ["Ġc", "ome"], ["b", "le"], ["ex", "pected"], ["Ġun", "expected"], ["Ġsurpr", "ised"], ["Ġg", "round"], ["Ġcl", "imb"], ["Ġ", "im"], ["ard", "en"], ["L", "et"], ["Ġg", "arden"], ["Ġl", "oud"], ["Ġdo", "or"], ["Ġop", "ened"], ["ĠA", "nna"], ["Ġg", "ive"], ["il", "d"], ["Ġwa", "y"], ["Ġst", "ill"], ["A", "s"], ["Ġbl", "ue"], ["ĠS", "ara"], ["ĠF", "rom"], ["a", "il"], ["Ġc", "he"], ["Ġcol", "or"], ["'", "m"], ["Ġthan", "ked"], ["Ġhug", "ged"], ["ag", "e"], ["ĠH", "er"], ["Ġe", "ver"], ["oug", "h"], ["Ġof", "f"], ["N", "o"], ["ĠW", "hen"], ["Ġc", "all"], ["Ġf", "ar"], ["u", "ff"], ["Ġjump", "ed"], ["i", "z"], ["Ġfam", "ily"], ["um", "my"], ["he", "s"], ["i", "p"], ["Ġsh", "ould"], ["Ġp", "ar"], ["Ġmag", "ic"], ["Ġsm", "ile"], ["Ġ", "K"], ["ĠI", "n"], ["k", "ay"], ["oo", "l"], ["Ġk", "id"], ["Ġ", "qu"], ["Ġpl", "ace"], ["Ġgre", "at"], ["Ġu", "nt"], ["Ġn", "ow"], ["Ġstr", "ong"], ["e", "m"], ["Ġst", "ay"], ["Ġbo", "at"], ["Ġfr", "og"], ["a", "ut"], ["Ġwal", "k"], ["c", "t"], ["Ġunt", "il"], ["an", "e"], ["Ġfore", "st"], ["Ġbr", "o"], ["Ġbe", "aut"], ["Ġst", "o"], ["t", "ure"], ["o", "on"], ["Ġst", "ick"], ["le", "ase"], ["Ġs", "qu"], ["Ġ", "P"], ["Ġn", "ext"], ["Ġb", "ra"], ["itt", "y"], ["i", "es"], ["n", "ing"], ["a", "king"], ["Ġhapp", "ily"], ["i", "ful"], ["Ġbeaut", "iful"], ["Ġlist", "en"], ["Ġstor", "y"], ["d", "y"], ["Ġim", "p"], ["Ġhelp", "ed"], ["un", "ny"], ["Ġkid", "s"], ["re", "l"], ["Ġshow", "ed"], ["Ġclo", "s"], ["Ġwh", "ile"], ["re", "ss"], ["p", "t"], ["re", "e"], ["Ġd", "ra"], ["b", "y"], ["Ġtow", "n"], ["Ġa", "pp"], ["ar", "y"], ["Ġevery", "one"], ["Ġre", "m"], ["o", "y"], ["Ġm", "or"], ["Ġbe", "ing"], ["Ġr", "ain"], ["Ġa", "d"], ["Ġm", "et"], ["I", "t"], ["Ġpic", "ture"], ["H", "e"], ["Ġg", "ame"], ["N", "ow"], ["uff", "y"], ["Ġcall", "ed"], ["C", "an"], ["ĠW", "h"], ["g", "er"], ["Ġke", "ep"], ["ĠS", "ally"], ["Ġsto", "pped"], ["Ġan", "gry"], ["Ġha", "t"], ["Ġw", "o"], ["t", "h"], ["b", "e"], ["Ġdo", "ll"], ["ĠL", "et"], ["Ġs", "oft"], ["Ġc", "ry"], ["Ġlo", "st"], ["W", "hen"], ["Ġwa", "rm"], ["Ġy", "ummy"], ["is", "hed"], ["Ġm", "ouse"], ["Ġd", "e"], ["f", "ore"], ["v", "ent"], ["Ġop", "en"], ["Ġat", "e"], ["Ġle", "ave"], ["Ġho", "le"], ["b", "it"], ["Ġtr", "uck"], ["Ġbra", "ve"], ["Ġal", "s"], ["Ġals", "o"], ["Ġb", "ed"], ["Ġcould", "n"], ["Ġflow", "ers"], ["is", "s"], ["ab", "bit"], ["Ġf", "ell"], ["Ġt", "ra"], ["Ġgre", "en"], ["Ġfa", "ce"], ["dd", "ed"], ["Ġno", "ise"], ["ir", "st"], ["ĠK", "itty"], ["Ġsl", "ide"], ["g", "an"], ["Ġtw", "o"], ["Wh", "at"], ["Ġso", "on"], ["ĠF", "l"], ["Ġwat", "ch"], ["se", "lf"], ["Ġr", "abbit"], ["o", "ck"], ["a", "z"], ["ill", "y"], ["ow", "l"], ["Ġp", "a"], ["Ġw", "here"], ["ir", "rel"], ["Ġbe", "fore"], ["e", "ar"], ["Ġ", "R"], ["le", "s"], ["ir", "ed"], ["Ġke", "pt"], ["Ġhe", "ar"], ["Th", "at"], ["Ġsa", "t"], ["The", "n"], ["Ġp", "us"], ["Ġu", "se"], ["Ġsqu", "irrel"], ["Ġst", "ore"], ["u", "it"], ["Ġbird", "s"], ["Ġno", "dded"], ["Ġhand", "s"], ["Ġs", "ing"], ["Ġgo", "ing"], ["H", "i"], ["L", "ook"], ["a", "ug"], ["Ġfun", "ny"], ["aug", "ht"], ["Ġe", "y"], ["u", "ch"], ["Ġ", "G"], ["Ġth", "ink"], ["Ġex", "pl"], ["ĠFl", "uffy"], ["d", "ay"], ["Ġha", "ving"], ["Ġf", "in"], ["Ġc", "ook"], ["u", "b"], ["ĠC", "an"], ["Ġfi", "x"], ["Ġcat", "ch"], ["ay", "be"], ["Ġp", "ain"], ["Ġloo", "king"], ["le", "ep"], ["Ġt", "ired"], ["Ġb", "re"], ["B", "en"], ["Ġp", "ull"], ["t", "ing"], ["t", "hing"], ["Ġwor", "k"], ["Ġb", "unny"], ["a", "ir"], ["Ġy", "ell"], ["Ġw", "r"], ["em", "ber"], ["Ġus", "ed"], ["Ġs", "ound"], ["Ġme", "an"], ["Ġ", "Now"], ["Ġother", "s"], ["Ġth", "r"], ["Ġj", "o"], ["Ġ", "our"], ["an", "ge"], ["Ġd", "r"], ["Ġb", "us"], ["Ġpo", "nd"], ["Ġbe", "h"], ["Ġwa", "it"], ["Ġha", "s"], ["Ġsun", "ny"], ["Ġre", "al"], ["W", "e"], ["Ġas", "k"], ["Ġk", "it"], ["at", "h"], ["Ġmom", "my"], ["Ġey", "es"], ["Ġfl", "o"], ["ĠJ", "o"], ["Ġimp", "ort"], ["Ġf", "irst"], ["Ġp", "ie"], ["ell", "o"], ["Ġrem", "ember"], ["Ġhe", "ad"], ["l", "ed"], ["Ġpar", "ty"], ["H", "ello"], ["Ġd", "if"], ["Ġsw", "e"], ["Ġtal", "k"], ["Ġflow", "er"], ["Ġfa", "v"], ["Ġt", "ri"], ["Ġc", "on"], ["c", "hen"], ["or", "n"], ["Ġkit", "chen"], ["Ġr", "ight"], ["Ġ", "z"], ["Ġm", "ess"], ["z", "y"], ["Ġsa", "nd"], ["m", "a"], ["Ġimport", "ant"], ["Ġco", "ld"], ["Ġr", "ace"], ["ĠD", "o"], ["i", "ous"], ["Ġv", "o"], ["j", "oy"], ["Ġmor", "al"], ["Ġcu", "ri"], ["d", "ed"], ["f", "t"], ["re", "w"], ["Ġ", "ri"], ["Ġ", "ice"], ["ll", "ow"], ["Ġsh", "ared"], ["ĠJ", "ack"], ["ou", "nt"], ["Ġo", "kay"], ["Ġt", "all"], ["Ġd", "uck"], ["Ġm", "aking"], ["im", "es"], ["Ġad", "vent"], ["Ġwor", "ked"], ["Ġ", "âĢľ"], ["Ġcuri", "ous"], ["Ġh", "ill"], ["Ġd", "ress"], ["re", "ed"], ["A", "t"], ["Ġbr", "ight"], ["Ġh", "op"], ["Ġh", "id"], ["Ġ", "own"], ["Ġbe", "gan"], ["ec", "t"], ["Ġfav", "or"], ["h", "n"], ["Ġen", "joy"], ["b", "ed"], ["Ġfavor", "ite"], ["Ġd", "is"], ["Ġre", "st"], ["Ġc", "ra"], ["Ġc", "r"], ["D", "on"], ["Ġm", "on"], ["Ġd", "ir"], ["Ġb", "ag"], ["Ġcl", "a"], ["Ġth", "ing"], ["W", "ow"], ["Ġy", "ard"], ["Ġfo", "llow"], ["Ġs", "leep"], ["q", "ue"], ["Ġhe", "re"], ["Ġn", "ight"], ["ĠF", "in"], ["Ġt", "ell"], ["Ġc", "ut"], ["Ġbe", "l"], ["Ġp", "ick"], ["i", "ed"], ["ed", "e"], ["Ġag", "reed"], ["Ġst", "op"], ["Ġbl", "ock"], ["st", "er"], ["Ġd", "ark"], ["Ġwat", "ched"], ["Ġmo", "ve"], ["Ġh", "un"], ["Ġdra", "w"], ["Ġh", "ot"], ["ap", "er"], ["ĠTh", "is"], ["Ġbeh", "ind"], ["Ġgra", "b"], ["Ġto", "p"], ["Ġsurpr", "ise"], ["ll", "y"], ["Ġp", "lease"], ["Ġtre", "es"], ["a", "c"], ["Ġt", "able"], ["Ġwor", "ry"], ["Ġleave", "s"], ["Ġli", "on"], ["Ġbut", "ter"], ["Ġvo", "ice"], ["fe", "re"], ["Ġgra", "ss"], ["Ġswe", "et"], ["Ġsh", "o"], ["A", "fter"], ["Ġsh", "out"], ["Ġwal", "king"], ["Ġdif", "fere"], ["Ġt", "ail"], ["ig", "n"], ["Ġre", "ad"], ["Ġflo", "or"], ["Ġneed", "ed"], ["Ġfor", "g"], ["M", "ax"], ["Ġcolor", "s"], ["Ġl", "ady"], ["ĠD", "ad"], ["Ġs", "ong"], ["Ġcar", "s"], ["Ġc", "ried"], ["ar", "ing"], ["i", "ke"], ["ĠM", "r"], ["Ġturn", "ed"], ["er", "ed"], ["S", "am"], ["Ġd", "el"], ["Ġha", "ir"], ["Wh", "y"], ["Ġfar", "m"], ["Ġt", "ast"], ["Ġclos", "er"], ["Ġlaug", "h"], ["Ġw", "ood"], ["Ġpie", "ce"], ["Ġdiffere", "nt"], ["Ġadvent", "ure"], ["Ġp", "er"], ["Ġdo", "es"], ["ĠA", "s"], ["Ġro", "ll"], ["Ġfi", "re"], ["Ġfriend", "ly"], ["is", "y"], ["Ġhun", "gry"], ["Ġto", "uch"], ["Ġfr", "uit"], ["Ġp", "aper"], ["g", "ing"], ["ĠBob", "o"], ["Ġfeel", "ing"], ["ĠS", "uddenly"], ["o", "om"], ["k", "en"], ["Ġpr", "in"], ["A", "nna"], ["pp", "y"], ["Ġyell", "ow"], ["S", "ue"], ["c", "ked"], ["il", "a"], ["Ġre", "ady"], ["a", "ched"], ["Ġf", "ull"], ["Ġbro", "ken"], ["Ġpr", "om"], ["nd", "ma"], ["ĠTh", "at"], ["c", "o"], ["at", "er"], ["Ġsw", "ing"], ["Ġw", "et"], ["Ġan", "other"], ["Ġpret", "end"], ["Ġclimb", "ed"], ["Ġsw", "im"], ["S", "ara"], ["Ġdan", "ce"], ["by", "e"], ["Ġrun", "ning"], ["i", "ent"], ["w", "here"], ["Ġg", "one"], ["Ġon", "ly"], ["Ġdan", "c"], ["S", "uddenly"], ["Ġlist", "ened"], ["ĠJ", "ane"], ["Ġl", "ight"], ["Ġclo", "se"], ["Ġpl", "an"], ["one", "y"], ["ĠTim", "my"], ["Ġblock", "s"], ["b", "o"], ["Ġse", "es"], ["ĠA", "ll"], ["Ġam", "az"], ["Ġho", "ld"], ["Ġc", "ream"], ["at", "her"], ["Ġre", "pl"], ["Ġp", "u"], ["a", "v"], ["Ġsm", "ell"], ["Ġwo", "nder"], ["in", "s"], ["Ġbutter", "f"], ["S", "he"], ["Ġgl", "ad"], ["Ġre", "ached"], ["Ġsl", "ow"], ["Ġhelp", "ing"], ["Ġmu", "s"], ["r", "ed"], ["Ġa", "c"], ["Ġd", "ri"], ["S", "o"], ["Ġmu", "st"], ["Ġbe", "en"], ["Ġf", "ight"], ["Ġfa", "ir"], ["ab", "y"], ["Ġwa", "ll"], ["M", "ia"], ["Ġsn", "ow"], ["Ġper", "f"], ["Ġpus", "hed"], ["ic", "ed"], ["Ġc", "ool"], ["Ġl", "ess"], ["Ġa", "nt"], ["Ġ", "O"], ["Ġa", "r"], ["Ġgood", "bye"], ["Ġmom", "ent"], ["Ġbu", "y"], ["Ġs", "it"], ["Ġd", "one"], ["Ġh", "ide"], ["Ġb", "ar"], ["Ġw", "ished"], ["Ġst", "uck"], ["as", "h"], ["ĠEvery", "one"], ["Ġqu", "ick"], ["Ġcom", "ing"], ["Ġwind", "ow"], ["Ġth", "ank"], ["Ġexpl", "ore"], ["Ġb", "it"], ["Ġwa", "g"], ["ke", "y"], ["Ġtry", "ing"], ["am", "es"], ["a", "f"], ["iz", "ed"], ["Ġball", "oon"], ["Ġbu", "ild"], ["Ġf", "all"], ["Ġsc", "ary"], ["Ġd", "in"], ["Ġm", "ight"], ["Ġnam", "e"], ["Ġbr", "an"], ["Ġd", "ream"], ["Ġlook", "s"], ["Ġdir", "ty"], ["Ġb", "aby"], ["Ġunder", "st"], ["ot", "t"], ["Ġwh", "y"], ["ic", "y"], ["Ġdo", "ing"], ["Ġre", "ach"], ["Ġbook", "s"], ["Ġc", "ount"], ["Ġhe", "ld"], ["Ġch", "ild"], ["Ġth", "ree"], ["Ġst", "e"], ["Ġle", "ft"], ["ie", "ld"], ["av", "y"], ["Ġshout", "ed"], ["Ġrepl", "ied"], ["Ġpull", "ed"], ["Ġp", "ink"], ["Ġbutterf", "ly"], ["Ġpl", "ant"], ["Ġm", "at"], ["Ġm", "ar"], ["as", "k"], ["Ġse", "en"], ["Ġapp", "le"], ["Ġt", "iny"], ["Ġd", "ro"], ["Ġgr", "ow"], ["Ġthr", "ough"], ["Ġne", "st"], ["Ġla", "nd"], ["Ġa", "ir"], ["Ġtra", "in"], ["Ġf", "ill"], ["Ġw", "in"], ["I", "n"], ["el", "y"], ["Ġs", "ure"], ["ri", "es"], ["Ġsp", "l"], ["Ġch", "air"], ["out", "h"], ["Ġwood", "s"], ["Ġc", "re"], ["ro", "om"], ["Ġcu", "p"], ["Ġtre", "at"], ["Ġremember", "ed"], ["a", "isy"], ["Ġsomet", "imes"], ["udd", "y"], ["ar", "t"], ["Ġm", "outh"], ["O", "kay"], ["Ġ", "owl"], ["'", "re"], ["Ġcla", "pped"], ["ĠThe", "re"], ["i", "x"], ["Ġsw", "am"], ["Ġgrab", "bed"], ["Ġw", "ise"], ["Ġbig", "ger"], ["Ġcolor", "ful"], ["and", "y"], ["Ġcl", "ot"], ["at", "ion"], ["Ġstay", "ed"], ["Ġbr", "other"], ["Ġclot", "hes"], ["Ġquick", "ly"], ["Ġwor", "d"], ["Ġg", "ames"], ["Ġcon", "t"], ["O", "h"], ["Ġjo", "in"], ["Ġwa", "ited"], ["c", "le"], ["Ġless", "on"], ["Ġb", "lew"], ["m", "an"], ["uck", "y"], ["Th", "is"], ["ow", "er"], ["Ġj", "ob"], ["t", "on"], ["Ġho", "pped"], ["Ġg", "ent"], ["Ġwa", "ved"], ["Ġbro", "ke"], ["ĠA", "fter"], ["Ġb", "ott"], ["Ġnot", "iced"], ["ĠMom", "my"], ["u", "d"], ["ou", "p"], ["Ġany", "thing"], ["Ġcl", "oud"], ["H", "er"], ["Ġsp", "ot"], ["Ġtow", "er"], ["Ġenjoy", "ed"], ["Ġa", "rm"], ["Ġwor", "ld"], ["Ġb", "ike"], ["Ġs", "et"], ["Ġhe", "avy"], ["Ġturn", "s"], ["Ġhim", "self"], ["Ġg", "if"], ["Ġal", "one"], ["Ġlike", "s"], ["Ġpain", "t"], ["Ġse", "a"], ["Ġp", "en"], ["L", "ucy"], ["Ġc", "ast"], ["p", "h"], ["Ġcom", "p"], ["le", "ss"], ["Ġm", "iss"], ["Ġpicture", "s"], ["Ġy", "ear"], ["or", "m"], ["d", "er"], ["Ġp", "ot"], ["as", "ure"], ["Ġm", "ix"], ["Ġw", "on"], ["B", "ob"], ["ap", "e"], ["Ġp", "at"], ["ĠB", "uddy"], ["Ġfollow", "ed"], ["l", "c"], ["Ġr", "ide"], ["th", "y"], ["Ġwh", "ite"], ["Ġevery", "where"], ["in", "i"], ["Ġth", "rew"], ["Ġwr", "ong"], ["Ġbe", "e"], ["Ġt", "ight"], ["J", "o"], ["ct", "or"], ["ve", "s"], ["ĠWh", "at"], ["r", "ow"], ["am", "p"], ["n", "in"], ["Ġke", "y"], ["Ġmake", "s"], ["\"", "."], ["re", "n"], ["i", "et"], ["Ġwe", "ar"], ["S", "pot"], ["ing", "in"], ["are", "nt"], ["Ġpo", "l"], ["Ġbre", "ak"], ["Ġqu", "iet"], ["Ġdel", "ic"], ["Ġe", "m"], ["Ġmus", "ic"], ["u", "ed"], ["Ġj", "e"], ["Ġbl", "ack"], ["Ġwant", "s"], ["o", "lly"], ["Ġp", "arent"], ["Ġprin", "ce"], ["an", "g"], ["Ġde", "ep"], ["ar", "s"], ["n", "er"], ["Ġforg", "ot"], ["ull", "y"], ["Ġle", "g"], ["Ġh", "it"], ["an", "ce"], ["ĠJo", "hn"], ["is", "ter"], ["Ġn", "ap"], ["Ġcast", "le"], ["Ġr", "ound"], ["itt", "en"], ["r", "ot"], ["Ġv", "is"], ["Ġunderst", "and"], ["Ġbran", "ch"], ["Ġb", "or"], ["Ġ", "ve"], ["H", "is"], ["Ġsh", "aring"], ["Ġre", "s"], ["Ġbr", "ought"], ["ĠD", "aisy"], ["ĠL", "ila"], ["Ġtal", "ked"], ["Ġm", "um"], ["Ġdanc", "ed"], ["ou", "n"], ["Ġb", "owl"], ["Ġle", "af"], ["Ġd", "ry"], ["f", "ully"], ["Ġmon", "ster"], ["F", "rom"], ["Ġfast", "er"], ["Ġrock", "s"], ["ard", "s"], ["Ġperf", "ect"], ["Ġfin", "ished"], ["Ġs", "ign"], ["ĠIn", "side"], ["Ġs", "ide"], ["ĠT", "o"], ["Ġsome", "one"], ["Ġhapp", "en"], ["Ġri", "ver"], ["Ġsm", "art"], ["z", "z"], ["ro", "ss"], ["en", "ce"], ["D", "o"], ["Ġc", "ow"], ["Ġre", "ally"], ["Ġcook", "ies"], ["Ġwor", "ried"], ["Ġk", "ing"], ["Ġbut", "ton"], ["Ġf", "ur"], ["Ġse", "c"], ["u", "p"], ["Jo", "hn"], ["Ġcont", "in"], ["pp", "er"], ["Ġpo", "in"], ["Ġsa", "n"], ["Ġs", "ister"], ["ĠSara", "h"], ["Ġf", "ield"], ["Ġevery", "thing"], ["Wh", "ile"], ["Ġbe", "ach"], ["Ġre", "l"], ["Ġe", "l"], ["c", "y"], ["Ġwe", "ll"], ["Ġe", "le"], ["ĠA", "t"], ["ĠSo", "on"], ["Ġfly", "ing"], ["ed", "dy"], ["Ġsp", "r"], ["Ġdin", "ner"], ["Ġreal", "ized"], ["Ġsan", "g"], ["Ġvis", "it"], ["Ġgif", "t"], ["Ġdan", "ger"], ["Ġto", "day"], ["Ġfill", "ed"], ["ĠM", "aybe"], ["Ġp", "ig"], ["Ġsec", "ret"], ["Ġsmile", "s"], ["ĠG", "ra"], ["Ġ", "que"], ["Ġel", "se"], ["a", "le"], ["Ġsh", "in"], ["Ġfo", "x"], ["o", "s"], ["at", "ed"], ["Ġs", "illy"], ["itt", "ing"], ["Ġf", "ree"], ["Ġg", "u"], ["Ġwe", "lc"], ["Ġdra", "g"], ["Ġpiece", "s"], ["ck", "et"], ["Ġstar", "t"], ["Ġb", "ite"], ["ĠJo", "e"], ["Ġprom", "ised"], ["Ġw", "ish"], ["e", "ad"], ["i", "ver"], ["Ġcontin", "ued"], ["Ġg", "i"], ["Ġeat", "ing"], ["ĠE", "m"], ["ĠB", "illy"], ["Ġsn", "ack"], ["Ġmu", "d"], ["Ġp", "et"], ["Ġbl", "ank"], ["Ġp", "ast"], ["Ġb", "ath"], ["Ġparent", "s"], ["Ġcry", "ing"], ["Ġen", "ough"], ["J", "ust"], ["Ġj", "u"], ["A", "my"], ["us", "h"], ["im", "i"], ["Ġcare", "fully"], ["Ġchild", "ren"], ["ĠC", "h"], ["Ġblank", "et"], ["b", "ble"], ["Ġword", "s"], ["Ġroll", "ed"], ["Ġbar", "ked"], ["Ġlaug", "hing"], ["M", "aybe"], ["Ġfair", "y"], ["Ġbott", "le"], ["st", "ead"], ["g", "y"], ["Ġwith", "out"], ["pp", "ing"], ["Ġm", "oney"], ["Ġthr", "ow"], ["p", "e"], ["an", "a"], ["Ġ", "Z"], ["Ġamaz", "ing"], ["se", "s"], ["Ġdr", "ink"], ["Ġsa", "il"], ["z", "e"], ["is", "k"], ["Ġp", "udd"], ["a", "ss"], ["Ġy", "es"], ["Ġmon", "key"], ["Ġdo", "ctor"], ["or", "d"], ["un", "ch"], ["i", "ch"], ["Ġget", "ting"], ["Ġp", "urp"], ["Ġor", "ange"], ["Ġwag", "ged"], ["ch", "ool"], ["Ġj", "ar"], ["Ġdrag", "on"], ["ĠL", "e"], ["Ġat", "t"], ["F", "in"], ["ĠB", "l"], ["f", "ort"], ["Ġsn", "ake"], ["ve", "l"], ["Ġs", "itting"], ["i", "re"], ["Ġcra", "b"], ["is", "es"], ["Ġl", "ake"], ["Ġpurp", "le"], ["Ġpa", "w"], ["Ġclos", "ed"], ["al", "thy"], ["Ġsh", "op"], ["Ġs", "chool"], ["us", "ed"], ["Ġpa", "ss"], ["Ġask", "s"], ["Ġgra", "ndma"], ["Ġsm", "o"], ["Ġbr", "own"], ["Ġw", "he"], ["Ġm", "ail"], ["Ġcre", "at"], ["Ġsho", "es"], ["Ġwelc", "ome"], ["Ġb", "oun"], ["Ġdanger", "ous"], ["Ġmo", "ved"], ["Ġshin", "ing"], ["Ġmor", "ning"], ["Ġhig", "her"], ["Ġwh", "ist"], ["Ġr", "a"], ["Ġm", "other"], ["Ġc", "aught"], ["i", "ble"], ["e", "st"], ["Ġl", "on"], ["!", "âĢĿ"], ["Ġown", "er"], ["Ġs", "oup"], ["Ġ", "-"], ["isk", "ers"], ["Ġlon", "ely"], ["Ġw", "ings"], ["Ġro", "ad"], ["Ġc", "andy"], ["Ġp", "re"], ["f", "ish"], ["Ġapp", "les"], ["Ġstr", "ange"], ["e", "re"], ["as", "ed"], ["Ġtal", "king"], ["Ġb", "uck"], ["Ġsa", "m"], ["Ġrun", "s"], ["Ġh", "or"], ["Ġli", "ving"], ["Ġsam", "e"], ["Mom", "my"], ["Ġto", "m"], ["s", "et"], ["ask", "et"], ["Ġk", "ite"], [".", "âĢĿ"], ["ĠM", "imi"], ["ar", "m"], ["it", "ch"], ["Ġl", "etter"], ["Ġf", "an"], ["Ġco", "at"], ["Ġb", "asket"], ["ĠTom", "my"], ["Ġno", "se"], ["Ġdelic", "ious"], ["Ġm", "ine"], ["Ġse", "ar"], ["Ġgent", "le"], ["Ġsing", "ing"], ["Ġthink", "s"], ["Ġtre", "asure"], ["c", "hes"], ["Ġm", "ad"], ["Ġhear", "t"], ["on", "s"], ["i", "er"], ["bo", "ard"], ["ir", "t"], ["Ġsw", "ings"], ["Ġbel", "ie"], ["Ġyear", "s"], ["Ġe", "g"], ["Ġeg", "g"], ["Ġfin", "ally"], ["Ġshe", "ll"], ["Ġst", "and"], ["Ġch", "o"],
[...]
