{"vocab": {"0": "Ā", "1": "ā", "2": "Ă", "3": "ă", "4": "Ą", "5": "ą", "6": "Ć", "7": "ć", "8": "Ĉ", "9": "ĉ", "10": "Ċ", "11": "ċ", "12": "Č", "13": "č", "14": "Ď", "15": "ď", "16": "Đ", "17": "đ", "18": "Ē", "19": "ē", "20": "Ĕ", "21": "ĕ", "22": "Ė", "23": "ė", "24": "Ę", "25": "ę", "26": "Ě", "27": "ě", "28": "Ĝ", "29": "ĝ", "30": "Ğ", "31": "ğ", "32": "Ġ", "33": "!", "34": "\"", "35": "#", "36": "$", "37": "%", "38": "&", "39": "'", "40": "(", "41": ")", "42": "*", "43": "+", "44": ",", "45": "-", "46": ".", "47": "/", "48": "0", "49": "1", "50": "2", "51": "3", "52": "4", "53": "5", "54": "6", "55": "7", "56": "8", "57": "9", "58": ":", "59": ";", "60": "<", "61": "=", "62": ">", "63": "?", "64": "@", "65": "A", "66": "B", "67": "C", "68": "D", "69": "E", "70": "F", "71": "G", "72": "H", "73": "I", "74": "J", "75": "K", "76": "L", "77": "M", "78": "N", "79": "O", "80": "P", "81": "Q", "82": "R", "83": "S", "84": "T", "85": "U", "86": "V", "87": "W", "88": "X", "89": "Y", "90": "Z", "91": "[", "92": "\\", "93": "]", "94": "^", "95": "_", "96": "`", "97": "a", "98": "b", "99": "c", "100": "d", "101": "e", "102": "f", "103": "g", "104": "h", "105": "i", "106": "j", "107": "k", "108": "l", "109": "m", "110": "n", "111": "o", "112": "p", "113": "q", "114": "r", "115": "s", "116": "t", "117": "u", "118": "v", "119": "w", "120": "x", "121": "y", "122": "z", "123": "{", "124": "|", "125": "}", "126": "~", "127": "ġ", "128": "Ģ", "129": "ģ", "130": "Ĥ", "131": "ĥ", "132": "Ħ", "133": "ħ", "134": "Ĩ", "135": "ĩ", "136": "Ī", "137": "ī", "138": "Ĭ", "139": "ĭ", "140": "Į", "141": "į", "142": "İ", "143": "ı", "144": "Ĳ", "145": "ĳ", "146": "Ĵ", "147": "ĵ", "148": "Ķ", "149": "ķ", "150": "ĸ", "151": "Ĺ", "152": "ĺ", "153": "Ļ", "154": "ļ", "155": "Ľ", "156": "ľ", "157": "Ŀ", "158": "ŀ", "159": "Ł", "160": "ł", "161": "¡", "162": "¢", "163": "£", "164": "¤", "165": "¥", "166": "¦", "167": "§", "168": "¨", "169": "©", "170": "ª", "171": "«", "172": "¬", "173": "Ń", "174": "®", "175": "¯", "176": "°", "177": "±", "178": "²", "179": "³", "180": "´", "181": "µ", "182": "¶", "183": "·", "184": "¸", "185": "¹", "186": "º", "187": "»", "188": "¼", "189": "½", "190": "¾", "191": "¿", "192": "À", "193": "Á", "194": "Â", "195": "Ã", "196": "Ä", "197": "Å", "198": "Æ", "199": "Ç", "200": "È", "201": "É", "202": "Ê", "203": "Ë", "204": "Ì", "205": "Í", "206": "Î", "207": "Ï", "208": "Ð", "209": "Ñ", "210": "Ò", "211": "Ó", "212": "Ô", "213": "Õ", "214": "Ö", "215": "×", "216": "Ø", "217": "Ù", "218": "Ú", "219": "Û", "220": "Ü", "221": "Ý", "222": "Þ", "223": "ß", "224": "à", "225": "á", "226": "â", "227": "ã", "228": "ä", "229": "å", "230": "æ", "231": "ç", "232": "è", "233": "é", "234": "ê", "235": "ë", "236": "ì", "237": "í", "238": "î", "239": "ï", "240": "ð", "241": "ñ", "242": "ò", "243": "ó", "244": "ô", "245": "õ", "246": "ö", "247": "÷", "248": "ø", "249": "ù", "250": "ú", "251": "û", "252": "ü", "253": "ý", "254": "þ", "255": "ÿ", "256": "<|endoftext|>", "257": "Ġt", "258": "Ġth", "259": "Ġthe", "260": "Ġto", "261": "Ġa", "262": "Ġan", "263": "Ġand", "264": "Ġthey", "265": "Ġtr", "266": "Ġtha", "267": "Ġti", "268": "Ġal", "269": "Ġthat", "270": "Ġtim", "271": "Ġtime", "272": "Ġther", "273": "Ġthere", "274": "Ġs", "275": "Ġsa", "276": "Ġsh", "277": "Ġso", "278": "Ġsai", "279": "Ġsaid", "280": "Ġst", "281": "Ġsaw", "282": "Ġshe", "283": "Ġsm", "284": "Ġw", "285": "Ġwa", "286": "Ġwas", "287": "Ġwi", "288": "Ġwe", "289": "Ġwit", "290": "Ġwith", "291": "Ġwan", "292": "Ġwant", "293": "Ġwh", "294": "Ġwo", "295": "Ġwer", "296": "Ġwere", "297": "Ġwante", "298": "Ġwanted", "299": "Ġar", "300": "Ġtoo", "301": "Ġwen", "302": "Ġwent", "303": "Ġh", "304": "Ġhe", "305": "Ġha", "306": "Ġhi", "307": "Ġher", "308": "Ġhis", "309": "Ġhap", "310": "Ġhapp", "311": "Ġhad", "312": "Ġho", "313": "Ġhappy", "314": "Ġhel", "315": "Ġall", "316": "Ġhelp", "317": "Ġse", "318": "Ġtoy", "319": "Ġas", "320": "Ġat", "321": "Ġsom", "322": "Ġsome", "323": "Ġsta", "324": "Ġtog", "325": "Ġtoge", "326": "Ġtoget", "327": "Ġtogeth", "328": "Ġtogethe", "329": "Ġtogether", "330": "Ġthi", "331": "Ġb", "332": "Ġbi", "333": "Ġbe", "334": "Ġbig", "335": "Ġba", "336": "Ġbo", "337": "Ġbu", "338": "Ġbut", "339": "Ġbir", "340": "Ġbird", "341": "Ġtre", "342": "Ġta", "343": "Ġsu", "344": "Ġbal", "345": "Ġthei", "346": "Ġtheir", "347": "Ġhav", "348": "Ġhim", "349": "Ġtree", "350": "Ġball", "351": "Ġbr", "352": "Ġare", "353": "Ġthem", "354": "Ġsad", "355": "Ġboy", "356": "Ġsee", "357": "Ġhave", "358": "Ġsho", "359": "Ġf", "360": "Ġfo", "361": "Ġfr", "362": "Ġfri", "363": "Ġfrie", "364": "Ġfrien", "365": "Ġfriend", "366": "Ġfor", "367": "Ġfi", "368": "Ġfriends", "369": "Ġfu", "370": "Ġfe", "371": "Ġfa", "372": "Ġfun", "373": "Ġfl", "374": "Ġfou", "375": "Ġfoun", "376": "Ġsc", "377": "Ġfel", "378": "Ġfound", "379": "ĠT", "380": "ĠTh", "381": "ĠThe", "382": "ĠThey", "383": "ĠTi", "384": "ĠTim", "385": "ĠTo", "386": "ĠTom", "387": "Ġsp", "388": "Ġsmi", "389": "Ġsmil", "390": "Ġask", "391": "Ġstar", "392": "Ġsmile", "393": "Ġbac", "394": "Ġback", "395": "Ġfro", "396": "Ġhu", "397": "Ġbec", "398": "Ġfin", "399": "Ġthin", "400": "Ġbeca", "401": "Ġsto", "402": "Ġstart", "403": "Ġwou", "404": "Ġwoul", "405": "Ġwould", "406": "Ġfelt", "407": "Ġsma", "408": "Ġaske", "409": "Ġasked", "410": "Ġl", "411": "Ġli", "412": "Ġlo", "413": "Ġlit", "414": "Ġlitt", "415": "Ġlittl", "416": "Ġlittle", "417": "Ġlik", "418": "Ġlike", "419": "Ġloo", "420": "Ġle", "421": "Ġlook", "422": "Ġlov", "423": "Ġlove", "424": "Ġla", "425": "Ġloved", "426": "Ġlooke", "427": "Ġlooked", "428": "Ġlea", "429": "Ġliked", "430": "Ġstarte", "431": "Ġstarted", "432": "Ġi", "433": "Ġit", "434": "Ġin", "435": "Ġis", "436": "Ġsca", "437": "Ġd", "438": "Ġda", "439": "Ġday", "440": "Ġdo", "441": "Ġdi", "442": "Ġdid", "443": "Ġdog", "444": "Ġde", "445": "Ġdr", "446": "Ġwhe", "447": "Ġc", "448": "Ġca", "449": "Ġco", "450": "Ġcou", "451": "Ġcar", "452": "Ġcl", "453": "Ġcat", "454": "Ġcan", "455": "Ġcoul", "456": "Ġcould", "457": "Ġcr", "458": "Ġcam", "459": "Ġcame", "460": "Ġch", "461": "Ġsomet", "462": "Ġag", "463": "Ġsmal", "464": "Ġsmall", "465": "Ġwal", "466": "Ġscar", "467": "Ġwat", "468": "Ġp", "469": "Ġpl", "470": "Ġpla", "471": "Ġplay", "472": "Ġpa", "473": "Ġpu", "474": "Ġpr", "475": "Ġplaye", "476": "Ġplayed", "477": "Ġpar", "478": "Ġpi", "479": "Ġpark", "480": "Ġwor", "481": "Ġsmiled", "482": "Ġsay", "483": "Ġpo", "484": "Ġhea", "485": "Ġtho", "486": "Ġsi", "487": "Ġpe", "488": "Ġsha", "489": "Ġthou", "490": "Ġthoug", "491": "Ġthough", "492": "Ġwha", "493": "Ġthing", "494": "Ġaw", "495": "Ġfind", "496": "Ġawa", "497": "Ġhom", "498": "Ġhome", "499": "Ġaway", "500": "Ġput", "501": "Ġwhat", "502": "Ġsometh", "503": "Ġsomethi", "504": "Ġsomethin", "505": "Ġsomething", "506": "Ġfrom", "507": "Ġthought", "508": "Ġplayi", "509": "Ġplayin", "510": "Ġplaying", "511": "Ġliv", "512": "Ġm", "513": "Ġmo", "514": "Ġma", "515": "Ġmom", "516": "Ġme", "517": "Ġman", "518": "Ġmak", "519": "Ġmake", "520": "Ġmu", "521": "Ġmad", "522": "Ġmade", "523": "Ġbea", "524": "Ġbl", "525": "Ġwalk", "526": "Ġtri", "527": "Ġmor", "528": "Ġwil", "529": "Ġlau", "530": "Ġscare", "531": "Ġhou", "532": "Ġaga", "533": "Ġagai", "534": "Ġagain", "535": "Ġlive", "536": "Ġlaug", "537": "Ġlaugh", "538": "Ġo", "539": "Ġon", "540": "Ġof", "541": "Ġou", "542": "Ġout", "543": "Ġot", "544": "Ġoth", "545": "Ġothe", "546": "Ġother", "547": "Ġhous", "548": "Ġhouse", "549": "Ġdow", "550": "Ġdown", "551": "Ġtook", "552": "Ġscared", "553": "Ġlear", "554": "Ġlearn", "555": "Ġmi", "556": "Ġtoys", "557": "Ġwill", "558": "Ġbox", "559": "Ġmy", "560": "Ġaro", "561": "Ġarou", "562": "Ġaroun", "563": "Ġaround", "564": "Ġthings", "565": "Ġpic", "566": "Ġwhen", "567": "Ġlived", "568": "Ġthen", "569": "Ġsun", "570": "Ġsw", "571": "Ġn", "572": "Ġno", "573": "Ġnot", "574": "Ġna", "575": "Ġne", "576": "Ġnam", "577": "Ġname", "578": "Ġnamed", "579": "Ġnew", "580": "Ġpre", "581": "Ġclo", "582": "Ġab", "583": "Ġte", "584": "Ġshar", "585": "Ġtrie", "586": "Ġcom", "587": "Ġni", "588": "Ġlot", "589": "Ġtried", "590": "Ġsays", "591": "Ġwho", "592": "Ġbot", "593": "Ġsl", "594": "Ġstr", "595": "Ġmany", "596": "Ġabo", "597": "Ġsur", "598": "Ġint", "599": "Ġabou", "600": "Ġabout", "601": "Ġpret", "602": "Ġdec", "603": "Ġany", "604": "Ġsti", "605": "Ġg", "606": "Ġgo", "607": "Ġgi", "608": "Ġgr", "609": "Ġgir", "610": "Ġgirl", "611": "Ġga", "612": "Ġgoo", "613": "Ġgood", "614": "Ġge", "615": "Ġget", "616": "Ġgot", "617": "Ġflo", "618": "Ġcare", "619": "Ġmore", "620": "ĠS", "621": "ĠSh", "622": "ĠShe", "623": "ĠSa", "624": "ĠSu", "625": "ĠSue", "626": "ĠSam", "627": "ĠSp", "628": "ĠSpo", "629": "ĠSpot", "630": "ĠSo", "631": "Ġhug", "632": "Ġlearne", "633": "Ġlearned", "634": "Ġdeci", "635": "Ġhear", "636": "Ġwate", "637": "Ġwater", "638": "Ġbes", "639": "Ġins", "640": "Ġwin", "641": "Ġpro", "642": "Ġlon", "643": "Ġbecam", "644": "Ġbecame", "645": "Ġdecid", "646": "Ġdecide", "647": "Ġbest", "648": "Ġop", "649": "Ġfee", "650": "Ġgre", "651": "Ġthan", "652": "Ġgra", "653": "Ġouts", "654": "Ġoutsi", "655": "Ġoutsid", "656": "Ġoutside", "657": "Ġlaughe", "658": "Ġlaughed", "659": "Ġope", "660": "Ġalw", "661": "Ġalwa", "662": "Ġalway", "663": "Ġalways", "664": "Ġshow", "665": "Ġcol", "666": "Ġshi", "667": "Ġstor", "668": "Ġdecided", "669": "Ġbecau", "670": "Ġbecaus", "671": "Ġbecause", "672": "Ġboth", "673": "Ġinto", "674": "Ġone", "675": "Ġopen", "676": "Ġtak", "677": "Ġcu", "678": "Ġshare", "679": "Ġdad", "680": "Ġbro", "681": "Ġtu", "682": "Ġfas", "683": "Ġnic", "684": "Ġnice", "685": "Ġthis", "686": "Ġfast", "687": "Ġsk", "688": "Ġfeel", "689": "Ġlong", "690": "Ġtal", "691": "Ġinsi", "692": "Ġgro", "693": "Ġtol", "694": "Ġtold", "695": "Ġam", "696": "Ġtake", "697": "Ġinsid", "698": "Ġinside", "699": "Ġwhi", "700": "Ġprett", "701": "Ġsurp", "702": "Ġsurpr", "703": "Ġsurpri", "704": "Ġsurpris", "705": "Ġspe", "706": "Ġsurprise", "707": "Ġpretty", "708": "Ġsor", "709": "Ġhappe", "710": "Ġhappen", "711": "Ġpick", "712": "Ġfoo", "713": "Ġdon", "714": "Ġgav", "715": "Ġgave", "716": "Ġmuc", "717": "Ġmuch", "718": "Ġhow", "719": "Ġhan", "720": "Ġani", "721": "Ġanim", "722": "Ġanima", "723": "Ġanimal", "724": "Ġnee", "725": "Ġneed", "726": "Ġol", "727": "Ġtow", "728": "Ġor", "729": "Ġr", "730": "Ġre", "731": "Ġra", "732": "Ġro", "733": "Ġran", "734": "Ġrea", "735": "Ġru", "736": "Ġred", "737": "Ġroo", "738": "Ġroom", "739": "Ġri", "740": "Ġrun", "741": "Ġroc", "742": "Ġrock", "743": "Ġcaref", "744": "Ġcarefu", "745": "Ġcareful", "746": "Ġfis", "747": "Ġfish", "748": "Ġshou", "749": "Ġlet", "750": "Ġold", "751": "He", "752": "ĠHe", "753": "Ġsorr", "754": "Ġsorry", "755": "Ġshin", "756": "Ġthr", "757": "Ġthank", "758": "Ġcle", "759": "Ġwalke", "760": "Ġwalked", "761": "Ġbear", "762": "Ġhand", "763": "Ġnea", "764": "Ġfle", "765": "Ġwork", "766": "Ġstop", "767": "Ġtur", "768": "Ġflow", "769": "Ġhappene", "770": "Ġhappened", "771": "Ġfood", "772": "Ġlis", "773": "Ġlist", "774": "Ġbet", "775": "Ġflowe", "776": "Ġits", "777": "Ġflower", "778": "Ġdidn", "779": "Ġanimals", "780": "Ġliste", "781": "Ġlisten", "782": "Ġhig", "783": "Ġhigh", "784": "Ġnear", "785": "Ġhar", "786": "Ġwatc", "787": "Ġwatch", "788": "Ġid", "789": "Ġide", "790": "Ġidea", "791": "Ġtry", "792": "Ġsky", "793": "Ġsn", "794": "Ġclos", "795": "Ġclose", "796": "Ġcome", "797": "Ġbett", "798": "Ġbette", "799": "Ġbetter", "800": "Ġbra", "801": "Ġbug", "802": "Ġheard", "803": "Ġtw", "804": "Ġclea", "805": "Ġcha", "806": "Ġov", "807": "Ġove", "808": "Ġ\"", "809": "Ġboo", "810": "Ġtru", "811": "Ġmou", "812": "Ġhol", "813": "Ġif", "814": "Ġaf", "815": "Ġfly", "816": "Ġflew", "817": "Ġanym", "818": "Ġanymo", "819": "Ġanymor", "820": "Ġanymore", "821": "Ġspec", "822": "Ġsaf", "823": "Ġcal", "824": "Ġspeci", "825": "Ġspecia", "826": "Ġspecial", "827": "Ġswi", "828": "Ġlots", "829": "Ġnev", "830": "Ġneve", "831": "Ġnever", "832": "Ġby", "833": "Ġdan", "834": "Ġcoo", "835": "Ġhur", "836": "Ġfir", "837": "Ġsafe", "838": "Ġwind", "839": "Ġu", "840": "Ġup", "841": "Ġupo", "842": "Ġupon", "843": "Ġun", "844": "Ġus", "845": "Ġund", "846": "Ġunde", "847": "Ġunder", "848": "Ġuse", "849": "Ġgrou", "850": "Ġclean", "851": "Ġgam", "852": "Ġgame", "853": "Ġwis", "854": "Ġgar", "855": "ĠThen", "856": "Ġdre", "857": "Ġgiv", "858": "Ġtalk", "859": "Ġche", "860": "Ġmag", "861": "On", "862": "One", "863": "Onc", "864": "Once", "865": "ĠOne", "866": "Ġhard", "867": "Ġshiny", "868": "Ġcli", "869": "Ġy", "870": "Ġyo", "871": "Ġyou", "872": "Ġyour", "873": "Ġye", "874": "Ġfore", "875": "Ġover", "876": "Ġcak", "877": "Ġcake", "878": "Ġbook", "879": "Ġbri", "880": "Ġcolo", "881": "Ġturn", "882": "Ġfam", "883": "Ġbad", "884": "Ġaft", "885": "Ġafte", "886": "Ġafter", "887": "Ġpeo", "888": "Ġpeop", "889": "Ġpeopl", "890": "Ġpeople", "891": "Ġprou", "892": "Ġproud", "893": "Ġsurprised", "894": "Ġhurt", "895": "Ġgive", "896": "Ġsli", "897": "Ġdoo", "898": "Ġdoor", "899": "Ġgard", "900": "Ġgarde", "901": "Ġgarden", "902": "Ġe", "903": "Ġev", "904": "Ġeve", "905": "Ġea", "906": "Ġever", "907": "Ġex", "908": "Ġevery", "909": "Ġen", "910": "Ġexc", "911": "Ġexci", "912": "Ġexcit", "913": "Ġeat", "914": "Ġexcite", "915": "Ġexcited", "916": "Ġeac", "917": "Ġeach", "918": "Ġeven", "919": "Ġend", "920": "Ġopene", "921": "Ġgroun", "922": "Ġground", "923": "Ġopened", "924": "Ġpicke", "925": "Ġpicked", "926": "Ġlou", "927": "Ġloud", "928": "Ġclim", "929": "Ġclimb", "930": "Ġgl", "931": "ĠHer", "932": "Ġune", "933": "Ġunex", "934": "Ġunexp", "935": "Ġunexpe", "936": "Ġunexpec", "937": "Ġunexpect", "938": "Ġunexpecte", "939": "Ġunexpected", "940": "Ġmea", "941": "Ġim", "942": "Ġsou", "943": "Ġway", "944": "Ġblu", "945": "ĠI", "946": "ĠIt", "947": "Ġhugg", "948": "Ġthanke", "949": "Ġthanked", "950": "Ġcolor", "951": "Ġblue", "952": "Ġnoi", "953": "Ġnois", "954": "Ġstil", "955": "Ġstill", "956": "Ġfar", "957": "Ġhugge", "958": "Ġhugged", "959": "Ġplan", "960": "Ġcall", "961": "Ġhappi", "962": "Ġwai", "963": "ĠSar", "964": "ĠSara", "965": "Ġsq", "966": "Ġsqu", "967": "Ġtra", "968": "Ġoff", "969": "Ġow", "970": "Ġmagi", "971": "Ġmagic", "972": "Ġfami", "973": "Ġfamil", "974": "Ġwait", "975": "Ġboa", "976": "Ġhop", "977": "Ġplac", "978": "Ġplace", "979": "Ġhid", "980": "Ġread", "981": "Ġap", "982": "Ġdra", "983": "Ġshoul", "984": "Ġshould", "985": "Ġfamily", "986": "Ġwar", "987": "Ġmov", "988": "Ġrai", "989": "Ġcra", "990": "Ġad", "991": "Ġstro", "992": "ĠIn", "993": "Ġnow", "994": "Ġgrea", "995": "Ġgreat", "996": "Ġstron", "997": "Ġstrong", "998": "Ġstay", "999": "Ġbee", "1000": "Ġunt", "1001": "Ġfores", "1002": "Ġhelpe", "1003": "Ġtea", "1004": "Ġunti", "1005": "Ġforest", "1006": "Ġdanc", "1007": "Ġnoise", "1008": "Ġfrog", "1009": "Ġshowe", "1010": "Ġuntil", "1011": "Ġbeau", "1012": "Ġbeaut", "1013": "Ġlos", "1014": "Ġstic", "1015": "Ġstick", "1016": "Ġnex", "1017": "Ġnext", "1018": "Ġboat", "1019": "Ġreal", "1020": "Ġmus", "1021": "Ġdu", "1022": "Ġang", "1023": "Ġexp", "1024": "Ġhappil", "1025": "Ġhappily", "1026": "Ġbeauti", "1027": "Ġbeautif", "1028": "Ġbeautifu", "1029": "Ġbeautiful", "1030": "Ġstu", "1031": "Ġwr", "1032": "Ġdis", "1033": "Ġapp", "1034": "Ġhelped", "1035": "Ġsan", "1036": "Ġshowed", "1037": "Ġslid", "1038": "Ġimp", "1039": "Ġstory", "1040": "Ġnod", "1041": "Ġsea", "1042": "Ġwhil", "1043": "Ġwhile", "1044": "Ġrain", "1045": "Ġtown", "1046": "Ġcre", "1047": "Ġreac", "1048": "Ġpict", "1049": "Ġpictu", "1050": "Ġpictur", "1051": "Ġpicture", "1052": "Ġres", "1053": "Ġreach", "1054": "Ġhat", "1055": "Ġsof", "1056": "Ġdol", "1057": "Ġbei", "1058": "Ġbein", "1059": "Ġbeing", "1060": "Ġrem", "1061": "Ġeveryo", "1062": "Ġeveryon", "1063": "Ġeveryone", "1064": "Ġblo", "1065": "Ġyu", "1066": "Ġcalle", "1067": "Ġcalled", "1068": "Ġstopp", "1069": "Ġfac", "1070": "Ġbrok", "1071": "Ġbroke", "1072": "Ġv", "1073": "Ġve", "1074": "Ġver", "1075": "Ġvery", "1076": "Ġmet", "1077": "Ġstoppe", "1078": "Ġstopped", "1079": "Ġtou", "1080": "Ġworr", "1081": "Ġdance", "1082": "Ġvi", "1083": "Ġpart", "1084": "Ġmon", "1085": "Ġangr", "1086": "Ġbutt", "1087": "ĠL", "1088": "ĠLi", "1089": "ĠLil", "1090": "ĠLily", "1091": "ĠLu", "1092": "ĠLuc", "1093": "ĠLucy", "1094": "ĠLe", "1095": "Ġleav", "1096": "Ġangry", "1097": "Ġyum", "1098": "Ġthre", "1099": "Ġsoft", "1100": "Ġya", "1101": "Ġgree", "1102": "Ġyumm", "1103": "Ġtruc", "1104": "Ġtruck", "1105": "Ġmove", "1106": "Ġsin", "1107": "Ġcry", "1108": "Ġyummy", "1109": "Ġbrav", "1110": "Ġbrave", "1111": "Ġlost", "1112": "ĠSal", "1113": "Ġbed", "1114": "ĠLet", "1115": "ĠSall", "1116": "ĠSally", "1117": "Ġwarm", "1118": "Ġcrea", "1119": "Ġspo", "1120": "Ġslide", "1121": "Ġcla", "1122": "Ġmous", "1123": "Ġmouse", "1124": "Ġate", "1125": "Ġwon", "1126": "Ġhole", "1127": "Ġdoll", "1128": "Ġcouldn", "1129": "Ġbit", "1130": "Ġface", "1131": "Ġleave", "1132": "Ġpai", "1133": "Ġbel", "1134": "Ġals", "1135": "Ġalso", "1136": "Ġfell", "1137": "Ġcook", "1138": "Ġgreen", "1139": "Ġtwo", "1140": "Ġwish", "1141": "Ġflowers", "1142": "Ġspi", "1143": "Ġwea", "1144": "Ġwher", "1145": "Ġwhere", "1146": "Ġtir", "1147": "Ġsoo", "1148": "Ġdri", "1149": "Ġtire", "1150": "Ġsoon", "1151": "Hel", "1152": "Ġfol", "1153": "ĠB", "1154": "ĠBu", "1155": "ĠBe", "1156": "ĠBut", "1157": "ĠBen", "1158": "ĠBo", "1159": "ĠBob", "1160": "Ġsqui", "1161": "Ġrac", "1162": "Ġrab", "1163": "Ġrabb", "1164": "Ġrabbi", "1165": "Ġrabbit", "1166": "Ġthink", "1167": "Ġcon", "1168": "Ġbef", "1169": "Ġbefo", "1170": "Ġbefor", "1171": "Ġbefore", "1172": "Ġpus", "1173": "Ġpush", "1174": "Ġmean", "1175": "Ġsat", "1176": "Ġic", "1177": "Ġpon", "1178": "Ġsquir", "1179": "Ġcri", "1180": "Ġcur", "1181": "Ġnodd", "1182": "Ġsquirr", "1183": "Ġsquirre", "1184": "Ġsquirrel", "1185": "Ġnodde", "1186": "Ġnodded", "1187": "Ġstore", "1188": "Ġk", "1189": "Ġkn", "1190": "Ġki", "1191": "Ġkno", "1192": "Ġknow", "1193": "Ġkne", "1194": "Ġknew", "1195": "Ġke", "1196": "Ġkin", "1197": "Ġkind", "1198": "Ġkit", "1199": "Ġkid", "1200": "Ġkids", "1201": "Ġkee", "1202": "Ġkeep", "1203": "Ġkep", "1204": "Ġkept", "1205": "Ġtouc", "1206": "Ġsing", "1207": "Ġtouch", "1208": "Ġexpl", "1209": "Ġswin", "1210": "Ġswing", "1211": "Ġhands", "1212": "Ġbirds", "1213": "Ġpain", "1214": "Ġbun", "1215": "Ġcatc", "1216": "Ġcatch", "1217": "Ġper", "1218": "Ġforg", "1219": "Ġbre", "1220": "Ġrace", "1221": "Ġgoi", "1222": "Ġgoin", "1223": "Ġgoing", "1224": "Ġfunn", "1225": "Ġappl", "1226": "Ġfunny", "1227": "Ġhavi", "1228": "Ġhavin", "1229": "Ġhaving", "1230": "Ġyel", "1231": "Ġchi", "1232": "ĠM", "1233": "ĠMa", "1234": "ĠMax", "1235": "ĠMi", "1236": "ĠMia", "1237": "ĠMo", "1238": "ĠMom", "1239": "Ġbunn", "1240": "Ġey", "1241": "Ġeye", "1242": "Ġtel", "1243": "Ġbar", "1244": "Ġyell", "1245": "Ġel", "1246": "Ġyar", "1247": "Ġbus", "1248": "Ġfix", "1249": "Ġbrea", "1250": "'s", "1251": "ĠTha", "1252": "Ġtired", "1253": "Ġbunny", "1254": "Ġused", "1255": "Ġthro", "1256": "Ġsit", "1257": "Ġlooki", "1258": "Ġlookin", "1259": "Ġlooking", "1260": "Ġsle", "1261": "Ġlad", "1262": "Ġwav", "1263": "Ġour", "1264": "Ġpul", "1265": "Ġpull", "1266": "Ġpie", "1267": "Ġok", "1268": "Ġapple", "1269": "Ġsoun", "1270": "Ġsound", "1271": "Ġhas", "1272": "Ġpond", "1273": "Ġmis", "1274": "Ġbeh", "1275": "Ġadv", "1276": "Ġsunn", "1277": "Ġsunny", "1278": "Ġothers", "1279": "Ġsna", "1280": "Ġpri", "1281": "Ġkitc", "1282": "Ġkitch", "1283": "Ġkitche", "1284": "Ġkitchen", "1285": "Ġreme", "1286": "Ġremem", "1287": "Ġrememb", "1288": "Ġremembe", "1289": "Ġremember", "1290": "Ġtrea", "1291": "Ġimpo", "1292": "Ġmomm", "1293": "Ġdif", "1294": "Ġdiff", "1295": "Ġhun", "1296": "Ġhead", "1297": "Ġagr", "1298": "Ġagre", "1299": "Ġagree", "1300": "Ġwave", "1301": "Ġfirs", "1302": "Ġfirst", "1303": "Ġmes", "1304": "Ġmommy", "1305": "Ġeyes", "1306": "Ġvo", "1307": "Ġimpor", "1308": "Ġimport", "1309": "Ġimporta", "1310": "Ġimportan", "1311": "Hell", "1312": "Hello", "1313": "Ġfav", "1314": "Ġfavo", "1315": "Ġdar", "1316": "Ġswe", "1317": "Ġworke", "1318": "Ġdres", "1319": "Ġdress", "1320": "Ġmess", "1321": "Ġbeg", "1322": "Ġrig", "1323": "Ġrigh", "1324": "Ġright", "1325": "Ġparty", "1326": "Ġcold", "1327": "Ġsand", "1328": "Ġcuri", "1329": "Ġcurio", "1330": "Ġduc", "1331": "Ġduck", "1332": "Ġimportant", "1333": "Ġple", "1334": "Ġpaint", "1335": "Ġdir", "1336": "Ġmora", "1337": "Ġmoral", "1338": "Ġshared", "1339": "Ġac", "1340": "Ġcrie", "1341": "Ġbla", "1342": "Ġice", "1343": "Ġplea", "1344": "Ġadve", "1345": "Ġoka", "1346": "Ġokay", "1347": "Ġadven", "1348": "Ġadvent", "1349": "Ġadventu", "1350": "Ġadventur", "1351": "Ġgu", "1352": "Ġste", "1353": "Ġworked", "1354": "Ġenj", "1355": "Ġenjo", "1356": "Ġenjoy", "1357": "Ġbrig", "1358": "Ġbrigh", "1359": "Ġmaki", "1360": "Ġbright", "1361": "Ġmakin", "1362": "Ġmaking", "1363": "Ġcuriou", "1364": "Ġcurious", "1365": ".\"", "1366": "Ġpleas", "1367": "Ġown", "1368": "Ġrep", "1369": "Ġwoo", "1370": "Ġfru", "1371": "Ġfil", "1372": "Ġpin", "1373": "Ġtall", "1374": "Ġdirt", "1375": "Ġson", "1376": "Ġwatche", "1377": "Ġslee", "1378": "Ġfavor", "1379": "Ġplease", "1380": "Ġfavori", "1381": "Ġfavorit", "1382": "Ġfavorite", "1383": "Ġchee", "1384": "Ġsleep", "1385": "Ġbega", "1386": "Ġbegan", "1387": "Ġbag", "1388": "Ġhil", "1389": "Ġhill", "1390": "Ġfire", "1391": "Ġdraw", "1392": "Ġrest", "1393": "Ġhere", "1394": "Ġmar", "1395": "Ġyard", "1396": "Ġtas", "1397": "Ġfloo", "1398": "Ġtell", "1399": "Ġmin", "1400": "Ġwatched", "1401": "Ġfoll", "1402": "Ġfollo", "1403": "Ġfollow", "1404": "Ġexplo", "1405": "Ġwel", "1406": "Ġbloc", "1407": "Ġblock", "1408": "Ġgla", "1409": "Ġcut", "1410": "Ġnig", "1411": "Ġnigh", "1412": "Ġnight", "1413": "Ġagreed", "1414": "Ġexplor", "1415": "Ġlu", "1416": "ĠThi", "1417": "Ġhung", "1418": "Ġpap", "1419": "Ġbehi", "1420": "Ġbehin", "1421": "Ġbehind", "1422": "Ġpape", "1423": "Ġpaper", "1424": "ĠThis", "1425": "Ġhot", "1426": "Ġgras", "1427": "Ġgrass", "1428": "Ġtab", "1429": "Ġtabl", "1430": "Ġtable", "1431": "Ġworry", "1432": "Ġdark", "1433": "Ġwalki", "1434": "Ġtrees", "1435": "Ġtop", "1436": "Ġvoi", "1437": "Ġvoic", "1438": "Ġvoice", "1439": "Ġwalkin", "1440": "Ġwalking", "1441": "Ġclot", "1442": "Ġcloth", "1443": "Ġtwi", "1444": "Ġgrab", "1445": "Ġfarm", "1446": "Ġfloor", "1447": "Ġlio", "1448": "Ġlion", "1449": "Ġswee", "1450": "Ġdiffe", "1451": "Ġdiffer", "1452": "Ġdiffere", "1453": "Ġdifferen", "1454": "Ġfeeli", "1455": "Ġfeelin", "1456": "Ġfeeling", "1457": "Ġsong", "1458": "Ġbutte", "1459": "Ġbutter", "1460": "Ġtai", "1461": "Ġtail", "1462": "Ġcarr", "1463": "Ġsweet", "1464": "Ġshout", "1465": "Ġcolors", "1466": "Ġlady", "1467": "Ġclap", "1468": "Ġcooki", "1469": "!\"", "1470": "Ġleaves", "1471": "Ġcloser", "1472": "Ġcars", "1473": "ĠBi", "1474": "Ġturne", "1475": "Ġturned", "1476": "Ġneede", "1477": "Ġneeded", "1478": "Ġfig", "1479": "Ġtast", "1480": "Ġwood", "1481": "Ġcried", "1482": "Ġgrow", "1483": "Ġdifferent", "1484": "Ġpat", "1485": "Ġdel", "1486": "Ġpiec", "1487": "Ġbow", "1488": "Ġpiece", "1489": "Ġtrai", "1490": "Ġhai", "1491": "Ġrol", "1492": "Ġhair", "1493": "ĠMr", "1494": "Ġroll", "1495": "Ġadventure", "1496": "Ġdoe", "1497": "Ġdoes", "1498": "Ġhungr", "1499": "Ġtowe", "1500": "Ġhungry", "1501": "ĠSud", "1502": "ĠSudd", "1503": "ĠSudde", "1504": "ĠSudden", "1505": "ĠSuddenl", "1506": "ĠSuddenly", "1507": "Ġswa", "1508": "Ġful", "1509": "Ġyello", "1510": "Ġyellow", "1511": "Ġfull", "1512": "Ġprin", "1513": "Ġalo", "1514": "Ġwet", "1515": "Ġfriendl", "1516": "Ġalon", "1517": "Ġdro", "1518": "Ġfriendly", "1519": "Ġbui", "1520": "Ġbuil", "1521": "Ġpas", "1522": "Ġpil", "1523": "Ġfrui", "1524": "Ġfruit", "1525": "Ġgen", "1526": "Ġbroken", "1527": "Ġbat", "1528": "Ġwishe", "1529": "Ġready", "1530": "Ġva", "1531": "Ġprom", "1532": "ĠThat", "1533": "Ġpromi", "1534": "Ġpromis", "1535": "Ġano", "1536": "Ġanot", "1537": "Ġanoth", "1538": "Ġanothe", "1539": "Ġanother", "1540": "Ġclimbe", "1541": "Ġlig", "1542": "Ġligh", "1543": "Ġlight", "1544": "Ġprete", "1545": "Ġpreten", "1546": "Ġpretend", "1547": "Ġpromise", "1548": "Ġlistene", "1549": "Ġnu", "1550": "Ġrunn", "1551": "Ġcookie", "1552": "Ġclimbed", "1553": "Ġlistened", "1554": "Ġsig", "1555": "Ġreache", "1556": "Ġpushe", "1557": "ĠBobo", "1558": "Ġdeli", "1559": "Ġgon", "1560": "Ġonl", "1561": "Ġrunni", "1562": "Ġrunnin", "1563": "Ġrunning", "1564": "Ġonly", "1565": "Ġgone", "1566": "Ġswim", "1567": "Ġrepl", "1568": "Ġtrain", "1569": "Ġsme", "1570": "Ġmat", "1571": "Ġsmel", "1572": "Ġpea", "1573": "Ġdee", "1574": "Ġsmell", "1575": "Ġscr", "1576": "Ġexplore", "1577": "Ġchai", "1578": "Ġama", "1579": "Ġamaz", "1580": "Ġstra", "1581": "Ġwond", "1582": "Ġhold", "1583": "Ġwonde", "1584": "Ġwonder", "1585": "Ġblocks", "1586": "ĠTimm", "1587": "ĠTimmy", "1588": "ĠA", "1589": "ĠAn", "1590": "ĠAnd", "1591": "ĠAm", "1592": "ĠAmy", "1593": "ĠAnn", "1594": "ĠAnna", "1595": "ĠAl", "1596": "ĠAs", "1597": "ĠAll", "1598": "Ġhide", "1599": "Ġbutterf", "1600": "Ġbutterfl", "1601": "Ġsees", "1602": "Ġfai", "1603": "Ġreached", "1604": "Ġslo", "1605": "Ġwall", "1606": "Ġbigg", "1607": "Ġbigge", "1608": "Ġhelpi", "1609": "Ġhelpin", "1610": "Ġhelping", "1611": "Ġslow", "1612": "Ġcool", "1613": "Ġstre", "1614": "Ġcream", "1615": "Ġgoodb", "1616": "Ġgoodby", "1617": "Ġgoodbye", "1618": "Ġglad", "1619": "Ġtig", "1620": "Ġbab", "1621": "Ġant", "1622": "Ġles", "1623": "Ġless", "1624": "Ġlan", "1625": "Ġbeen", "1626": "Her", "1627": "Ġfini", "1628": "Ġfinis", "1629": "Ġfinish", "1630": "Ġshel", "1631": "Ġwear", "1632": "Ġfigh", "1633": "Ġfight", "1634": "Ġcas", "1635": "Ġpushed", "1636": "Ġsno", "1637": "Ġfair", "1638": "Ġmust", "1639": "Ġhopp", "1640": "Ġchil", "1641": "Ġteac", "1642": "Ġteach", "1643": "Ġmome", "1644": "Ġmomen", "1645": "Ġmoment", "1646": "Ġwindo", "1647": "Ġwindow", "1648": "Ġrou", "1649": "Ġwro", "1650": "Ġballo", "1651": "Ġballoo", "1652": "Ġballoon", "1653": "Ġsnow", "1654": "Ġchild", "1655": "Ġclapp", "1656": "Ġwished", "1657": "Ġbaby", "1658": "Ġdone", "1659": "Ġwag", "1660": "Ġbuy", "1661": "Ġstuc", "1662": "Ġstuck", "1663": "Ġperf", "1664": "Ġroa", "1665": "Ġmig", "1666": "Ġdriv", "1667": "Ġmigh", "1668": "Ġmight", "1669": "Ġbou", "1670": "Ġtryi", "1671": "Ġtryin", "1672": "Ġtrying", "1673": "Ġcomi", "1674": "Ġspa", "1675": "Ġcomin", "1676": "Ġcoming", "1677": "Ġrid", "1678": "Ġfal", "1679": "Ġfall", "1680": "Ġnoti", "1681": "Ġnotic", "1682": "Ġplant", "1683": "Ġai", "1684": "Ġnotice", "1685": "Ġdin", "1686": "Ġj", "1687": "Ġju", "1688": "Ġjum", "1689": "Ġjump", "1690": "Ġjo", "1691": "Ġjus", "1692": "Ġjust", "1693": "Ġjumpe", "1694": "Ġjumped", "1695": "Ġje", "1696": "Ġja", "1697": "Ġscary", "1698": "Ġlooks", "1699": "Ġdoi", "1700": "Ġdoin", "1701": "Ġbuild", "1702": "Ġdoing", "1703": "Ġdrea", "1704": "Ġunders", "1705": "Ġunderst", "1706": "Ġdream", "1707": "Ġbark", "1708": "Ġdirty", "1709": "Ġheld", "1710": "Ġbran", "1711": "Ġtin", "1712": "Ġbooks", "1713": "Ġbutterfly", "1714": "Ġlef", "1715": "Ġleft", "1716": "Ġhope", "1717": "Ġrepli", "1718": "Ġwise", "1719": "Ġreplie", "1720": "Ġcoun", "1721": "Ġshoute", "1722": "Ġshouted", "1723": "Ġcount", "1724": "Ġfla", "1725": "Ġreplied", "1726": "Ġlif", "1727": "Ġtiny", "1728": "Ġthrou", "1729": "Ġthroug", "1730": "Ġthrough", "1731": "Ġcomp", "1732": "Ġble", "1733": "Ġwhy", "1734": "Ġair", "1735": "Ġbranc", "1736": "Ġbranch", "1737": "Ġtower", "1738": "Ġland", "1739": "Ġthree", "1740": "Ġspl", "1741": "Ġpulle", "1742": "Ġpulled", "1743": "Ġtreat", "1744": "Ġgran", "1745": "Ġbrot", "1746": "Ġbroth", "1747": "Ġbrothe", "1748": "Ġbrother", "1749": "Ġmot", "1750": "Ġpol", "1751": "Ġwoods", "1752": "Ġsure", "1753": "Ġchair", "1754": "Ġsometi", "1755": "Ġsometim", "1756": "Ġsometime", "1757": "Ġseen", "1758": "Ġclappe", "1759": "Ġpink", "1760": "Ġclapped", "1761": "Ġcup", "1762": "Ġowl", "1763": "Ġsometimes", "1764": "Ġfill", "1765": "ĠIns", "1766": "Ġclou", "1767": "Ġcloud", "1768": "Ġswam", "1769": "Ġgrabb", "1770": "Ġjoi", "1771": "Ġjoin", "1772": "Ġjob", "1773": "Ġcolorf", "1774": "Ġcolorfu", "1775": "Ġcolorful", "1776": "Ġremembere", "1777": "Ġremembered", "1778": "Ġban", "1779": "Ġspr", "1780": "Ġbigger", "1781": "Ġnes", "1782": "Ġnest", "1783": "Ġmout", "1784": "Ġmouth", "1785": "ĠTher", "1786": "Ġfie", "1787": "Ġglo", "1788": "Ġlesso", "1789": "Ġlesson", "1790": "Ġbath", "1791": "ĠThere", "1792": "Ġwaite", "1793": "Ġwaved", "1794": "Ġgrabbe", "1795": "Ġgrabbed", "1796": "Ġstaye", "1797": "Ġstayed", "1798": "Ġcont", "1799": "Ġclothe", "1800": "Ġclothes", "1801": "Ġheav", "1802": "Ġanyt", "1803": "ĠAf", "1804": "Ġwing", "1805": "ĠAft", "1806": "ĠAfte", "1807": "ĠAfter", "1808": "Ġwaited", "1809": "Ġce", "1810": "Ġword", "1811": "Ġsil", "1812": "Ġmiss", "1813": "Ġcand", "1814": "ĠMomm", "1815": "Ġgames", "1816": "Ġcast", "1817": "ĠMar", "1818": "Ġcro", "1819": "Ġblew", "1820": "Ġgent", "1821": "Ġgentl", "1822": "Ġscre", "1823": "ĠMommy", "1824": "Ġenjoye", "1825": "Ġenjoyed", "1826": "Ġcho", "1827": "Ġnoticed", "1828": "Ġpur", "1829": "Ġdrive", "1830": "Ġset", "1831": "Ġlikes", "1832": "Ġpictures", "1833": "Ġcreat", "1834": "Ġfaste", "1835": "Ġride", "1836": "Ġheavy", "1837": "Ġcastl", "1838": "Ġcastle", "1839": "Ġalone", "1840": "Ġgif", "1841": "Ġgift", "1842": "Ġanyth", "1843": "Ġanythi", "1844": "Ġanythin", "1845": "Ġanything", "1846": "Ġspot", "1847": "Ġeno", "1848": "Ġhoppe", "1849": "Ġgrand", "1850": "Ġhopped", "1851": "Ġworl", "1852": "Ġworld", "1853": "Ġturns", "1854": "Ġyea", "1855": "Ġreali", "1856": "Ġyear", "1857": "Ġfur", "1858": "Ġhon", "1859": "Ġpen", "1860": "Ġmum", "1861": "Ġbott", "1862": "Ġpot", "1863": "Ġcau", "1864": "Ġarm", "1865": "Ġcheer", "1866": "Ġbreak", "1867": "Ġmix", "1868": "Ġbik", "1869": "Ġbike", "1870": "Ġtigh", "1871": "Ġtight", "1872": "Ġforgo", "1873": "Ġforgot", "1874": "Ġshoe", "1875": "Ġdes", "1876": "Ġeveryw", "1877": "Ġeverywh", "1878": "Ġeverywhe", "1879": "Ġeverywher", "1880": "Ġeverywhere", "1881": "Ġnos", "1882": "Ġlat", "1883": "Ġthrew", "1884": "Ġlate", "1885": "Ġhims", "1886": "Ġhimse", "1887": "Ġhimsel", "1888": "Ġhimself", "1889": "Ġwhis", "1890": "Ġfollowe", "1891": "Ġfollowed", "1892": "ĠBud", "1893": "ĠBudd", "1894": "ĠBuddy", "1895": "Ġrel", "1896": "?\"", "1897": "Ġsail", "1898": "Ġsav", "1899": "Ġsec", "1900": "Ġnap", "1901": "Ġkey", "1902": "Ġmil", "1903": "Ġwhit", "1904": "Ġwhite", "1905": "Ġwron", "1906": "Ġwrong", "1907": "Ġmakes", "1908": "Ġstran", "1909": "Ġhit", "1910": "Ġspla", "1911": "Ġsuc", "1912": "Ġstrang", "1913": "Ġstrange", "1914": "Ġpoi", "1915": "Ġchas", "1916": "Ġsplas", "1917": "Ġsplash", "1918": "Ġblac", "1919": "Ġblack", "1920": "Ġmons", "1921": "Ġmonst", "1922": "Ġmonste", "1923": "Ġmonster", "1924": "Ġdeep", "1925": "Ġhor", "1926": "Ġmusi", "1927": "Ġmusic", "1928": "Ġhone", "1929": "Ġdelic", "1930": "'t", "1931": "Ġfre", "1932": "Ġpare", "1933": "Ġparen", "1934": "Ġparent", "1935": "Ġdrop", "1936": "Ġston", "1937": "Ġstone", "1938": "Ġem", "1939": "Ġpoli", "1940": "Ġstep", "1941": "Ġchan", "1942": "Ġski", "1943": "Ġsid", "1944": "Ġside", "1945": "Ġroun", "1946": "Ġround", "1947": "Ġprinc", "1948": "Ġdanced", "1949": "Ġprince", "1950": "Ġvis", "1951": "Ġvisi", "1952": "Ġwants", "1953": "Ġleaf", "1954": "Ġvisit", "1955": "Ġbor", "1956": "Ġplane", "1957": "Ġundersta", "1958": "Ġunderstan", "1959": "Ġunderstand", "1960": "Ġbowl", "1961": "Ġbas", "1962": "Ġsmar", "1963": "Ġsmart", "1964": "Ġarr", "1965": "ĠMay", "1966": "Ġtalke", "1967": "Ġtalked", "1968": "Ġshoo", "1969": "Ġdry", "1970": "Ġfaster", "1971": "Ġcookies", "1972": "Ġben", "1973": "Ġbrou", "1974": "Ġbroug", "1975": "Ġbrough", "1976": "Ġbrought", "1977": "Ġsign", "1978": "Ġleg", "1979": "Ġfea", "1980": "ĠInsi", "1981": "ĠInsid", "1982": "ĠInside", "1983": "Ġworri", "1984": "Ġworrie", "1985": "Ġcoa", "1986": "Ġbite", "1987": "ĠBil", "1988": "ĠBill", "1989": "Ġfinishe", "1990": "Ġrocks", "1991": "Ġsomeo", "1992": "Ġsomeon", "1993": "Ġsomeone", "1994": "Ġpoin", "1995": "Ġpoint", "1996": "Ġtaste", "1997": "Ġrealiz", "1998": "Ġshari", "1999": "Ġsharin", "2000": "Ġsharing", "2001": "Ġfox", "2002": "Ġwell", "2003": "Ġshap", "2004": "Ġbutto", "2005": "Ġbutton", "2006": "ĠLila", "2007": "Ġshape", "2008": "Ġreall", "2009": "Ġmud", "2010": "Ġreally", "2011": "Ġfinished", "2012": "Ġking", "2013": "Ġora", "2014": "Ġoran", "2015": "Ġorang", "2016": "Ġorange", "2017": "Ġsis", "2018": "Ġdinn", "2019": "Ġdinne", "2020": "Ġdinner", "2021": "Ġrealize", "2022": "Ġtro", "2023": "Ġsist", "2024": "Ġsiste", "2025": "Ġsister", "2026": "Ġsave", "2027": "Ġflyi", "2028": "Ġflyin", "2029": "Ġflying", "2030": "Ġuni", "2031": "Ġconti", "2032": "Ġcontin", "2033": "Ġworried", "2034": "Ġcontinu", "2035": "Ġtod", "2036": "Ġbush", "2037": "Ġele", "2038": "Ġbeac", "2039": "Ġbeach", "2040": "Ġcontinue", "2041": "Ġsill", "2042": "ĠMayb", "2043": "ĠMaybe", "2044": "Ġsecr", "2045": "Ġsecre", "2046": "Ġsecret", "2047": "Ġchase", "2048": "Ġdang", "2049": "Wh", "2050": "Whe", "2051": "When", "2052": "Wha", "2053": "What", "2054": "ĠWhen", "2055": "Why", "2056": "Whi", "2057": "Whil", "2058": "While", "2059": "ĠWhat", "2060": "Ġlett", "2061": "ĠSarah", "2062": "Ġwash", "2063": "Ġdange", "2064": "Ġdanger", "2065": "Ġpan", "2066": "Ġfree", "2067": "Ġperfe", "2068": "Ġperfec", "2069": "Ġperfect", "2070": "Ġtoda", "2071": "Ġtoday", "2072": "Ġdrin", "2073": "Ġdrink", "2074": "Ġstri", "2075": "Ġmine", "2076": "Ġeveryt", "2077": "Ġriv", "2078": "Ġrive", "2079": "Ġriver", "2080": "Ġeveryth", "2081": "Ġeverythi", "2082": "Ġeverythin", "2083": "Ġeverything", "2084": "Ġsilly", "2085": "Ġpop", "2086": "Ġchildr", "2087": "Ġchildre", "2088": "Ġchildren", "2089": "Ġwagg", "2090": "ĠSoo", "2091": "ĠSoon", "2092": "Ġfiel", "2093": "Ġfield", "2094": "Ġfille", "2095": "Ġfilled", "2096": "Ġels", "2097": "Ġelse", "2098": "Ġsmiles", "2099": "Ġwelc", "2100": "Ġwelco", "2101": "Ġwelcom", "2102": "ĠAt", "2103": "Ġear", "2104": "Ġyes", "2105": "Ġcor", "2106": "Ġsang", "2107": "Ġsnac", "2108": "Ġsnack", "2109": "Ġpud", "2110": "Ġpudd", "2111": "Ġeati", "2112": "Ġeatin", "2113": "Ġeating", "2114": "Ġrealized", "2115": "Ġpieces", "2116": "Ġpromised", "2117": "Ġwelcome", "2118": "Ġpow", "2119": "Ġpuddl", "2120": "Ġpuddle", "2121": "Ġpig", "2122": "Ġowne", "2123": "Ġcontinued", "2124": "Ġpup", "2125": "Ġsoa", "2126": "Ġparents", "2127": "Ġcarefull", "2128": "Ġcarefully", "2129": "Ġbottl", "2130": "Ġbottle", "2131": "Ġhighe", "2132": "Ġpra", "2133": "Ġgrandm", "2134": "Ġjar", "2135": "Ġcow", "2136": "Ġblan", "2137": "Ġblank", "2138": "Ġdrag", "2139": "Ġthrow", "2140": "Ġsel", "2141": "Ġchang", "2142": "Ġrolle", "2143": "Ġmos", "2144": "Ġcryi", "2145": "Ġcryin", "2146": "Ġcrying", "2147": "Ġblanke", "2148": "Ġblanket", "2149": "Ġenou", "2150": "Ġenoug", "2151": "Ġenough", "2152": "Ġrolled", "2153": "Ġjui", "2154": "Ġjuic", "2155": "Ġsoup", "2156": "Ġmai", "2157": "Ġboun", "2158": "Ġshop", "2159": "Ġpurp", "2160": "Ġpoo", "2161": "Ġmail", "2162": "Ġsnak", "2163": "Ġsnake", "2164": "Ġbounc", "2165": "Ġpet", "2166": "Ġcrab", "2167": "Ġlaughi", "2168": "Ġlaughin", "2169": "Ġlaughing", "2170": "Ġfairy", "2171": "Ġchange", "2172": "Ġsol", "2173": "Ġwords", "2174": "Ġamazi", "2175": "Ġamazin", "2176": "Ġamazing", "2177": "Ġpurpl", "2178": "Ġpurple", "2179": "Ġowner", "2180": "Ġpeac", "2181": "Ġwitho", "2182": "Ġwithou", "2183": "Ġwithout", "2184": "Ġdoc", "2185": "Ġbelo", "2186": "Ġgrandma", "2187": "ĠBilly", "2188": "Ġci", "2189": "Ġpast", "2190": "Ġmone", "2191": "Ġmoney", "2192": "Ġrec", "2193": "Ġbrin", "2194": "Ġbring", "2195": "Ġbarke", "2196": "Ġbarked", "2197": "Ġwagge", "2198": "Ġwagged", "2199": "Ġatt", "2200": "Ġmonk", "2201": "Ġbrow", "2202": "Ġmonke", "2203": "Ġmonkey", "2204": "Ġdoct", "2205": "Ġdocto", "2206": "Ġdoctor", "2207": "Ġbrown", "2208": "Ġmoved", "2209": "Ġasks", "2210": "Ġtwin", "2211": "Ġgett", "2212": "Ġgetti", "2213": "Ġgettin", "2214": "Ġgetting", "2215": "Ġclosed", "2216": "Ġmorn", "2217": "Ġmorni", "2218": "Ġmornin", "2219": "Ġmorning", "2220": "Ġtreas", "2221": "Ġtreasu", "2222": "Ġtreasur", "2223": "Ġtreasure", "2224": "Ġsch", "2225": "Ġshini", "2226": "Ġcour", "2227": "Ġscho", "2228": "Ġcandy", "2229": "Ġschoo", "2230": "Ġschool", "2231": "Ġdrago", "2232": "Ġdragon", "2233": "Ġlone", "2234": "Ġlonel", "2235": "Ġmoth", "2236": "Ġgat", "2237": "Ġsmo", "2238": "Ġmothe", "2239": "Ġmother", "2240": "Ġhers", "2241": "Ġhigher", "2242": "Ġsitt", "2243": "Ġsitti", "2244": "Ġsittin", "2245": "Ġsitting", "2246": "Ġcoi", "2247": "Ġtie", "2248": "Ġdangero", "2249": "Ġdangerou", "2250": "Ġdangerous", "2251": "Ġlonely", "2252": "Ġshak", "2253": "Ġcoin", "2254": "Ġkic", "2255": "Ġkick", "2256": "Ġlivi", "2257": "Ġlivin", "2258": "Ġliving", "2259": "Ġapples", "2260": "Yo", "2261": "You", "2262": "ĠYou", "2263": "Ġshinin", "2264": "Ġshining", "2265": "Ġroad", "2266": "ĠTomm", "2267": "Ġwri", "2268": "ĠTommy", "2269": "Ġtrip", "2270": "Ġnose", "2271": "Ġpaw", "2272": "Ġpass", "2273": "Ġshoes", "2274": "Ġinte", "2275": "Ġtalki", "2276": "Ġtalkin", "2277": "Ġtalking", "2278": "Ġfan", "2279": "Ġcaug", "2280": "Ġcaugh", "2281": "Ġcaught", "2282": "Ġeg", "2283": "Ġegg", "2284": "Ġdisa", "2285": "Ġlak", "2286": "Ġlake", "2287": "Ġkite", "2288": "Ġruns", "2289": "Ġbuc", "2290": "Ġbuck", "2291": "Ġlette", "2292": "Ġletter", "2293": "Ġwings", "2294": "Ġlun", "2295": "Ġbask", "2296": "Ġbaske", "2297": "Ġbasket", "2298": "Ġheal", "2299": "Ġfarme", "2300": "Ġfarmer", "2301": "ĠSom", "2302": "ĠSome", "2303": "Ġthinks", "2304": "Ġstan", "2305": "Ġstand", "2306": "Ġdelici", "2307": "Ġdelicio", "2308": "Ġdeliciou", "2309": "Ġdelicious", "2310": "Ġcel", "2311": "ĠBl", "2312": "Ġtom", "2313": "ĠMim", "2314": "Ġshee", "2315": "Ġbeli", "2316": "ĠMimi", "2317": "Ġbelie", "2318": "Ġted", "2319": "Ġtedd", "2320": "Ġsam", "2321": "Ġsame", "2322": "Ġyears", "2323": "Ġfina", "2324": "Ġpupp", "2325": "Ġfinal", "2326": "Ġbeliev", "2327": "Ġteddy", "2328": "Ġlift", "2329": "Ġdea", "2330": "Ġfit", "2331": "Whis", "2332": "Ġcoat", "2333": "Ġsear", "2334": "Ġsearc", "2335": "Ġsearch", "2336": "Ġgentle", "2337": "Ġdays", "2338": "Ġups", "2339": "Ġfinall", "2340": "Ġfinally", "2341": "Ġwhist", "2342": "Ġwhistl", "2343": "Ġcray", "2344": "Ġcrayo", "2345": "Ġcrayon", "2346": "Ġeas", "2347": "Ġbelieve", "2348": "Ġscrea", "2349": "Ġscream", "2350": "Ġheart", "2351": "Ġpill", "2352": "Ġdropp", "2353": "Ġvil", "2354": "Ġvill", "2355": "Ġvilla", "2356": "Ġsingi", "2357": "Ġsingin", "2358": "Ġsinging", "2359": "Ġtrou", "2360": "Ġtasty", "2361": "Ġph", "2362": "Ġinc", "2363": "Ġtroub", "2364": "Ġtroubl", "2365": "Ġvillag", "2366": "Ġvillage", "2367": "Ġloc", "2368": "Ġshell", "2369": "Ġherse", "2370": "Ġhersel", "2371": "Ġherself", "2372": "Ġtrouble", "2373": "Ġhoped", "2374": "Ġans", "2375": "Ġansw", "2376": "Ġanswe", "2377": "Ġanswer", "2378": "Ġlas", "2379": "Ġwore", "2380": "Ġswings", "2381": "Ġpho", "2382": "Ġkis", "2383": "Ġkiss", "2384": "Ġbelon", "2385": "Ġbelong", "2386": "Ġwrit", "2387": "Ġlock", "2388": "Ġcarro", "2389": "Ġrop", "2390": "Ġcarrot", "2391": "Ġrope", "2392": "Ġarri", "2393": "Ġarriv", "2394": "Ġcard", "2395": "Ġwok", "2396": "Ġwoke", "2397": "Ġnau", "2398": "Ġnaug", "2399": "Ġnaugh", "2400": "Ġnaught", "2401": "Ġash", "2402": "Ġnaughty", "2403": "Ġelep", "2404": "Ġeleph", "2405": "Ġelepha", "2406": "Ġelephan", "2407": "Ġelephant", "2408": "Ġdroppe", "2409": "Ġdropped", "2410": "Ġarrive", "2411": "Whisk", "2412": "Whiske", "2413": "Ġbell", "2414": "Whisker", "2415": "Whiskers", "2416": "Ġpile", "2417": "Ġcoll", "2418": "Ġteache", "2419": "Ġwei", "2420": "Ġspin", "2421": "Ġsac", "2422": "Ġpowe", "2423": "Ġpower", "2424": "Ġsack", "2425": "Ġhidi", "2426": "Ġhidin", "2427": "Ġhiding", "2428": "Ġrob", "2429": "Ġkitt", "2430": "Ġpuppy", "2431": "Ġseem", "2432": "Ġtouche", "2433": "Ġlunc", "2434": "Ġlunch", "2435": "Ġpers", "2436": "Ġtwins", "2437": "Ġrub", "2438": "Ġbenc", "2439": "Ġbench", "2440": "Ġbur", "2441": "Ġhors", "2442": "Ġhorse", "2443": "Ġcours", "2444": "Ġcourse", "2445": "Ġnec", "2446": "Ġcheere", "2447": "Ġcheered", "2448": "Ġshapes", "2449": "Ġspoo", "2450": "Ġgrew", "2451": "Ġjuice", "2452": "Ġrainb", "2453": "Ġrainbo", "2454": "Ġrainbow", "2455": "Ġob", "2456": "Ġshook", "2457": "Ġric", "2458": "Ġchees", "2459": "Ġspoon", "2460": "Ġcute", "2461": "Ġfen", "2462": "Ġfenc", "2463": "Ġstree", "2464": "Ġstreet", "2465": "Ġfence", "2466": "Ġwhistle", "2467": "Ġnut", "2468": "Ġcheese", "2469": "Ġpati", "2470": "Ġprob", "2471": "Ġpatie", "2472": "Ġpatien", "2473": "Ġtouched", "2474": "Ġwand", "2475": "Ġjoy", "2476": "ĠWhiskers", "2477": "Ġluc", "2478": "Ġarrived", "2479": "Ġseed", "2480": "Ġluck", "2481": "Ġteacher", "2482": "Ġcorn", "2483": "Ġstea", "2484": "Ġig", "2485": "ĠBlu", "2486": "Ġabl", "2487": "Ġbon", "2488": "Ġforev", "2489": "Ġforeve", "2490": "Ġforever", "2491": "Ġable", "2492": "Ġpac", "2493": "Ġfew", "2494": "Ġcarry", "2495": "Ġmost", "2496": "Ġinst", "2497": "ĠBlue", "2498": "Ġmist", "2499": "Ġsud", "2500": "Ġexpe", "2501": "Ġamaze", "2502": "Ġsounds", "2503": "Ġsudd", "2504": "Ġsudde", "2505": "Ġsudden", "2506": "Ġbirt", "2507": "Ġbirth", "2508": "Ġprobl", "2509": "Ġproble", "2510": "Ġproblem", "2511": "Ġshad", "2512": "Ġbirthd", "2513": "Ġbirthda", "2514": "Ġbirthday", "2515": "Ġpack", "2516": "Ġneck", "2517": "Ġtap", "2518": "Ġval", "2519": "Ġbugs", "2520": "Ġwonderf", "2521": "Ġwonderfu", "2522": "Ġwonderful", "2523": "Ġnum", "2524": "Ġnumb", "2525": "Ġnumbe", "2526": "Ġnumber", "2527": "Ġdolls", "2528": "Ġbusy", "2529": "Ġbone", "2530": "Ġwra", "2531": "Ġwrap", "2532": "Ġbounce", "2533": "ĠThan", "2534": "ĠThank", "2535": "Ġmay", "2536": "Ġfeels", "2537": "Ġyours", "2538": "Ġyoun", "2539": "Ġyoung", "2540": "Ġbread", "2541": "Ġmilk", "2542": "Ġsup", "2543": "Ġrobo", "2544": "Ġrobot", "2545": "Ġshake", "2546": "Ġshy", "2547": "Ġtowa", "2548": "Ġtowar", "2549": "Ġtoward", "2550": "Ġcav", "2551": "Ġpres", "2552": "Ġcave", "2553": "Ġband", "2554": "Ġmys", "2555": "Ġinv", "2556": "Ġpoc", "2557": "Ġpock", "2558": "Ġpocke", "2559": "Ġpocket", "2560": "Ġmod", "2561": "Ġmode", "2562": "Ġhelpf", "2563": "Ġhelpfu", "2564": "Ġhelpful", "2565": "ĠBel", "2566": "Ġslowl", "2567": "Ġslowly", "2568": "Ġreli", "2569": "Ġprint", "2570": "Ġstorm", "2571": "Ġpatient", "2572": "Ġlin", "2573": "Ġstrin", "2574": "Ġstring", "2575": "Ġtric", "2576": "Ġug", "2577": "Ġugl", "2578": "Ġline", "2579": "Ġplat", "2580": "Ġholdi", "2581": "Ġholdin", "2582": "Ġholding", "2583": "ĠBell", "2584": "Ġconf", "2585": "Ġspar", "2586": "Ġugly", "2587": "Ġtowards", "2588": "Ġshr", "2589": "Ġmatc", "2590": "Ġmatch", "2591": "Ġnote", "2592": "Ġupse", "2593": "Ġupset", "2594": "Ġturt", "2595": "Ġturtl", "2596": "Ġturtle", "2597": "Ġsqua", "2598": "Ġcov", "2599": "Ġcove", "2600": "Ġsco", "2601": "Ġmel", "2602": "Ġstori", "2603": "Ġprinces", "2604": "Ġcover", "2605": "Ġmark", "2606": "Ġplate", "2607": "Ġkitte", "2608": "Ġkitten", "2609": "Ġsharp", "2610": "Ġdisap", "2611": "Ġdisapp", "2612": "Ġbak", "2613": "Ġprincess", "2614": "Ġstorie", "2615": "Ġstories", "2616": "Ġmovi", "2617": "Ġreco", "2618": "Ġhoney", "2619": "Ġjok", "2620": "Ġtrick", "2621": "ĠBella", "2622": "Ġspark", "2623": "Ġseat", "2624": "Ġnoises", "2625": "Ġcir", "2626": "Ġballs", "2627": "Ġsucc", "2628": "Ġcirc", "2629": "Ġimpr", "2630": "Ġsucce", "2631": "Ġclu", "2632": "Ġgray", "2633": "Ġdist", "2634": "Ġdriver", "2635": "Ġmee", "2636": "ĠLis", "2637": "Ġseek", "2638": "ĠF", "2639": "ĠFr", "2640": "ĠFro", "2641": "ĠFrom", "2642": "ĠFl", "2643": "ĠFlu", "2644": "ĠFluf", "2645": "ĠFluff", "2646": "ĠFluffy", "2647": "ĠFi", "2648": "ĠFin", "2649": "ĠFre", "2650": "ĠFred", "2651": "Ġbucke", "2652": "Ġmatt", "2653": "Ġbucket", "2654": "Ġmeet", "2655": "Ġmagica", "2656": "Ġmagical", "2657": "Ġgui", "2658": "Ġamazed", "2659": "Ġspid", "2660": "Ġspide", "2661": "Ġspider", "2662": "Ġwid", "2663": "Ġtreats", "2664": "Ġwide", "2665": "Ġglow", "2666": "Ġlem", "2667": "Ġlemo", "2668": "Ġlemon", "2669": "Ġsandw", "2670": "Ġsandwi", "2671": "Ġsandwic", "2672": "Ġsandwich", "2673": "Ġmac", "2674": "Ġrin", "2675": "ĠJ", "2676": "ĠJa", "2677": "ĠJo", "2678": "ĠJac", "2679": "ĠJack", "2680": "ĠJan", "2681": "ĠJane", "2682": "ĠJe", "2683": "ĠJi", "2684": "ĠJoh", "2685": "ĠJohn", "2686": "ĠJoe", "2687": "ĠJu", "2688": "ĠJen", "2689": "Ġcomf", "2690": "Ġhang", "2691": "Ġspic", "2692": "Ġmoo", "2693": "Ġfat", "2694": "Ġjou", "2695": "Ġjour", "2696": "Ġjourn", "2697": "Ġwrite", "2698": "Ġfold", "2699": "Ġgol", "2700": "Ġmach", "2701": "Ġmachi", "2702": "Ġmachin", "2703": "Ġmachine", "2704": "Ġsigh", "2705": "Ġsnowm", "2706": "Ġpuz", "2707": "Ġpuzz", "2708": "Ġpuzzl", "2709": "Ġpuzzle", "2710": "Ġspen", "2711": "Ġima", "2712": "Ġimag", "2713": "Ġcele", "2714": "Ġhos", "2715": "Ġsal", "2716": "ĠTin", "2717": "Ġorg", "2718": "Ġorga", "2719": "Ġorgan", "2720": "Ġwild", "2721": "Ġorgani", "2722": "Ġroar", "2723": "Ġflu", "2724": "Ġmixe", "2725": "Ġtid", "2726": "Ġwhee", "2727": "Ġhugs", "2728": "ĠMark", "2729": "Ġtaki", "2730": "Ġtakin", "2731": "Ġtaking", "2732": "Ġhoo", "2733": "Ġwheel", "2734": "Ġorganiz", "2735": "Ġpou", "2736": "ĠLisa", "2737": "Ġsug", "2738": "Ġinste", "2739": "Ġinstea", "2740": "Ġinstead", "2741": "Ġrud", "2742": "Ġbub", "2743": "Ġbubb", "2744": "Ġbubbl", "2745": "Ġrude", "2746": "Ġmarc", "2747": "Ġmarch", "2748": "ĠJim", "2749": "Ġnet", "2750": "Ġdrov", "2751": "Ġdrove", "2752": "Ġjoke", "2753": "Ġring", "2754": "Ġgru", "2755": "Ġhuge", "2756": "Ġstars", "2757": "Ġfighti", "2758": "Ġfightin", "2759": "Ġfighting", "2760": "Ġspicy", "2761": "Ġact", "2762": "Ġlucky", "2763": "Ġten", "2764": "Ġcraw", "2765": "Ġcrawl", "2766": "Hey", "2767": "Ġsne", "2768": "Ġslip", "2769": "Ġoa", "2770": "Ġforge", "2771": "Ġforget", "2772": "Ġcann", "2773": "Ġcanno", "2774": "Ġcircl", "2775": "ĠFina", "2776": "Ġfixe", "2777": "Ġcircle", "2778": "Ġgrum", "2779": "ĠFinal", "2780": "ĠFinall", "2781": "ĠFinally", "2782": "Ġsoc", "2783": "Ġinvi", "2784": "Ġcannot", "2785": "Ġord", "2786": "Ġsic", "2787": "Ġsick", "2788": "Ġpath", "2789": "Ġmisse", "2790": "Ġdish", "2791": "Ġbubble", "2792": "Ġlife", "2793": "Ġlic", "2794": "Ġdrawi", "2795": "Ġdrawin", "2796": "Ġdrawing", "2797": "Ġfoot", "2798": "Ġsnowma", "2799": "Ġsnowman", "2800": "Ġsongs", "2801": "Ġpillo", "2802": "Ġpillow", "2803": "Ġinvit", "2804": "Ġmoon", "2805": "ĠJus", "2806": "ĠJust", "2807": "Ġcart", "2808": "Ġfra", "2809": "Ġknee", "2810": "Ġfixed", "2811": "Ġgia", "2812": "Ġgian", "2813": "Ġgiant", "2814": "Ġgrump", "2815": "Ġbos", "2816": "Ġboss", "2817": "Ġcomfo", "2818": "Ġcomfor", "2819": "Ġcomfort", "2820": "Ġlast", "2821": "Ġcomes", "2822": "Ġknoc", "2823": "Ġknock", "2824": "Ġconfu", "2825": "Ġconfus", "2826": "Ġgrumpy", "2827": "Ġinter", "2828": "ĠLeo", "2829": "Ġcab", "2830": "Ġtwis", "2831": "Ġtwist", "2832": "Ġdadd", "2833": "Ġstepp", "2834": "Ġser", "2835": "Ġacc", "2836": "Ġpeace", "2837": "Ġches", "2838": "Ġsmoo", "2839": "Ġdaddy", "2840": "ĠOn", "2841": "Ġsmoot", "2842": "Ġsmooth", "2843": "Ġshelf", "2844": "Ġhidd", "2845": "Ġhidde", "2846": "Ġhidden", "2847": "Ġorganize", "2848": "Ġself", "2849": "Ġpal", "2850": "Ġsuddenl", "2851": "Ġsuddenly", "2852": "Ġconfuse", "2853": "Ġwasn", "2854": "Ġlande", "2855": "Ġlanded", "2856": "Ġconfused", "2857": "Ġgoa", "2858": "Ġworm", "2859": ",\"", "2860": "Ġsour", "2861": "Ġintere", "2862": "Ġinteres", "2863": "Ġinterest", "2864": "Ġchased", "2865": "Ġfruits", "2866": "Ġkni", "2867": "Ġmyst", "2868": "ĠJil", "2869": "ĠJill", "2870": "Ġmyste", "2871": "Ġmyster", "2872": "Ġdisc", "2873": "Ġcreati", "2874": "Ġrad", "2875": "Ġradi", "2876": "Ġadventures", "2877": "Ġrocke", "2878": "Ġsteppe", "2879": "Ġstepped", "2880": "ĠLun", "2881": "Ġoven", "2882": "Ġvalu", "2883": "Ġtakes", "2884": "Ġmissed", "2885": "Ġacr", "2886": "Ġanc", "2887": "Ġacro", "2888": "Ġselfi", "2889": "Ġselfis", "2890": "Ġselfish", "2891": "Ġsau", "2892": "Ġadd", "2893": "Ġsheep", "2894": "Ġmessy", "2895": "Ġgrat", "2896": "Ġacros", "2897": "Ġacross", "2898": "Ġpainte", "2899": "Ġbru", "2900": "Ġent", "2901": "Ġlater", "2902": "Ġbake", "2903": "Ġsticks", "2904": "Ġboug", "2905": "Ġbough", "2906": "ĠLuna", "2907": "Ġbought", "2908": "Ġstat", "2909": "Hi", "2910": "His", "2911": "ĠHis", "2912": "Ġdrew", "2913": "Ġlay", "2914": "Ġgrate", "2915": "Ġpour", "2916": "Ġphon", "2917": "Ġphone", "2918": "Ġbeak", "2919": "Ġskip", "2920": "Ġjog", "2921": "Ġemp", "2922": "ĠMol", "2923": "Ġappe", "2924": "Ġgratef", "2925": "Ġgratefu", "2926": "Ġgrateful", "2927": "Ġducks", "2928": "Ġlegs", "2929": "Ġempt", "2930": "Ġfeat", "2931": "Ġdig", "2932": "Ġnei", "2933": "Ġbul", "2934": "Ġspra", "2935": "Ġunc", "2936": "Ġdru", "2937": "Ġappea", "2938": "Ġempty", "2939": "Ġappear", "2940": "Ġhealt", "2941": "Ġhealth", "2942": "Ġfeath", "2943": "Ġfeathe", "2944": "Ġfeather", "2945": "Ġenv", "2946": "Ġshir", "2947": "Ġshirt", "2948": "Ġsleepy", "2949": "Ġdrum", "2950": "Ġber", "2951": "Ġbathr", "2952": "Ġbathro", "2953": "Ġberr", "2954": "Ġshor", "2955": "Ġfing", "2956": "Ġfinge", "2957": "Ġfinger", "2958": "Ġforgi", "2959": "Ġforgiv", "2960": "Ġclev", "2961": "Ġcleve", "2962": "Ġclever", "2963": "ĠMoll", "2964": "Ġbrus", "2965": "Ġbrush", "2966": "Ġau", "2967": "Ġresp", "2968": "Ġwol", "2969": "Ġincr", "2970": "Ġincre", "2971": "Ġdia", "2972": "ĠMolly", "2973": "Ġsmelly", "2974": "Ġinteresti", "2975": "Ġinterestin", "2976": "Ġinteresting", "2977": "Ġspoi", "2978": "Ġspoil", "2979": "Ġchic", "2980": "Ġchick", "2981": "Ġcalm", "2982": "Ġmed", "2983": "Ġwatchi", "2984": "Ġwatchin", "2985": "Ġwatching", "2986": "Ġign", "2987": "Ġlonge", "2988": "Ġclouds", "2989": "Ġbana", "2990": "Ġbanan", "2991": "Ġbanana", "2992": "Ġfaces", "2993": "Wher", "2994": "Where", "2995": "Ġigno", "2996": "Ġignor", "2997": "Ġbacky", "2998": "Ġbackya", "2999": "Ġbackyar", "3000": "Ġbackyard", "3001": "Ġwolf", "3002": "Ġfanc", "3003": "Ġseeme", "3004": "Ġseemed", "3005": "Ġdogs", "3006": "Ġspray", "3007": "Ġprot", "3008": "Ġprote", "3009": "Ġwhol", "3010": "Ġwhole", "3011": "Ġsock", "3012": "Ġfancy", "3013": "Ġexpla", "3014": "Ġbuildi", "3015": "Ġbuildin", "3016": "Ġbuilding", "3017": "Ġtun", "3018": "Ġsupp", "3019": "Ġarms", "3020": "Ġprotec", "3021": "Ġprotect", "3022": "Ġhealthy", "3023": "Ġalong", "3024": "Ġrocket", "3025": "Ġstoo", "3026": "Ġexplai", "3027": "Ġexplain", "3028": "Ġrod", "3029": "Ġforgive", "3030": "Ġjew", "3031": "Ġjewe", "3032": "Ġjewel", "3033": "Ġeasy", "3034": "ĠBun", "3035": "Ġoc", "3036": "Ġjel", "3037": "Ġjell", "3038": "Ġmas", "3039": "Ġprac", "3040": "Ġpract", "3041": "Ġpracti", "3042": "Ġsplashe", "3043": "ĠJer", "3044": "Ġjelly", "3045": "Ġfak", "3046": "Ġfake", "3047": "Ġcrayons", "3048": "Ġwondere", "3049": "Ġwondered", "3050": "Ġmayb", "3051": "Ġmaybe", "3052": "Ġship", "3053": "Ġnoth", "3054": "Ġnothi", "3055": "Ġnothin", "3056": "Ġnothing", "3057": "Ġemb", "3058": "We", "3059": "ĠWe", "3060": "Ġpool", "3061": "Ġlonger", "3062": "Ġchu", "3063": "Ġsuns", "3064": "Ġanyo", "3065": "Ġanyon", "3066": "Ġanyone", "3067": "Ġmic", "3068": "Ġfron", "3069": "ĠJerr", "3070": "ĠJerry", "3071": "Ġfront", "3072": "Ġworki", "3073": "Ġworkin", "3074": "Ġworking", "3075": "Ġneig", "3076": "Ġneigh", "3077": "Ġcompl", "3078": "Ġmeas", "3079": "Ġmeasu", "3080": "Ġmeasur", "3081": "Ġgives", "3082": "ĠBunn", "3083": "Ġtear", "3084": "Ġsuch", "3085": "ĠBunny", "3086": "Ġimagi", "3087": "Ġimagin", "3088": "Ġbossy", "3089": "Ġfear", "3090": "Ġcap", "3091": "Ġsmelle", "3092": "Ġsmelled", "3093": "Ġsaved", "3094": "Ġsort", "3095": "Ġbreat", "3096": "Ġbreath", "3097": "Ġpractic", "3098": "Ġemba", "3099": "Ġembar", "3100": "Ġes", "3101": "Ġhones", "3102": "Ġhonest", "3103": "Ġav", "3104": "Ġembarr", "3105": "Ġembarra", "3106": "Ġembarras", "3107": "Ġembarrass", "3108": "Ġvan", "3109": "Ġcleane", "3110": "Ġtidy", "3111": "Ġweak", "3112": "Ġputs", "3113": "Ġmind", "3114": "Ġneighb", "3115": "Ġneighbo", "3116": "Ġplants", "3117": "Ġcoz", "3118": "Ġjun", "3119": "ĠMomo", "3120": "Ġcros", "3121": "Ġcross", "3122": "Ġgently", "3123": "Ġcozy", "3124": "Ġcrow", "3125": "Ġmista", "3126": "Ġmistak", "3127": "Ġmistake", "3128": "Ġlar", "3129": "Ġpee", "3130": "Ġlarg", "3131": "Ġlarge", "3132": "Ġwee", "3133": "Ġpointe", "3134": "Ġyog", "3135": "Ġbrid", "3136": "Ġspea", "3137": "Ġhal", "3138": "Ġpointed", "3139": "Ġstood", "3140": "Ġont", "3141": "Ġonto", "3142": "Ġjumpi", "3143": "Ġwaiti", "3144": "Ġwaitin", "3145": "Ġwaiting", "3146": "Ġjumpin", "3147": "Ġjumping", "3148": "ĠD", "3149": "ĠDa", "3150": "ĠDo", "3151": "ĠDad", "3152": "ĠDai", "3153": "ĠDais", "3154": "ĠDaisy", "3155": "ĠDog", "3156": "ĠDadd", "3157": "ĠDaddy", "3158": "ĠDogg", "3159": "ĠDoggy", "3160": "ĠWhy", "3161": "ĠMary", "3162": "Ġlovel", "3163": "Ġshri", "3164": "Ġrubb", "3165": "Ġchicke", "3166": "Ġchicken", "3167": "Ġlovely", "3168": "Ġswimm", "3169": "Ġcouc", "3170": "Ġcouch", "3171": "Ġsparkl", "3172": "Ġladd", "3173": "Ġladde", "3174": "Ġladder", "3175": "Ġret", "3176": "Ġdeer", "3177": "Ġchew", "3178": "Ġrich", "3179": "ĠBr", "3180": "Ġstret", "3181": "Ġstretc", "3182": "Ġstretch", "3183": "ĠThei", "3184": "ĠTheir", "3185": "Ġcolle", "3186": "Ġplaces", "3187": "ĠMy", "3188": "Ġcollec", "3189": "Ġcollect", "3190": "Ġretu", "3191": "Ġretur", "3192": "Ġreturn", "3193": "Ġbala", "3194": "Ġbalan", "3195": "Ġbalanc", "3196": "Ġants", "3197": "Ġbridg", "3198": "Ġbridge", "3199": "Ġstir", "3200": "Ġafr", "3201": "Ġafra", "3202": "Ġafrai", "3203": "Ġafraid", "3204": "Ġcleaned", "3205": "Ġtomo", "3206": "Ġtomor", "3207": "Ġtomorr", "3208": "Ġtomorro", "3209": "Ġtomorrow", "3210": "Ġperso", "3211": "Ġperson", "3212": "Ġteas", "3213": "Ġcreativ", "3214": "Ġpretende", "3215": "Ġpretended", "3216": "ĠBir", "3217": "Ġwip", "3218": "ĠMan", "3219": "Ġhum", "3220": "Ġslipp", "3221": "Ġtee", "3222": "Ġgath", "3223": "Ġgathe", "3224": "Ġgather", "3225": "Ġpiz", "3226": "Ġpizz", "3227": "Ġdau", "3228": "Ġpizza", "3229": "Ġbori", "3230": "Ġborin", "3231": "Ġboring", "3232": "Ġdaug", "3233": "Ġdaugh", "3234": "Ġdaught", "3235": "Ġdaughte", "3236": "Ġdaughter", "3237": "Ġwom", "3238": "Ġteet", "3239": "ĠSomet", "3240": "Ġteeth", "3241": "Ġwoma", "3242": "Ġwoman", "3243": "ĠLo", "3244": "Ġscarf", "3245": "Ġgoe", "3246": "Ġfurr", "3247": "Ġgoes", "3248": "ĠTog", "3249": "ĠToge", "3250": "ĠToget", "3251": "ĠTogeth", "3252": "ĠTogethe", "3253": "ĠTogether", "3254": "Ġref", "3255": "Ġlaw", "3256": "Ġlaz", "3257": "Ġswimmi", "3258": "Ġswimmin", "3259": "Ġswimming", "3260": "Ġfurry", "3261": "Ġsplashed", "3262": "Ġloves", "3263": "Ġtrue", "3264": "Ġscreame", "3265": "Ġscreamed", "3266": "ĠDu", "3267": "Ġlazy", "3268": "Ġpractice", "3269": "Ġeag", "3270": "Ġasha", "3271": "Ġasham", "3272": "Ġashame", "3273": "Ġashamed", "3274": "ĠSt", "3275": "ĠBea", "3276": "Ġmoto", "3277": "Ġmotor", "3278": "Ġappeare", "3279": "Ġappeared", "3280": "Ġnearb", "3281": "Ġnearby", "3282": "Ġpowerf", "3283": "Ġpowerfu", "3284": "Ġpowerful", "3285": "Ġcone", "3286": "Ġflag", "3287": "Ġclow", "3288": "Ġclown", "3289": "Ġinvite", "3290": "Ġsolv", "3291": "Ġclear", "3292": "Ġpolit", "3293": "Ġpolite", "3294": "Ġsucces", "3295": "Ġsuccess", "3296": "Ġbloo", "3297": "Ġtub", "3298": "ĠTV", "3299": "Ġchoc", "3300": "Ġchoco", "3301": "Ġrespe", "3302": "Ġrespec", "3303": "Ġrespect", "3304": "Ġchocol", "3305": "Ġchocola", "3306": "Ġchocolat", "3307": "Ġcarri", "3308": "Ġchocolate", "3309": "Ġslippe", "3310": "ĠIf", "3311": "Ġcreative", "3312": "Ġbeco", "3313": "Ġbecom", "3314": "Ġweari", "3315": "Ġtrus", "3316": "Ġtrust", "3317": "Ġwearin", "3318": "Ġwearing", "3319": "âĢ", "3320": "âĢĿ", "3321": "âĢľ", "3322": "ĠâĢľ", "3323": "âĢĻ", "3324": ".âĢĿ", "3325": "!âĢĿ", "3326": "?âĢĿ", "3327": "Ġmeasure", "3328": "Ġmatte", "3329": "Ġnoisy", "3330": "Ġmatter", "3331": "Ġpok", "3332": "No", "3333": "Now", "3334": "ĠNow", "3335": "Ġcarrie", "3336": "Who", "3337": "Ġlick", "3338": "Ġsen", "3339": "Ġhell", "3340": "Ġhello", "3341": "Ġner", "3342": "Ġtool", "3343": "Ġwipe", "3344": "Ġnerv", "3345": "ĠBird", "3346": "Ġnervo", "3347": "Ġnervou", "3348": "Ġnervous", "3349": "Ġmir", "3350": "Ġclas", "3351": "Ġswo", "3352": "ĠBobb", "3353": "Ġtes", "3354": "Ġtest", "3355": "Ġsmili", "3356": "Ġsmilin", "3357": "Ġsmiling", "3358": "Ġsold", "3359": "Ġstru", "3360": "Ġclass", "3361": "Ġglu", "3362": "Ġtape", "3363": "ĠTr", "3364": "Ġstud", "3365": "Ġglue", "3366": "Ġmap", "3367": "Ġdran", "3368": "Ġdrank", "3369": "Ġtries", "3370": "Ġmarr", "3371": "Ġmysteri", "3372": "Ġsolve", "3373": "ĠDuc", "3374": "Ġsci", "3375": "ĠDuck", "3376": "Ġimpre", "3377": "Ġimpres", "3378": "Ġimpress", "3379": "Ġlam", "3380": "Ġdino", "3381": "Ġwhal", "3382": "Ġwhale", "3383": "Ġgene", "3384": "Ġdinos", "3385": "Ġgener", "3386": "Ġdinosa", "3387": "Ġdinosau", "3388": "Ġdinosaur", "3389": "Ġmirr", "3390": "Ġmirro", "3391": "Ġmirror", "3392": "Ġpeacef", "3393": "Ġpeacefu", "3394": "Ġpeaceful", "3395": "ĠBobby", "3396": "Ġgate", "3397": "ĠTiny", "3398": "Ġshine", "3399": "Ġballoons", "3400": "Ġgold", "3401": "Ġrar", "3402": "Ġrare", "3403": "Ġcounte", "3404": "Ġgue", "3405": "Ġgues", "3406": "Ġdisco", "3407": "Ġcarried", "3408": "Ġgenero", "3409": "Ġshado", "3410": "Ġshadow", "3411": "Ġcub", "3412": "ĠDon", "3413": "Ġgun", "3414": "Ġexpen", "3415": "Ġexpens", "3416": "Ġbald", "3417": "Ġtrac", "3418": "Ġglas", "3419": "Ġglass", "3420": "Ġexpensi", "3421": "Ġexpensiv", "3422": "Ġexpensive", "3423": "Ġreg", "3424": "Ġhero", "3425": "Ġspri", "3426": "Ġmysterio", "3427": "Ġmysteriou", "3428": "Ġmysterious", "3429": "Ġpum", "3430": "Ġpump", "3431": "Ye", "3432": "Yes", "3433": "Ġsprin", "3434": "Ġsnee", "3435": "Ġdiz", "3436": "Ġdizz", "3437": "Ġbalance", "3438": "Ġrubbe", "3439": "Ġicy", "3440": "Ġweir", "3441": "Ġweird", "3442": "Ġsneez", "3443": "Ġblow", "3444": "Ġka", "3445": "Ġsoap", "3446": "Ġpoor", "3447": "Ġthes", "3448": "Ġthese", "3449": "Ġtowel", "3450": "Ġfort", "3451": "Ca", "3452": "Can", "3453": "ĠCan", "3454": "ĠCa", "3455": "ĠCat", "3456": "Ġexa", "3457": "Ġdista", "3458": "Ġdistan", "3459": "Ġboot", "3460": "Ġlose", "3461": "Ġfeet", "3462": "Ġdizzy", "3463": "ĠBenn", "3464": "Ġgenerou", "3465": "Ġgenerous", "3466": "ĠBenny", "3467": "Help", "3468": "Ġdiscov", "3469": "Ġdiscove", "3470": "Ġdiscover", "3471": "Ġcop", "3472": "Ġpicn", "3473": "Ġpicni", "3474": "Ġpicnic", "3475": "Ġmissi", "3476": "Ġsuga", "3477": "Ġsugar", "3478": "Ġsque", "3479": "Ġlead", "3480": "Ġmicr", "3481": "Ġmicro", "3482": "ĠBear", "3483": "Ġembarrasse", "3484": "Ġembarrassed", "3485": "Ġjourne", "3486": "Ġjourney", "3487": "ĠE", "3488": "ĠEv", "3489": "ĠEve", "3490": "ĠEver", "3491": "ĠEvery", "3492": "ĠEveryo", "3493": "ĠEveryon", "3494": "ĠEveryone", "3495": "ĠEm", "3496": "ĠEmm", "3497": "ĠEl", "3498": "ĠEmma", "3499": "ĠEll", "3500": "Ġtic", "3501": "Ġtele", "3502": "Ġtick", "3503": "Ġtent", "3504": "Ġcorne", "3505": "Ġcorner", "3506": "Ġscis", "3507": "Ġsciss", "3508": "Ġscisso", "3509": "Ġscissor", "3510": "ĠNo", "3511": "Ġpumpk", "3512": "Ġpumpki", "3513": "Ġpumpkin", "3514": "Ġscissors", "3515": "Ġtasted", "3516": "Ġyelle", "3517": "Ġyelled", "3518": "Ġroug", "3519": "Ġrough", "3520": "Ġbecome", "3521": "Ġeage", "3522": "Ġeager", "3523": "Ġdanci", "3524": "Ġdancin", "3525": "Ġdancing", "3526": "Ġcag", "3527": "Ġcage", "3528": "Ġdeco", "3529": "Ġhurr", "3530": "Ġdecor", "3531": "Ġdecora", "3532": "Ġdecorat", "3533": "Ġcloset", "3534": "Ġcrown", "3535": "Ġvas", "3536": "Ġmarke", "3537": "Ġveg", "3538": "ĠSometi", "3539": "ĠSometim", "3540": "ĠSometime", "3541": "ĠSometimes", "3542": "Ġlamp", "3543": "Ġvase", "3544": "Ġgig", "3545": "Ġrelie", "3546": "Ġeld", "3547": "Ġelde", "3548": "Ġmoun", "3549": "Ġceleb", "3550": "Ġcelebr", "3551": "Ġgigg", "3552": "Ġgiggl", "3553": "Ġwhisp", "3554": "Ġwhispe", "3555": "Ġwhisper", "3556": "Ġcelebra", "3557": "Ġcelebrat", "3558": "Ġlog", "3559": "Ġnor", "3560": "Ġelder", "3561": "Ġpainted", "3562": "ĠDucky", "3563": "Ġpay", "3564": "Ġberri", "3565": "Ġberrie", "3566": "Ġberries", "3567": "Ġmixed", "3568": "Ġthu", "3569": "Ġspre", "3570": "Ġwouldn", "3571": "Ġsprea", "3572": "Ġspread", "3573": "Ġros", "3574": "Ġmount", "3575": "Ġmounta", "3576": "Ġmountai", "3577": "Ġmountain", "3578": "Ġadm", "3579": "Ġadmi", "3580": "Ġkicke", "3581": "Ġfamo", "3582": "Ġfamou", "3583": "Ġfamous", "3584": "Ġknocke", "3585": "ĠMu", "3586": "Ġknocked", "3587": "Ġbean", "3588": "Ġrose", "3589": "Ġvege", "3590": "Ġveget", "3591": "Ġvegeta", "3592": "Ġburn", "3593": "Ġnorm", "3594": "Ġnorma", "3595": "Ġnormal", "3596": "Ġdisappe", "3597": "Ġdisappea", "3598": "Ġdisappear", "3599": "Ġvegetab", "3600": "Ġvegetabl", "3601": "Ġvegetable", "3602": "Ġkicked", "3603": "Ġcloc", "3604": "Ġclock", "3605": "Ġshark", "3606": "Ġevent", "3607": "Ġincred", "3608": "Ġincredi", "3609": "Ġincredib", "3610": "Ġincredibl", "3611": "Ġwak", "3612": "Ġthic", "3613": "Ġthick", "3614": "Ġfine", "3615": "Ġgroup", "3616": "Ġscoo", "3617": "Ġchea", "3618": "Ġesc", "3619": "Ġteam", "3620": "Ġesca", "3621": "Ġescap", "3622": "Ġelderl", "3623": "Ġelderly", "3624": "Ġguess", "3625": "Ġpoke", "3626": "Ġthir", "3627": "ĠMam", "3628": "Ġcandl", "3629": "Ġcandle", "3630": "Ġfrus", "3631": "Ġfrust", "3632": "Ġfrustr", "3633": "Ġfrustra", "3634": "Ġfrustrat", "3635": "Ġpos", "3636": "Ġmighty", "3637": "Ġkisse", "3638": "Ġincredible", "3639": "ĠBuz", "3640": "ĠBuzz", "3641": "Ġsneeze", "3642": "Ġadmir", "3643": "Ġprese", "3644": "Ġtrack", "3645": "Ġmoms", "3646": "Ġpear", "3647": "Ġjea", "3648": "Ġpresen", "3649": "Ġvalue", "3650": "Ġpep", "3651": "Ġwarn", "3652": "Ġescape", "3653": "Ġpepp", "3654": "Ġpeppe", "3655": "Ġpepper", "3656": "Ġspac", "3657": "Ġsmalle", "3658": "Ġhose", "3659": "Ġspace", "3660": "Ġgas", "3661": "Ġjam", "3662": "Ġswor", "3663": "Ġfrig", "3664": "Ġfrigh", "3665": "Ġfright", "3666": "Ġfrag", "3667": "Ġorganized", "3668": "Ġbranche", "3669": "Ġbranches", "3670": "Ġtor", "3671": "Ġsword", "3672": "ĠMama", "3673": "Ġneighbor", "3674": "Ġfool", "3675": "Ġsell", "3676": "Ġwhic", "3677": "Ġwhich", "3678": "Ġfeed", "3679": "Ġhorn", "3680": "Ġpresent", "3681": "Ġjeal", "3682": "Ġjealo", "3683": "Ġjealou", "3684": "Ġjealous", "3685": "Ġyarn", "3686": "Ġfragi", "3687": "Ġfragil", "3688": "Ġfragile", "3689": "Ġstub", "3690": "Ġstubb", "3691": "Ġundersto", "3692": "Ġunderstoo", "3693": "Ġunderstood", "3694": "ĠEven", "3695": "Ġexam", "3696": "Ġobe", "3697": "Ġter", "3698": "Ġstubbo", "3699": "Ġstubbor", "3700": "Ġstubborn", "3701": "Ġfrighte", "3702": "Ġfrustrate", "3703": "Ġfrighten", "3704": "Ġfrustrated", "3705": "Ġcube", "3706": "Ġwashe", "3707": "Ġterr", "3708": "Ġtau", "3709": "Ġspent", "3710": "Ġtaug", "3711": "Ġtaugh", "3712": "Ġtaught", "3713": "Ġrui", "3714": "Ġruin", "3715": "Ġwago", "3716": "Ġwagon", "3717": "Ġyourse", "3718": "Ġyoursel", "3719": "Ġspoile", "3720": "Ġcreatu", "3721": "Ġcreatur", "3722": "Ġcreature", "3723": "Ġfier", "3724": "Ġchest", "3725": "Ġreliev", "3726": "Ġrelieve", "3727": "Ġspoiled", "3728": "Ġrelieved", "3729": "Ġbitt", "3730": "Ġbitte", "3731": "Ġanci", "3732": "Ġancie", "3733": "Ġancien", "3734": "Ġancient", "3735": "Ġterri", "3736": "Ġcomforta", "3737": "Ġcomfortab", "3738": "Ġcomfortabl", "3739": "Ġwake", "3740": "Ġfierc", "3741": "Ġfierce", "3742": "Ġpray", "3743": "Ġeggs", "3744": "Ġuniq", "3745": "Ġuniqu", "3746": "Ġunique", "3747": "Ġbarn", "3748": "ĠTe", "3749": "Ġbod", "3750": "Ġcomfortable", "3751": "Ġboar", "3752": "Ġgrap", "3753": "Ġpolic", "3754": "Ġunu", "3755": "Ġunus", "3756": "Ġfrightene", "3757": "Ġcrac", "3758": "Ġcrack", "3759": "Ġfrightened", "3760": "Ġgrape", "3761": "Ġtoug", "3762": "Ġtough", "3763": "Ġgoat", "3764": "Ġunusu", "3765": "Ġunusua", "3766": "Ġunusual", "3767": "Ġfooli", "3768": "Ġfoolis", "3769": "Ġfoolish", "3770": "Ġboard", "3771": "Ġusef", "3772": "Ġusefu", "3773": "Ġuseful", "3774": "Ġexplori", "3775": "Ġexplorin", "3776": "Ġexploring", "3777": "Ġfindi", "3778": "Ġfindin", "3779": "Ġfinding", "3780": "Ġstraw", "3781": "Ġdug", "3782": "Ġclum", "3783": "Ġclay", "3784": "Ġtoma", "3785": "Ġtomat", "3786": "Ġtomato", "3787": "Ġdead", "3788": "Ġgiggle", "3789": "Ġpolice", "3790": "Ġwrot", "3791": "Ġwrote", "3792": "Ġclums", "3793": "Ġwaves", "3794": "Ġsoar", "3795": "Ġrat", "3796": "Ġsearche", "3797": "Ġcabi", "3798": "Ġcabin", "3799": "Ġsquar", "3800": "Ġsquare", "3801": "Ġhears", "3802": "Ġneckl", "3803": "Ġtells", "3804": "Ġpeek", "3805": "Ġneckla", "3806": "Ġnecklac", "3807": "Ġnecklace", "3808": "Ġdul", "3809": "Ġdull", "3810": "Ġclumsy", "3811": "Ġtige", "3812": "Ġtiger", "3813": "Ġglov", "3814": "Ġglove", "3815": "Ġbubbles", "3816": "Ġnosy", "3817": "Ġsearched", "3818": "Ġrev", "3819": "Ġweig", "3820": "Ġweigh", "3821": "Ġwashed", "3822": "Ġunk", "3823": "Ġstai", "3824": "Ġweal", "3825": "Ġwealt", "3826": "Ġwealth", "3827": "Ġpainti", "3828": "Ġpaintin", "3829": "Ġpainting", "3830": "Ġbathroo", "3831": "Ġbathroom", "3832": "Ġbeha", "3833": "Ġbehav", "3834": "Ġmelt", "3835": "Ġcraz", "3836": "Ġfloa", "3837": "Ġfloat", "3838": "Ġoffi", "3839": "Ġoffic", "3840": "Ġreve", "3841": "Ġpaws", "3842": "Ġimagine", "3843": "Ġcreate", "3844": "Ġflas", "3845": "Ġflash", "3846": "Ġthankf", "3847": "Ġthankfu", "3848": "Ġthankful", "3849": "Ġoffice", "3850": "Ġunl", "3851": "Ġaski", "3852": "Ġaskin", "3853": "Ġasking", "3854": "Ġcrazy", "3855": "Ġbitter", "3856": "Ġwitc", "3857": "Ġwitch", "3858": "Ġsunf", "3859": "Ġendi", "3860": "Ġendin", "3861": "Ġending", "3862": "Ġsunfl", "3863": "Ġsunflo", "3864": "Ġsunflow", "3865": "Ġsunflowe", "3866": "Ġsunflower", "3867": "ĠBro", "3868": "Ġunkn", "3869": "Ġunkno", "3870": "Ġunknow", "3871": "Ġpir", "3872": "Ġind", "3873": "Ġdiffi", "3874": "Ġdiffic", "3875": "Ġdifficu", "3876": "Ġdifficul", "3877": "Ġdifficult", "3878": "Ġpira", "3879": "Ġpirat", "3880": "Ġpit", "3881": "Ġpirate", "3882": "Ġswan", "3883": "Ġham", "3884": "Ġtan", "3885": "Ġbloom", "3886": "Ġscal", "3887": "Ġunknown", "3888": "Ġgloo", "3889": "Ġgloom", "3890": "Ġdov", "3891": "Ġdove", "3892": "ĠElla", "3893": "Ġcovere", "3894": "Ġcovered", "3895": "Ġtrap", "3896": "Ġpenc", "3897": "Ġpenci", "3898": "Ġpencil", "3899": "Ġcheap", "3900": "Ġrecor", "3901": "Ġrecord", "3902": "Ġhoop", "3903": "Ġjet", "3904": "Ġrus", "3905": "Ġflut", "3906": "Ġterrib", "3907": "Ġterribl", "3908": "Ġstrawb", "3909": "Ġstrawbe", "3910": "Ġstrawber", "3911": "Ġstrawberr", "3912": "ĠSun", "3913": "Ġgloomy", "3914": "Ġloy", "3915": "Ġloya", "3916": "Ġloyal", "3917": "Ġcos", "3918": "ĠMum", "3919": "Ġfolde", "3920": "Ġanyw", "3921": "Here", "3922": "Ġwealthy", "3923": "Ġscale", "3924": "Ġcats", "3925": "Ġmeal", "3926": "Ġguit", "3927": "Ġguita", "3928": "Ġguitar", "3929": "Ġinde", "3930": "Ġcelebrate", "3931": "Ġjoine", "3932": "Ġjoined", "3933": "Ġcher", "3934": "Ġcompa", "3935": "Ġterrible", "3936": "Ġmovie", "3937": "Ġthrea", "3938": "Ġsala", "3939": "Ġsalad", "3940": "Ġchoo", "3941": "Ġtoa", "3942": "ĠAndy", "3943": "Ġnuts", "3944": "Ġtrav", "3945": "Ġtrave", "3946": "Ġtravel", "3947": "Ġpota", "3948": "Ġmask", "3949": "Ġpotat", "3950": "Ġpotato", "3951": "Ġorde", "3952": "Ġorder", "3953": "Ġchanged", "3954": "Ġmovin", "3955": "Ġmoving", "3956": "Ġexciti", "3957": "Ġexcitin", "3958": "Ġexciting", "3959": "ĠMany", "3960": "Ġbody", "3961": "Ġminu", "3962": "Ġbatt", "3963": "Ġpolis", "3964": "Ġpolish", "3965": "Ġdou", "3966": "Ġtoas", "3967": "Ġtoast", "3968": "Ġunlo", "3969": "Ġmarb", "3970": "Ġmarbl", "3971": "Ġmarble", "3972": "Ġminut", "3973": "Ġminute", "3974": "Ġdisg", "3975": "Ġdisgu", "3976": "Ġflex", "3977": "Ġknowi", "3978": "Ġknowin", "3979": "Ġknowing", "3980": "Ġenor", "3981": "Ġenorm", "3982": "Ġdiv", "3983": "Ġyourself", "3984": "Ġenormo", "3985": "Ġenormou", "3986": "Ġenormous", "3987": "Ġhairy", "3988": "Ġshoot", "3989": "Ġthirs", "3990": "Ġthirst", "3991": "Ġpeach", "3992": "Ġstuf", "3993": "Ġstuff", "3994": "Ġbore", "3995": "Ġflexi", "3996": "Ġremi", "3997": "Ġremin", "3998": "ĠBrow", "3999": "ĠBrown", "4000": "Ġsoldi", "4001": "Ġsoldie", "4002": "Ġsoldier", "4003": "Ġbored", "4004": "Ġflexib", "4005": "Ġremind", "4006": "Ġsunsh", "4007": "Ġsunshi", "4008": "Ġsunshin", "4009": "Ġsunshine", "4010": "Ġaco", "4011": "Ġacor", "4012": "Ġacorn", "4013": "Ġadventuro", "4014": "Ġadventurou", "4015": "Ġadventurous", "4016": "Ġsmaller", "4017": "Ġcran", "4018": "ĠJimm", "4019": "Ġhats", "4020": "Ġdelica", "4021": "Ġfreez", "4022": "Ġdelicat", "4023": "Ġdelicate", "4024": "Ġflexibl", "4025": "ĠJimmy", "4026": "Ġflexible", "4027": "Ġcost", "4028": "Ġknif", "4029": "Ġknife", "4030": "Ġperfo", "4031": "Ġperfor", "4032": "Ġperform", "4033": "Ġbril", "4034": "Ġbrill", "4035": "Ġbrilli", "4036": "Ġbrillia", "4037": "Ġbrillian", "4038": "Ġsnacks", "4039": "Ġmen", "4040": "Ġnods", "4041": "Ġshore", "4042": "Ġchec", "4043": "Ġcheck", "4044": "ĠJenn", "4045": "Ġbrilliant", "4046": "Ġthirsty", "4047": "Ġfrow", "4048": "Ġchar", "4049": "Wel", "4050": "Ġfrown", "4051": "Ġdisgus", "4052": "Ġdisgust", "4053": "Ġseeds", "4054": "Ġcounted", "4055": "Ġasl", "4056": "Ġasle", "4057": "Ġaslee", "4058": "Ġasleep", "4059": "Ġmailb", "4060": "Ġmailbo", "4061": "Ġmailbox", "4062": "Ġdoug", "4063": "Ġdough", "4064": "Ġcherr", "4065": "Ġdesi", "4066": "ĠTru", "4067": "Ġpor", "4068": "Ġstag", "4069": "Ġstair", "4070": "Ġstage", "4071": "Ġmelo", "4072": "Ġjung", "4073": "Ġjungl", "4074": "Ġjungle", "4075": "Ġcrane", "4076": "Ġmarket", "4077": "Ġdep", "4078": "Ġrela", "4079": "Ġsquee", "4080": "Ġjol", "4081": "Ġunloc", "4082": "Ġunlock", "4083": "Ġsqueez", "4084": "Ġstatu", "4085": "Ġsuppo", "4086": "Ġstatue", "4087": "Ġpag", "4088": "Ġpage", "4089": "Ġexplaine", "4090": "Ġexplained", "4091": "Ġum", "4092": "Ġwrapp", "4093": "Ġmedi", "4094": "Ġumb", "4095": "Ġumbr", "4096": "Ġumbre", "4097": "Ġumbrel", "4098": "Ġumbrell", "4099": "Ġumbrella", "4100": "Ġchoos", "4101": "ĠInst", "4102": "Ġdisgusti", "4103": "Ġpopp", "4104": "Ġdisgustin", "4105": "Ġdisgusting", "4106": "Ġjoll", "4107": "Ġlab", "4108": "Ġjolly", "4109": "Ġfrid", "4110": "Ġfridg", "4111": "Ġfridge", "4112": "Ġmana", "4113": "Ġmanag", "4114": "Ġsticke", "4115": "Ġsticker", "4116": "Ġsui", "4117": "Ġsuit", "4118": "Ġsuccessf", "4119": "Ġsuccessfu", "4120": "Ġsuccessful", "4121": "Ġdesig", "4122": "Ġdesign", "4123": "Ġpriz", "4124": "Ġprize", "4125": "Ġrh", "4126": "Ġspring", "4127": "Ġshiv", "4128": "Ġshive", "4129": "Ġshiver", "4130": "Ġisl", "4131": "Ġcate", "4132": "Ġisla", "4133": "Ġislan", "4134": "Ġisland", "4135": "Ġtimes", "4136": "Ġcater", "4137": "Ġcaterp", "4138": "Ġcaterpi", "4139": "Ġcaterpil", "4140": "Ġcaterpill", "4141": "Ġcaterpilla", "4142": "Ġcaterpillar", "4143": "Ġrelax", "4144": "Ġfour", "4145": "Ġharm", "4146": "Ġgri", "4147": "Ġstov", "4148": "Ġstove", "4149": "ĠWhile", "4150": "Ġstup", "4151": "Ġstupi", "4152": "Ġstupid", "4153": "Ġmedic", "4154": "Ġcomb", "4155": "ĠInste", "4156": "ĠInstea", "4157": "ĠInstead", "4158": "Ġfreeze", "4159": "Ġgoos", "4160": "Ġgoose", "4161": "Ġori", "4162": "Ġorig", "4163": "Ġbatte", "4164": "Ġmedici", "4165": "Ġmedicin", "4166": "Ġmanage", "4167": "Ġmedicine", "4168": "Ġmid", "4169": "Ġstam", "4170": "Ġsauc", "4171": "Ġindep", "4172": "Ġindepe", "4173": "Ġindepen", "4174": "Ġindepend", "4175": "Ġindepende", "4176": "Ġindependen", "4177": "Ġpasse", "4178": "Ġsauce", "4179": "Ġorigi", "4180": "Ġorigin", "4181": "Ġgem", "4182": "Ġbatter", "4183": "Ġsighe", "4184": "Ġsighed", "4185": "Ġorigina", "4186": "Ġoriginal", "4187": "Ġvegetables", "4188": "Ġnews", "4189": "Ġmelon", "4190": "Ġskipp", "4191": "Ġstones", "4192": "Ġobed", "4193": "Ġobedi", "4194": "Ġobedie", "4195": "Ġobedien", "4196": "Ġdepe", "4197": "ĠYour", "4198": "Ġdepen", "4199": "Ġdepend", "4200": "Ġrug", "4201": "Ġlow", "4202": "Ġcarel", "4203": "Ġcarele", "4204": "Ġcareles", "4205": "Ġcareless", "4206": "Ġstamp", "4207": "Ġadmire", "4208": "Ġcries", "4209": "Ġcarrots", "4210": "Ġpress", "4211": "Ġnat", "4212": "Ġjee", "4213": "Ġalm", "4214": "Ġalmo", "4215": "Ġjeep", "4216": "Ġmidd", "4217": "Ġpopc", "4218": "Ġpopco", "4219": "Ġpopcor", "4220": "Ġpopcorn", "4221": "Ġobedient", "4222": "Ġalmos", "4223": "Ġalmost", "4224": "Ġmiddl", "4225": "Ġmiddle", "4226": "Ġmagn", "4227": "Ġstudy", "4228": "Ġfearf", "4229": "Ġfearfu", "4230": "Ġindependent", "4231": "Ġfearful", "4232": "Ġjac", "4233": "Ġjack", "4234": "Ġoffe", "4235": "ĠSamm", "4236": "Ġsmok", "4237": "Ġmol", "4238": "Ġchoose", "4239": "Ġoffer", "4240": "Ġchal", "4241": "ĠSammy", "4242": "Ġseri", "4243": "Ġserio", "4244": "Ġseriou", "4245": "Ġserious", "4246": "Ġpean", "4247": "Ġpeanu", "4248": "Ġpeanut", "4249": "Ġbedr", "4250": "Ġbedro", "4251": "Ġbedroo", "4252": "Ġbedroom", "4253": "Ġfilt", "4254": "Ġhelm", "4255": "Ġgets", "4256": "Ġparr", "4257": "Ġparro", "4258": "Ġparrot", "4259": "Ġrav", "4260": "Ġhelme", "4261": "Ġhelmet", "4262": "Ġpeb", "4263": "Ġpebb", "4264": "Ġpebbl", "4265": "Ġpebble", "4266": "Ġfilth", "4267": "Ġfount", "4268": "Ġfounta", "4269": "Ġfountai", "4270": "Ġfountain", "4271": "Ġpasta", "4272": "Ġrave", "4273": "Ġraven", "4274": "Ġcompe", "4275": "Ġhamm", "4276": "Ġcompet", "4277": "Ġjacke", "4278": "Ġjacket", "4279": "Ġbelonge", "4280": "Ġbelonged", "4281": "Ġdest", "4282": "Ġfilthy", "4283": "Ġcheerf", "4284": "Ġcheerfu", "4285": "Ġcheerful", "4286": "Ġborr", "4287": "Ġborro", "4288": "Ġborrow", "4289": "Ġhamme", "4290": "Ġhammer", "4291": "Ġmise", "4292": "Ġmiser", "4293": "Ġhouses", "4294": "Ġbrac", "4295": "Ġbrace", "4296": "Ġbelt", "4297": "Ġthoughtf", "4298": "Ġthoughtfu", "4299": "Ġthoughtful", "4300": "Ġstranger", "4301": "Ġhay", "4302": "Ġmisera", "4303": "Ġmiserab", "4304": "Ġmiserabl", "4305": "Ġstandi", "4306": "Ġstandin", "4307": "Ġstanding", "4308": "Ġfork", "4309": "Ġmiserable", "4310": "Ġimpressi", "4311": "Ġbracel", "4312": "Ġbracele", "4313": "Ġbracelet", "4314": "Ġraced", "4315": "Ġtaken", "4316": "Ġspott", "4317": "Ġange", "4318": "Ġtria", "4319": "Ġavo", "4320": "Ġtrian", "4321": "Ġtriang", "4322": "Ġjug", "4323": "Ġimpressiv", "4324": "Ġimpressive", "4325": "Ġtriangl", "4326": "Ġtriangle", "4327": "Ġlim", "4328": "Ġmole", "4329": "Ġfigu", "4330": "Ġfigur", "4331": "Ġcolla", "4332": "Ġtied", "4333": "Ġspotte", "4334": "Ġlifte", "4335": "Ġspotted", "4336": "Ġlifted", "4337": "Ġslipped", "4338": "Ġsteal", "4339": "Ġtank", "4340": "Ġdependa", "4341": "Ġdependab", "4342": "Ġsqueeze", "4343": "Ġsquas", "4344": "Ġsquash", "4345": "Ġdependabl", "4346": "Ġfigure", "4347": "Ġdependable", "4348": "Ġblueb", "4349": "Ġgara", "4350": "Ġgarag", "4351": "Ġgarage", "4352": "Ġcrawle", "4353": "Ġbull", "4354": "Ġbuilt", "4355": "Ġer", "4356": "Ġmush", "4357": "Ġsmoke", "4358": "Ġpant", "4359": "Ġcrawled", "4360": "Ġunco", "4361": "Ġsink", "4362": "Ġboats", "4363": "Ġpia", "4364": "Ġpian", "4365": "Ġcer", "4366": "Ġsiz", "4367": "Ġpiano", "4368": "Ġbotto", "4369": "Ġbottom", "4370": "ĠTw", "4371": "Ġusi", "4372": "Ġusin", "4373": "Ġusing", "4374": "Ġcus", "4375": "Ġpicks", "4376": "Ġmoder", "4377": "Ġshows", "4378": "Ġcompeti", "4379": "Ġwrappe", "4380": "Ġmagne", "4381": "Ġmagnet", "4382": "Ġwaf", "4383": "Ġhurts", "4384": "Ġeng", "4385": "Ġflute", "4386": "Ġgum", "4387": "Ġbehave", "4388": "Ġradis", "4389": "Ġradish", "4390": "Ġaun", "4391": "Ġaunt", "4392": "Ġoni", "4393": "Ġonio", "4394": "Ġonion", "4395": "Ġwaff", "4396": "Ġwaffl", "4397": "Ġwaffle", "4398": "Ġmodern", "4399": "Ġdolp", "4400": "Ġdolph", "4401": "Ġdolphi", "4402": "Ġdolphin", "4403": "Ġrelia", "4404": "Ġtunn", "4405": "Ġtunne", "4406": "Ġtunnel", "4407": "Ġreliab", "4408": "Ġarro", "4409": "Ġsize", "4410": "ĠFo", "4411": "Ġrush", "4412": "Ġreliabl", "4413": "Ġarrow", "4414": "Ġreliable", "4415": "Ġhoppi", "4416": "Ġhoppin", "4417": "Ġhopping", "4418": "Ġmushr", "4419": "Ġmushro", "4420": "Ġmushroo", "4421": "Ġmushroom", "4422": "Ġcostu", "4423": "Ġcostum", "4424": "Ġcostume", "4425": "Ġatta", "4426": "Ġattac", "4427": "Ġengi", "4428": "Ġengin", "4429": "Ġengine", "4430": "Ġplayf", "4431": "Ġplayfu", "4432": "Ġplayful", "4433": "Ġtax", "4434": "Ġlean", "4435": "Ġbeet", "4436": "Ġtaxi", "4437": "Ġbeetl", "4438": "Ġbeetle", "4439": "Ġlocke", "4440": "Ġpopu", "4441": "Ġpopul", "4442": "Ġpopula", "4443": "Ġlol", "4444": "Ġloll", "4445": "Ġvin", "4446": "Ġpopular", "4447": "Ġones", "4448": "Ġvine", "4449": "Ġbluebe", "4450": "Ġcroc", "4451": "Ġblueber", "4452": "Ġblueberr", "4453": "Ġheli", "4454": "ĠTed", "4455": "Ġcrys", "4456": "Ġcryst", "4457": "Ġcrysta", "4458": "Ġcrystal", "4459": "Ġcoc", "4460": "Ġhumb", "4461": "Ġhumbl", "4462": "Ġcompetit", "4463": "Ġdecorate", "4464": "Ġstronge", "4465": "Ġhelic", "4466": "Ġhelico", "4467": "Ġhelicop", "4468": "Ġhelicopt", "4469": "Ġhelicopte", "4470": "Ġhelicopter", "4471": "Ġneeds", "4472": "Ġcroco", "4473": "Ġliz", "4474": "Ġcrocod", "4475": "Ġcrocodi", "4476": "Ġcrocodil", "4477": "Ġcrocodile", "4478": "Ġtricks", "4479": "Ġlolli", "4480": "Ġhumble", "4481": "Ġliza", "4482": "Ġlizar", "4483": "Ġlizard", "4484": "Ġtroubled", "4485": "Ġcompetiti", "4486": "Ġcamer", "4487": "Ġcamera", "4488": "Ġera", "4489": "Ġeras", "4490": "Ġq", "4491": "Ġqu", "4492": "Ġqui", "4493": "Ġquic", "4494": "Ġquick", "4495": "Ġquickl", "4496": "Ġquickly", "4497": "Ġquie", "4498": "Ġquiet", "4499": "Ġque", "4500": "Ġques", "4501": "Ġquest", "4502": "Ġquesti", "4503": "Ġquestio", "4504": "Ġquestion", "4505": "Ġquee", "4506": "Ġqueen", "4507": "Ġqua", "4508": "Ġquit", "4509": "Ġpige", "4510": "Ġpigeo", "4511": "Ġpigeon", "4512": "Ġlocked", "4513": "Ġharde", "4514": "Ġlollip", "4515": "Ġlollipo", "4516": "Ġlollipop", "4517": "Ġallo", "4518": "Ġallow", "4519": "Ġoper", "4520": "Ġopera", "4521": "Ġkissed", "4522": "Ġuncom", "4523": "Ġuncomf", "4524": "Ġuncomfo", "4525": "Ġuncomfor", "4526": "Ġuncomfort", "4527": "Ġuncomforta", "4528": "Ġuncomfortab", "4529": "Ġuncomfortabl", "4530": "Ġgrac", "4531": "Ġuncomfortable", "4532": "Ġwande", "4533": "Ġwander", "4534": "Ġerase", "4535": "Ġbli", "4536": "Ġguil", "4537": "Ġguilt", "4538": "Ġangel", "4539": "Ġgrace", "4540": "Ġtorn", "4541": "Ġanx", "4542": "Ġanxi", "4543": "Ġwrapped", "4544": "Ġmuf", "4545": "Ġmuff", "4546": "Ġfluf", "4547": "Ġfluff", "4548": "Ġdeliv", "4549": "Ġdelive", "4550": "Ġdeliver", "4551": "Ġshoc", "4552": "Ġshock", "4553": "Ġtwig", "4554": "Ġpants", "4555": "Ġdisappo", "4556": "Ġcolou", "4557": "Ġcolour", "4558": "Ġdisappoi", "4559": "Ġdisappoin", "4560": "Ġdisappoint", "4561": "ĠSn", "4562": "Ġpatt", "4563": "Ġhelps", "4564": "Ġdiam", "4565": "Ġdiamo", "4566": "Ġdiamon", "4567": "Ġdiamond", "4568": "Ġsnap", "4569": "Ġcoco", "4570": "Ġanxio", "4571": "Ġanxiou", "4572": "Ġanxious", "4573": "Ġblin", "4574": "Ġgh", "4575": "Ġgho", "4576": "Ġghos", "4577": "Ġghost", "4578": "Ġmuffi", "4579": "Ġmuffin", "4580": "Ġcollar", "4581": "Ġpip", "4582": "Ġtears", "4583": "Ġruine", "4584": "Ġruined", "4585": "Ġquar", "4586": "Ġmop", "4587": "Ġpipe", "4588": "Ġlime", "4589": "ĠJenny", "4590": "Ġnai", "4591": "Ġtube", "4592": "Ġguilty", "4593": "Ġae", "4594": "Ġblink", "4595": "Ġaer", "4596": "Ġaero", "4597": "Ġaerop", "4598": "Ġaeropl", "4599": "Ġaeropla", "4600": "Ġaeroplan", "4601": "Ġaeroplane", "4602": "Ġnail", "4603": "Ġhelpl", "4604": "Ġhelple", "4605": "Ġhelples", "4606": "Ġhelpless", "4607": "Ġhappin", "4608": "Ġhappine", "4609": "Ġhappines", "4610": "Ġhappiness", "4611": "Ġquarr", "4612": "Ġcac", "4613": "Ġquarre", "4614": "Ġquarrel", "4615": "Ġboys", "4616": "Ġcere", "4617": "Ġwalks", "4618": "Ġpinc", "4619": "Ġpatte", "4620": "Ġneedl", "4621": "Ġneedle", "4622": "Ġpassed", "4623": "Ġpinch", "4624": "Ġmeant", "4625": "Ġradio", "4626": "Ġoce", "4627": "Ġocea", "4628": "Ġocean", "4629": "Ġwir", "4630": "Ġtoot", "4631": "Ġfluffy", "4632": "Ġwire", "4633": "Ġdeaf", "4634": "Ġcact", "4635": "Ġswea", "4636": "Ġpersi", "4637": "Ġpersis", "4638": "Ġpersist", "4639": "Ġserv", "4640": "Ġdive", "4641": "Ġsweat", "4642": "Ġpersiste", "4643": "Ġrul", "4644": "Ġenvi", "4645": "Ġharml", "4646": "Ġharmle", "4647": "Ġharmles", "4648": "Ġharmless", "4649": "Ġordi", "4650": "Ġordin", "4651": "Ġordina", "4652": "Ġordinar", "4653": "Ġordinary", "4654": "Ġanswere", "4655": "Ġanswered", "4656": "Ġbees", "4657": "Ġgracef", "4658": "Ġgracefu", "4659": "Ġgraceful", "4660": "Ġcomple", "4661": "Ġrule", "4662": "Ġflashl", "4663": "Ġflashli", "4664": "Ġflashlig", "4665": "Ġflashligh", "4666": "Ġflashlight", "4667": "Ġshade", "4668": "Ġspeak", "4669": "Ġtrum", "4670": "Ġtrump", "4671": "Ġpoure", "4672": "Ġtrumpe", "4673": "Ġtrumpet", "4674": "Ġharder", "4675": "Ġpoured", "4676": "Ġcerea", "4677": "Ġcereal", "4678": "Ġcomplet", "4679": "Ġbarb", "4680": "Ġbarbe", "4681": "Ġhunt", "4682": "Ġtooth", "4683": "Ġtum", "4684": "Ġpersisten", "4685": "Ġspil", "4686": "Ġinvited", "4687": "Ġspee", "4688": "Ġcompu", "4689": "Ġcomput", "4690": "Ġcompute", "4691": "Ġcomputer", "4692": "Ġtag", "4693": "Ġdet", "4694": "Ġcharm", "4695": "Ġspill", "4696": "Ġcactu", "4697": "Ġcactus", "4698": "Ġscoot", "4699": "ĠTod", "4700": "ĠBet", "4701": "Ġcomet", "4702": "Ġmug", "4703": "Ġyogu", "4704": "Ġyogur", "4705": "Ġloa", "4706": "Ġyogurt", "4707": "Ġspend", "4708": "Ġcompas", "4709": "Ġcompass", "4710": "Ġacci", "4711": "Ġaccid", "4712": "Ġaccide", "4713": "Ġacciden", "4714": "Ġaccident", "4715": "Ġscoote", "4716": "Ġmit", "4717": "Ġpale", "4718": "Ġmitt", "4719": "Ġbarber", "4720": "Ġdisappointe", "4721": "Ġdisappointed", "4722": "Ġbum", "4723": "Ġlicke", "4724": "Ġlicked", "4725": "Ġforw", "4726": "Ġforwa", "4727": "Ġforwar", "4728": "Ġforward", "4729": "ĊĊ", "4730": "Ġcush", "4731": "Ġcushi", "4732": "Ġcushio", "4733": "Ġcushion", "4734": "Ġris", "4735": "Ġregu", "4736": "Ġregul", "4737": "Ġregula", "4738": "Ġregular", "4739": "Ġwhispere", "4740": "Ġgivi", "4741": "Ġgivin", "4742": "Ġgiving", "4743": "Ġavoc", "4744": "Ġavoca", "4745": "Ġavocad", "4746": "Ġavocado", "4747": "Ġloude", "4748": "Ġsheet", "4749": "Ġroof", "4750": "Ġwhispered", "4751": "Ġspeed", "4752": "Ġhars", "4753": "Ġharsh", "4754": "Ġrode", "4755": "Ġscooter", "4756": "Ġintel", "4757": "Ġintell", "4758": "Ġintelli", "4759": "Ġintellig", "4760": "Ġintellige", "4761": "Ġintelligen", "4762": "Ġlib", "4763": "Ġthread", "4764": "Ġdus", "4765": "Ġthie", "4766": "Ġload", "4767": "Ġlibr", "4768": "Ġlibra", "4769": "Ġlibrar", "4770": "Ġgifte", "4771": "Ġgifted", "4772": "Ġbic", "4773": "Ġbump", "4774": "Ġpracticed", "4775": "Ġcomplete", "4776": "Ġdelig", "4777": "Ġdeligh", "4778": "Ġdelight", "4779": "Ġdust", "4780": "Ġattach", "4781": "ĠTrue", "4782": "Ġbicy", "4783": "Ġbicyc", "4784": "Ġbicycl", "4785": "Ġstrea", "4786": "Ġbicycle", "4787": "Ġspag", "4788": "Ġspagh", "4789": "Ġspaghe", "4790": "Ġspaghet", "4791": "Ġspaghett", "4792": "Ġspaghetti", "4793": "Ġscree", "4794": "Ġcompassi", "4795": "Ġcompassio", "4796": "Ġcompassion", "4797": "Ġsaile", "4798": "Ġsailed", "4799": "Ġinse", "4800": "Ġeraser", "4801": "Ġbanda", "4802": "Ġsett", "4803": "ĠCar", "4804": "Ġpersistent", "4805": "Ġscra", "4806": "Ġmitte", "4807": "Ġmitten", "4808": "Ġcocoa", "4809": "Ġenve", "4810": "Ġenvel", "4811": "Ġenvelo", "4812": "Ġenvelop", "4813": "Ġvol", "4814": "Ġquestions", "4815": "Ġenvelope", "4816": "Ġalr", "4817": "Ġfeathers", "4818": "Ġacce", "4819": "Ġrice", "4820": "Ġshrim", "4821": "Ġshrimp", "4822": "Ġdesk", "4823": "Ġstream", "4824": "Ġcharmi", "4825": "Ġcharmin", "4826": "Ġcharming", "4827": "Ġbandag", "4828": "Ġbandage", "4829": "Ġpost", "4830": "Ġraf", "4831": "Ġears", "4832": "Ġcarp", "4833": "Ġraft", "4834": "Ġknot", "4835": "Ġenvio", "4836": "Ġenviou", "4837": "Ġenvious", "4838": "Ġturk", "4839": "Ġturke", "4840": "Ġturkey", "4841": "Ġarg", "4842": "Ġargu", "4843": "Ġstronger", "4844": "Ġremo", "4845": "Ġfirem", "4846": "Ġcarpe", "4847": "Ġpara", "4848": "Ġcoins", "4849": "Ġspu", "4850": "Ġtrun", "4851": "Ġchub", "4852": "Ġchubb", "4853": "Ġtrunk", "4854": "Ġboxe", "4855": "Ġwhea", "4856": "Ġwheat", "4857": "Ġboxes", "4858": "Ġspun", "4859": "Ġrestl", "4860": "Ġrestle", "4861": "Ġrestles", "4862": "Ġchubby", "4863": "Ġcarpet", "4864": "Ġrestless", "4865": "Ġseal", "4866": "Ġintelligent", "4867": "ĠBa", "4868": "Ġdreams", "4869": "Ġhalf", "4870": "Ġfriendsh", "4871": "Ġfriendshi", "4872": "Ġfriendship", "4873": "Ġjud", "4874": "Ġjudg", "4875": "Ġbroc", "4876": "Ġbrocc", "4877": "Ġbrocco", "4878": "Ġbroccol", "4879": "Ġbroccoli", "4880": "Ġvolc", "4881": "Ġvolca", "4882": "Ġvolcan", "4883": "Ġdestr", "4884": "Ġvolcano", "4885": "Ġrais", "4886": "Ġsku", "4887": "Ġloop", "4888": "Ġsalt", "4889": "ĠJak", "4890": "Ġvio", "4891": "Ġviol", "4892": "Ġticke", "4893": "Ġweek", "4894": "Ġdete", "4895": "Ġvid", "4896": "Ġvide", "4897": "Ġvideo", "4898": "Ġaccep", "4899": "Ġaccept", "4900": "Ġcaul", "4901": "ĠJake", "4902": "Ġsleepi", "4903": "Ġignore", "4904": "Ġattr", "4905": "Ġscreen", "4906": "Ġattra", "4907": "Ġattrac", "4908": "Ġattract", "4909": "Ġjudge", "4910": "Ġearl", "4911": "Ġcauli", "4912": "Ġcaulif", "4913": "Ġcaulifl", "4914": "Ġcauliflo", "4915": "Ġcauliflow", "4916": "Ġcauliflowe", "4917": "Ġcauliflower", "4918": "Ġticket", "4919": "ĠSpi", "4920": "Ġthief", "4921": "ĠEmi", "4922": "Ġale", "4923": "Ġinsec", "4924": "Ġaler", "4925": "Ġalert", "4926": "Ġlouder", "4927": "Ġsleepin", "4928": "Ġinsect", "4929": "Ġsni", "4930": "Ġnumbers", "4931": "Ġhairc", "4932": "Ġente", "4933": "Ġenter", "4934": "Ġyaw", "4935": "Ġhaircu", "4936": "Ġhaircut", "4937": "Ġparad", "4938": "Ġyawn", "4939": "Ġsleeping", "4940": "ĠEmil", "4941": "Ġmill", "4942": "Ġeventu", "4943": "Ġeventua", "4944": "Ġeventual", "4945": "Ġeventuall", "4946": "Ġeventually", "4947": "Ġei", "4948": "Ġhosp", "4949": "Ġhospi", "4950": "Ġhospit", "4951": "Ġhospita", "4952": "Ġhospital", "4953": "Ġplanet", "4954": "Ġbric", "4955": "Ġbrick", "4956": "ĠToda", "4957": "ĠToday", "4958": "Ġparade", "4959": "Ġuniv", "4960": "Ġunive", "4961": "Ġuniver", "4962": "Ġunivers", "4963": "Ġreturne", "4964": "Ġreturned", "4965": "Ġdestro", "4966": "Ġdestroy", "4967": "Ġhappeni", "4968": "Ġhappenin", "4969": "Ġhappening", "4970": "Ġpoe", "4971": "Ġvioli", "4972": "Ġviolin", "4973": "Ġnur", "4974": "ĠEmily", "4975": "Ġlearni", "4976": "Ġlearnin", "4977": "Ġlearning", "4978": "Ġnicel", "4979": "Ġnicely", "4980": "Ġnurs", "4981": "Ġtumm", "4982": "Ġleo", "4983": "Ġcompetitiv", "4984": "Ġcompetitive", "4985": "Ġnurse", "4986": "Ġleop", "4987": "Ġleopa", "4988": "Ġleopar", "4989": "Ġleopard", "4990": "Ġpoem", "4991": "Ġfirew", "4992": "Ġfirewo", "4993": "Ġflam", "4994": "Ġpastr", "4995": "Ġattracti", "4996": "Ġbase", "4997": "Ġcurt", "4998": "Ġignora", "4999": "Ġignoran", "5000": "Ġsaus", "5001": "Ġsausa", "5002": "Ġsausag", "5003": "Ġsausage", "5004": "Ġbarr", "5005": "Ġattractiv", "5006": "Ġattractive", "5007": "Ġado", "5008": "Ġcurta", "5009": "Ġcurtai", "5010": "Ġcurtain", "5011": "Ġways", "5012": "Ġrepa", "5013": "Ġscat", "5014": "Ġscatt", "5015": "Ġbarre", "5016": "Ġscatte", "5017": "Ġcompassiona", "5018": "Ġcompassionat", "5019": "Ġcompassionate", "5020": "Ġignorant", "5021": "Ġwheels", "5022": "Ġyac", "5023": "Ġyach", "5024": "Ġyacht", "5025": "Ġmotorc", "5026": "Ġscatter", "5027": "Ġmotorcy", "5028": "Ġdeter", "5029": "Ġbarrel", "5030": "Ġly", "5031": "Ġmotorcyc", "5032": "Ġmotorcycl", "5033": "Ġhook", "5034": "Ġsweate", "5035": "Ġrag", "5036": "Ġmotorcycle", "5037": "Ġsweater", "5038": "Ġlyi", "5039": "Ġlyin", "5040": "Ġlying", "5041": "Ġlie", "5042": "Ġfirewor", "5043": "Ġfirework", "5044": "Ġimpa", "5045": "Ġrepai", "5046": "Ġphot", "5047": "Ġphoto", "5048": "Ġdeterm", "5049": "Ġdetermi", "5050": "Ġdetermin", "5051": "Ġoat", "5052": "Ġrepair", "5053": "Ġbulb", "5054": "Ġflame", "5055": "Ġtem", "5056": "Ġtemp", "5057": "Ġstirr", "5058": "Ġpurs", "5059": "Ġsuppor", "5060": "Ġsupport", "5061": "Ġpony", "5062": "Ġcric", "5063": "Ġcrick", "5064": "Ġcricke", "5065": "Ġcricket", "5066": "Ġador", "5067": "Ġhomes", "5068": "Ġuncl", "5069": "Ġtrut", "5070": "Ġtruth", "5071": "Ġspinn", "5072": "Ġhate", "5073": "Ġuncle", "5074": "Ġrubbed", "5075": "Ġpurse", "5076": "Ġserve", "5077": "Ġbushe", "5078": "Ġbushes", "5079": "Ġven", "5080": "Ġimpat", "5081": "Ġimpati", "5082": "Ġimpatie", "5083": "Ġimpatien", "5084": "Ġspel", "5085": "Ġflap", "5086": "Ġspell", "5087": "Ġhappie", "5088": "Ġskin", "5089": "Ġcooke", "5090": "Ġgrown", "5091": "Ġadora", "5092": "Ġadorab", "5093": "Ġadorabl", "5094": "Ġcooked", "5095": "Ġbin", "5096": "Ġadorable", "5097": "Ġthems", "5098": "Ġthemse", "5099": "Ġthemsel", "5100": "Ġchalk", "5101": "Ġceler", "5102": "Ġthemselv", "5103": "Ġthemselve", "5104": "Ġthemselves", "5105": "Ġimpatient", "5106": "Ġtalle", "5107": "Ġcelery", "5108": "Ġstum", "5109": "Ġtray", "5110": "Ġshells", "5111": "Ġpeng", "5112": "Ġpengu", "5113": "Ġpengui", "5114": "Ġpenguin", "5115": "Ġshu", "5116": "Ġleas", "5117": "Ġsnif", "5118": "Ġsniff", "5119": "Ġpru", "5120": "Ġprun", "5121": "Ġlivel", "5122": "Ġwalls", "5123": "'m", "5124": "Ġsparkle", "5125": "Ġlively", "5126": "Ġalli", "5127": "Ġcase", "5128": "Ġallig", "5129": "Ġalliga", "5130": "Ġalligat", "5131": "Ġalligato", "5132": "Ġalligator", "5133": "Ġpenn", "5134": "Ġelev", "5135": "Ġdistant", "5136": "Ġprune", "5137": "Ġfau", "5138": "Ġsayi", "5139": "Ġsayin", "5140": "Ġsaying", "5141": "Ġmeat", "5142": "Ġraise", "5143": "Ġpole", "5144": "Ġenc", "5145": "Ġsend", "5146": "Ġgua", "5147": "Ġstare", "5148": "Ġspinni", "5149": "Ġspinnin", "5150": "Ġspinning", "5151": "Ġforth", "5152": "Ġfilm", "5153": "Ġcounti", "5154": "Ġcountin", "5155": "Ġcounting", "5156": "Ġenth", "5157": "Ġbounced", "5158": "Ki", "5159": "Kit", "5160": "Kitt", "5161": "Kitty", "5162": "ĠKitty", "5163": "ĠKi", "5164": "Ġchain", "5165": "Ġmeta", "5166": "Ġed", "5167": "Ġcleani", "5168": "Ġcleanin", "5169": "Ġcleaning", "5170": "Ġstumb", "5171": "Ġmetal", "5172": "Ġstumbl", "5173": "Ġslep", "5174": "Ġslept", "5175": "Ġsurf", "5176": "Ġenthu", "5177": "Ġenthus", "5178": "Ġmarry", "5179": "Ġwalle", "5180": "Ġwallet", "5181": "Ġdiar", "5182": "Ġenthusi", "5183": "Ġenthusia", "5184": "Ġenthusias", "5185": "Ġnoteb", "5186": "Ġnotebo", "5187": "Ġnoteboo", "5188": "Ġnotebook", "5189": "Ġdrawe", "5190": "Ġdrawer", "5191": "Ġwiped", "5192": "Ġpatter", "5193": "Ġfolder", "5194": "Ġbigges", "5195": "Ġbiggest", "5196": "Ġimpro", "5197": "Ġguar", "5198": "Ġimprov", "5199": "Ġatti", "5200": "Ġmint", "5201": "Ġpattern", "5202": "Ġguard", "5203": "Ġflea", "5204": "Ġlaughs", "5205": "Ġskippe", "5206": "Ġsteak", "5207": "Ġrot", "5208": "Ġeleva", "5209": "Ġelevat", "5210": "Ġedg", "5211": "Ġelevato", "5212": "Ġelevator", "5213": "Ġedge", "5214": "Ġstac", "5215": "Ġstack", "5216": "Ġarmc", "5217": "Ġarmch", "5218": "Ġarmcha", "5219": "Ġarmchai", "5220": "Ġarmchair", "5221": "Ġshut", "5222": "Ġskipped", "5223": "Ġstumble", "5224": "Ġdiary", "5225": "Ġcit", "5226": "Ġbags", "5227": "Ġdistu", "5228": "Ġdistur", "5229": "Ġamb", "5230": "Ġdisturb", "5231": "Ġoy", "5232": "Ġoys", "5233": "Ġoyst", "5234": "Ġoyste", "5235": "Ġoyster", "5236": "Ġmixer", "5237": "Ġswit", "5238": "Ġswitc", "5239": "Ġswitch", "5240": "Ġfli", "5241": "Ġjourna", "5242": "Ġjournal", "5243": "Ġspli", "5244": "Ġshowi", "5245": "Ġshowin", "5246": "Ġgathere", "5247": "Ġshowing", "5248": "Ġclub", "5249": "Ġgathered", "5250": "Ġeart", "5251": "Ġearth", "5252": "ĠLul", "5253": "Ġjellyf", "5254": "Ġjellyfi", "5255": "Ġjellyfis", "5256": "Ġjellyfish", "5257": "Ġscrew", "5258": "Ġhunte", "5259": "Ġskul", "5260": "Ġskull", "5261": "Ġambu", "5262": "Ġplayg", "5263": "Ġplaygr", "5264": "Ġplaygro", "5265": "Ġplaygrou", "5266": "Ġambul", "5267": "Ġambula", "5268": "Ġambulan", "5269": "Ġambulanc", "5270": "Ġambulance", "5271": "Ġfath", "5272": "Ġfathe", "5273": "Ġfather", "5274": "Ġhip", "5275": "Ġloudl", "5276": "Ġloudly", "5277": "Ġsla", "5278": "Ġshie", "5279": "Ġshiel", "5280": "Ġshield", "5281": "ĠLulu", "5282": "Ġlibrary", "5283": "Ġbuttons", "5284": "Ġhunter", "5285": "Ġplaygroun", "5286": "Ġplayground", "5287": "Ġtrucks", "5288": "Ġink", "5289": "Ġlights", "5290": "Ġimprove", "5291": "Ġtummy", "5292": "Ġpointi", "5293": "Ġpointin", "5294": "Ġpointing", "5295": "Ġnapk", "5296": "Ġnapki", "5297": "Ġnapkin", "5298": "Ġcity", "5299": "Ġsplit", "5300": "Ġstati", "5301": "Ġitc", "5302": "Ġitch", "5303": "Ġstatio", "5304": "Ġstation", "5305": "Ġprep", "5306": "Ġprepa", "5307": "Ġprepar", "5308": "Ġfalls", "5309": "ĠTu", "5310": "Ġcupb", "5311": "Ġcupbo", "5312": "Ġcupboa", "5313": "Ġcupboar", "5314": "Ġcupboard", "5315": "Ġfact", "5316": "ĠDi", "5317": "ĠBirdy", "5318": "Ġherb", "5319": "Ġorn", "5320": "Ġorna", "5321": "Ġornam", "5322": "Ġorname", "5323": "Ġornamen", "5324": "Ġornament", "5325": "Ġmodes", "5326": "Ġmodest", "5327": "Ġknows", "5328": "Ġmosq", "5329": "Ġmosqu", "5330": "Ġmosqui", "5331": "Ġmosquit", "5332": "Ġmosquito", "5333": "Ġcord", "5334": "Ġgira", "5335": "Ġgiraf", "5336": "Ġgiraff", "5337": "Ġgiraffe", "5338": "Ġsweeti", "5339": "Ġsweetie", "5340": "Ġwast", "5341": "Ġves", "5342": "Ġenco", "5343": "Ġattic", "5344": "Ġsailo", "5345": "Ġsailor", "5346": "Ġencou", "5347": "Ġwhene", "5348": "Ġwhenev", "5349": "Ġwheneve", "5350": "Ġwhenever", "5351": "Ġvest", "5352": "Ġresc", "5353": "Ġyet", "5354": "Ġrescu", "5355": "Ġtripp", "5356": "Ġdisappeare", "5357": "Ġdisappeared", "5358": "Ġpacka", "5359": "Ġpackag", "5360": "Ġsurr", "5361": "Ġpackage", "5362": "Ġonc", "5363": "Ġstrawberry", "5364": "Ġonce", "5365": "Ġaut", "5366": "Ġscrat", "5367": "Ġscratc", "5368": "Ġscratch", "5369": "Ġkay", "5370": "Ġkaya", "5371": "Ġkayak", "5372": "Ġbrothers", "5373": "Ġfootb", "5374": "Ġfootba", "5375": "Ġfootbal", "5376": "Ġfootball", "5377": "Ġcarto", "5378": "Ġhipp", "5379": "Ġhippo", "5380": "Ġtease", "5381": "Ġled", "5382": "Ġdrivi", "5383": "Ġdrivin", "5384": "Ġdriving", "5385": "Ġhandl", "5386": "Ġcabl", "5387": "Ġcable", "5388": "Ġcalli", "5389": "Ġcallin", "5390": "Ġcalling", "5391": "Ġhour", "5392": "Ġoct", "5393": "Ġlen", "5394": "Ġocto", "5395": "Ġoctop", "5396": "Ġoctopu", "5397": "Ġoctopus", "5398": "Ġgrandp", "5399": "Ġgrandpa", "5400": "ĠMis", "5401": "ĠSus", "5402": "Ġhandle", "5403": "Ġwishes", "5404": "Ġtrippe", "5405": "Ġtripped", "5406": "Ġcoole", "5407": "Ġremov", "5408": "Ġcoal", "5409": "Ġairp", "5410": "Ġroot", "5411": "Ġvani", "5412": "ĠLoo", "5413": "Ġreadi", "5414": "Ġadde", "5415": "Ġske", "5416": "Ġauto", "5417": "Ġadded", "5418": "Ġdetermine", "5419": "Ġmild", "5420": "Ġsuccee", "5421": "Ġdetermined", "5422": "Ġsucceed", "5423": "Ġreadin", "5424": "Ġreading", "5425": "?\".", "5426": "Well", "5427": "Ġtrad", "5428": "Ġsung", "5429": "Ġdresse", "5430": "Ġsugg", "5431": "Ġsugge", "5432": "Ġsugges", "5433": "Ġsuggest", "5434": "Ġautom", "5435": "Ġthun", "5436": "Ġkindn", "5437": "Ġkindne", "5438": "Ġkindnes", "5439": "Ġkindness", "5440": "Ġautomo", "5441": "Ġthund", "5442": "Ġthunde", "5443": "Ġthunder", "5444": "Ġautomob", "5445": "Ġautomobi", "5446": "Ġautomobil", "5447": "Ġautomobile", "5448": "Ġenthusiast", "5449": "Ġunp", "5450": "Ġcompla", "5451": "Ġcomplai", "5452": "Ġcomplain", "5453": "Ġenthusiasti", "5454": "Ġenthusiastic", "5455": "Ġrib", "5456": "Ġcartoo", "5457": "Ġcartoon", "5458": "Ġyoga", "5459": "Ġgrowl", "5460": "Ġvei", "5461": "Ġshrin", "5462": "Ġfram", "5463": "ĠLit", "5464": "Ġframe", "5465": "Ġshrink", "5466": "ĠLitt", "5467": "Ġhelper", "5468": "ĠLittl", "5469": "ĠLittle", "5470": "Ġbatht", "5471": "Ġmead", "5472": "Ġmeado", "5473": "Ġmeadow", "5474": "Ġbathtu", "5475": "Ġbathtub", "5476": "Ġribb", "5477": "Ġrefu", "5478": "Ġdare", "5479": "Ġmath", "5480": "Ġhall", "5481": "Ġmeans", "5482": "Ġgolf", "5483": "Ġpacke", "5484": "Ġskel", "5485": "Ġskele", "5486": "Ġskelet", "5487": "Ġskeleto", "5488": "Ġskeleton", "5489": "Ġveil", "5490": "Ġjogg", "5491": "Ġgor", "5492": "Ġvet", "5493": "Ġtrop", "5494": "Ġrefus", "5495": "ĠBes", "5496": "Ġpun", "5497": "Ġmatche", "5498": "Ġchess", "5499": "Ġtroph", "5500": "Ġcups", "5501": "Ġglowi", "5502": "Ġglowin", "5503": "Ġglowing", "5504": "Ġmattr", "5505": "Ġmattre", "5506": "Ġmattres", "5507": "Ġmattress", "5508": "Ġpine", "5509": "Ġremove", "5510": "Ġspear", "5511": "Ġhurri", "5512": "Ġpenny", "5513": "ĠDan", "5514": "Ġitse", "5515": "Ġitsel", "5516": "Ġitself", "5517": "Ġmeo", "5518": "Ġmeow", "5519": "Ġdrawings", "5520": "Ġgoal", "5521": "Ġprov", "5522": "Ġshort", "5523": "Ġhange", "5524": "Ġmaz", "5525": "Ġhanger", "5526": "Ġmaze", "5527": "Ġsungl", "5528": "Ġsungla", "5529": "Ġsunglas", "5530": "Ġsunglass", "5531": "Ġsunglasse", "5532": "Ġsunglasses", "5533": "Ġtelep", "5534": "Ġteleph", "5535": "Ġtelepho", "5536": "Ġtelephon", "5537": "Ġtelephone", "5538": "Ġrepe", "5539": "Ġdess", "5540": "Ġdesse", "5541": "Ġdesser", "5542": "Ġdessert", "5543": ",âĢĿ", "5544": "Ġmeda", "5545": "ĠFinn", "5546": "Ġrepea", "5547": "Ġmedal", "5548": "Ġhed", "5549": "Ġrepeat", "5550": "Ġhedg", "5551": "Ġhedge", "5552": "Ġpastry", "5553": "Ġrolli", "5554": "Ġrollin", "5555": "Ġrolling", "5556": "Ġminutes", "5557": "Ġpowd", "5558": "Ġpowde", "5559": "Ġpowder", "5560": "Ġpacked", "5561": "Ġmakeu", "5562": "Ġmakeup", "5563": "Ġpatc", "5564": "Ġpatch", "5565": "Ġstruc", "5566": "ĠP", "5567": "ĠPe", "5568": "ĠPa", "5569": "ĠPi", "5570": "ĠPo", "5571": "ĠPl", "5572": "ĠPet", "5573": "ĠPete", "5574": "ĠPle", "5575": "ĠPlea", "5576": "ĠPleas", "5577": "ĠPlease", "5578": "ĠPip", "5579": "ĠPipp", "5580": "ĠPop", "5581": "ĠPol", "5582": "ĠPopp", "5583": "ĠPoppy", "5584": "ĠPeter", "5585": "ĠPoll", "5586": "ĠPolly", "5587": "ĠPeo", "5588": "ĠPeop", "5589": "ĠPeopl", "5590": "ĠPeople", "5591": "Ġgea", "5592": "Ġgear", "5593": "Ġrealis", "5594": "ĠMiss", "5595": "Ġshocke", "5596": "Ġshocked", "5597": "ĠBess", "5598": "Ġtrophy", "5599": "Ġunpa", "5600": "Ġknig", "5601": "Ġknigh", "5602": "Ġknight", "5603": "Ġunpac", "5604": "Ġunpack", "5605": "Ġgori", "5606": "Ġgoril", "5607": "Ġgorill", "5608": "Ġgorilla", "5609": "Ġcob", "5610": "Ġmissil", "5611": "Ġmissile", "5612": "Ġmanaged", "5613": "Ġencour", "5614": "Ġencoura", "5615": "Ġencourag", "5616": "Ġleash", "5617": "ĠLa", "5618": "Ġwif", "5619": "Ġwife", "5620": "Ġsep", "5621": "Ġstee", "5622": "Ġsepa", "5623": "Ġsepar", "5624": "Ġsepara", "5625": "Ġseparat", "5626": "Ġoi", "5627": "Ġrefr", "5628": "Ġstairs", "5629": "Ġrescue", "5630": "Ġrefuse", "5631": "Ġcamp", "5632": "Ġpuni", "5633": "Ġpunis", "5634": "Ġmaga", "5635": "Ġmagaz", "5636": "Ġmagazi", "5637": "Ġpunish", "5638": "Ġmagazin", "5639": "Ġmagazine", "5640": "Ġwool", "5641": "Ġmicrop", "5642": "Ġmicroph", "5643": "Ġmicropho", "5644": "Ġmicrophon", "5645": "Ġmicrophone", "5646": "Ġwaste", "5647": "Ġstrug", "5648": "Ġstrugg", "5649": "Ġstruggl", "5650": "Ġgrapes", "5651": "Ġfile", "5652": "Ġrealise", "5653": "Ġperm", "5654": "ĠTina", "5655": "Ġbasketb", "5656": "Ġbasketba", "5657": "Ġbasketbal", "5658": "Ġbasketball", "5659": "ĠTwe", "5660": "Ġrew", "5661": "Ġmem", "5662": "Ġrewa", "5663": "Ġrewar", "5664": "Ġreward", "5665": "Ġrak", "5666": "Ġcobw", "5667": "Ġcobwe", "5668": "Ġcobweb", "5669": "Ġspir", "5670": "Ġmarche", "5671": "ĠTwee", "5672": "Ġrise", "5673": "ĠTweet", "5674": "Ġmessa", "5675": "Ġmessag", "5676": "Ġmessage", "5677": "Ġpermi", "5678": "Ġpresse", "5679": "Ġeasi", "5680": "Ġgasp", "5681": "Ġrema", "5682": "Ġweep", "5683": "Ġunit", "5684": "Ġribbo", "5685": "Ġribbon", "5686": "Ġbarki", "5687": "Ġbarkin", "5688": "Ġbarking", "5689": "Ġlase", "5690": "Ġlaser", "5691": "Ġwhip", "5692": "Ġsafel", "5693": "Ġsafely", "5694": "Ġbathe", "5695": "Ġfishe", "5696": "Ġtrade", "5697": "Ġvie", "5698": "Ġview", "5699": "Ġtrem", "5700": "Ġslides", "5701": "Ġcooler", "5702": "Ġsteps", "5703": "Ġtask", "5704": "Ġbananas", "5705": "Ġspiri", "5706": "Ġspirit", "5707": "Ġstaf", "5708": "Ġstaff", "5709": "Ġtoe", "5710": "Ġgiggled", "5711": "Ġhoc", "5712": "Ġtremb", "5713": "Ġtrembl", "5714": "Ġhock", "5715": "Ġhocke", "5716": "Ġhockey", "5717": "Ġvend", "5718": "Ġthos", "5719": "Ġthose", "5720": "Ġvendo", "5721": "Ġvendor", "5722": "Ġchur", "5723": "Ġearly", "5724": "Ġmarched", "5725": "ĠLook", "5726": "Ġprepare", "5727": "Ġflou", "5728": "Ġflour", "5729": "ĠAr", "5730": "Ġhote", "5731": "Ġhotel", "5732": "Ġremai", "5733": "Ġremain", "5734": "Ġwinn", "5735": "Ġchurc", "5736": "Ġchurch", "5737": "Ġveh", "5738": "Ġvehi", "5739": "Ġvehic", "5740": "Ġvehicl", "5741": "Ġvehicle", "5742": "Ġoft", "5743": "Ġofte", "5744": "Ġoften", "5745": "Ġir", "5746": "Ġcookin", "5747": "Ġcooking", "5748": "Ġstretche", "5749": "Ġfiv", "5750": "Ġfive", "5751": "Ġtools", "5752": "Ġseparate", "5753": "Ġoil", "5754": "Ġeit", "5755": "Ġeith", "5756": "Ġeithe", "5757": "Ġeither", "5758": "Ġfirema", "5759": "Ġfireman", "5760": "Ġott", "5761": "Ġotte", "5762": "Ġotter", "5763": "Ġpis", "5764": "Ġpist", "5765": "Ġbaseb", "5766": "Ġbaseba", "5767": "Ġbasebal", "5768": "Ġbaseball", "5769": "Ġtempl", "5770": "Ġtemple", "5771": "Ġdishw", "5772": "Ġdishwa", "5773": "Ġdishwas", "5774": "Ġdishwash", "5775": "Ġpisto", "5776": "Ġrever", "5777": "Ġpretendi", "5778": "Ġpretendin", "5779": "Ġpretending", "5780": "Ġpistol", "5781": "Ġdishwashe", "5782": "Ġdishwasher", "5783": "Ġanch", "5784": "Ġancho", "5785": "Ġanchor", "5786": "Ġrevers", "5787": "Ġchos", "5788": "Ġchose", "5789": "Ġsight", "5790": "Ġiro", "5791": "Ġiron", "5792": "Ġgril", "5793": "Ġgrill", "5794": "Ġsandb", "5795": "Ġunite", "5796": "Ġbattery", "5797": "Ġstrip", "5798": "Ġthinki", "5799": "Ġthinkin", "5800": "Ġthinking", "5801": "Ġopens", "5802": "Ġargue", "5803": "Ġrealised", "5804": "Ġlaun", "5805": "Ġsandbo", "5806": "Ġsandbox", "5807": "Ġhours", "5808": "Ġsy", "5809": "Ġconte", "5810": "Ġblackb", "5811": "Ġsoak", "5812": "Ġresi", "5813": "ĠBett", "5814": "Ġtras", "5815": "Ġtrash", "5816": "Ġfacto", "5817": "Ġfactor", "5818": "Ġsnea", "5819": "Ġsneak", "5820": "Ġskir", "5821": "Ġskirt", "5822": "ĠBetty", "5823": "Ġcane", "5824": "Ġrhi", "5825": "Ġrhin", "5826": "Ġrhino", "5827": "Ġloti", "5828": "Ġlotio", "5829": "Ġlotion", "5830": "Ġfactory", "5831": "Ġresis", "5832": "Ġresist", "5833": "Ġward", "5834": "Ġrake", "5835": "Ġcardb", "5836": "Ġcardbo", "5837": "Ġcardboa", "5838": "Ġcardboar", "5839": "Ġcardboard", "5840": "Ġwardr", "5841": "Ġwardro", "5842": "Ġwardrob", "5843": "Ġwardrobe", "5844": "Ġsuppl", "5845": "Ġcell", "5846": "Ġmuse", "5847": "Ġbuckl", "5848": "Ġmuseu", "5849": "Ġmuseum", "5850": "Ġmul", "5851": "Ġur", "5852": "Ġhangi", "5853": "Ġhangin", "5854": "Ġava", "5855": "Ġblackbo", "5856": "Ġblackboa", "5857": "Ġblackboar", "5858": "Ġblackboard", "5859": "Ġhanging", "5860": "Ġfog", "5861": "ĠSno", "5862": "ĠSunn", "5863": "Ġbuckle", "5864": "ĠSunny", "5865": "Ġhiv", "5866": "Ġhive", "5867": "Ġurg", "5868": "Ġcof", "5869": "Ġcoff", "5870": "Ġtowers", "5871": "Ġcoffe", "5872": "Ġcoffee", "5873": "Ġavai", "5874": "Ġavail", "5875": "Ġexcitem", "5876": "Ġexciteme", "5877": "Ġexcitemen", "5878": "Ġexcitement", "5879": "Ġpilo", "5880": "Ġpilot", "5881": "Ġvanis", "5882": "Ġvanish", "5883": "ĠPippi", "5884": "ĠPippin", "5885": "Ġpicki", "5886": "Ġpickin", "5887": "Ġpicking", "5888": "Ġdreame", "5889": "Ġchim", "5890": "ĠSnow", "5891": "Ġfauc", "5892": "Ġfauce", "5893": "Ġfaucet", "5894": "Ġpassp", "5895": "Ġpasspo", "5896": "Ġpasspor", "5897": "Ġpassport", "5898": "Ġstumbled", "5899": "Ġdreamed", "5900": "Ġigl", "5901": "Ġiglo", "5902": "Ġigloo", "5903": "ĠBessi", "5904": "ĠBessie", "5905": "Ġrei", "5906": "Ġrein", "5907": "Ġjuicy", "5908": "Ġallowe", "5909": "Ġallowed", "5910": "Ġholds", "5911": "Ġavaila", "5912": "Ġavailab", "5913": "Ġalre", "5914": "Ġalrea", "5915": "Ġalread", "5916": "Ġalready", "5917": "Ġtorna", "5918": "Ġtornad", "5919": "Ġtornado", "5920": "Ġavailabl", "5921": "Ġavailable", "5922": "Ġmule", "5923": "Ġreminde", "5924": "Ġfingers", "5925": "Ġmarri", "5926": "Ġsettl", "5927": "Ġnewsp", "5928": "Ġnewspa", "5929": "Ġnewspap", "5930": "Ġnewspape", "5931": "Ġnewspaper", "5932": "Ġlaund", "5933": "Ġlaundr", "5934": "Ġlend", "5935": "Ġreverse", "5936": "Ġchimn", "5937": "Ġchimne", "5938": "Ġchimney", "5939": "Ġlaundry", "5940": "Ġmumm", "5941": "Ġoak", "5942": "Ġfisher", "5943": "Ġkan", "5944": "Ġkang", "5945": "Ġkanga", "5946": "Ġkangar", "5947": "Ġkangaro", "5948": "Ġkangaroo", "5949": "ĠEveryw", "5950": "ĠEverywh", "5951": "ĠEverywhe", "5952": "ĠEverywher", "5953": "ĠEverywhere", "5954": "Ġdancer", "5955": "Ġtelli", "5956": "Ġtellin", "5957": "Ġtelling", "5958": "Ġdisp", "5959": "Ġnov", "5960": "Ġnove", "5961": "Ġmicros", "5962": "Ġmicrosc", "5963": "Ġmicrosco", "5964": "Ġmicroscop", "5965": "Ġnovel", "5966": "Ġcras", "5967": "Ġcrash", "5968": "Ġmicroscope", "5969": "Ġmummy", "5970": "Ġcherri", "5971": "Ġcherrie", "5972": "Ġsham", "5973": "Ġcherries", "5974": "Ġurge", "5975": "Ġspille", "5976": "Ġspilled", "5977": "Ġreind", "5978": "Ġreinde", "5979": "Ġreindee", "5980": "Ġreindeer", "5981": "Ġfisherm", "5982": "Ġenjoyi", "5983": "Ġenjoyin", "5984": "Ġenjoying", "5985": "Ġgai", "5986": "Ġfirep", "5987": "Ġgain", "5988": "Ġrece", "5989": "Ġsub", "5990": "Ġdispl", "5991": "Ġfirepl", "5992": "Ġfirepla", "5993": "Ġfireplac", "5994": "Ġfireplace", "5995": "Ġslap", "5996": "Ġdispla", "5997": "Ġdisplay", "5998": "Ġfastes", "5999": "Ġfastest", "6000": "Ġrepla", "6001": "ĠSpik", "6002": "Ġhurry", "6003": "Ġcabine", "6004": "Ġcabinet", "6005": "Ġasht", "6006": "Ġashtr", "6007": "Ġashtra", "6008": "Ġashtray", "6009": "Ġbathrob", "6010": "Ġbathrobe", "6011": "Ġcows", "6012": "Ġreplac", "6013": "ĠSpike", "6014": "Ġpala", "6015": "Ġsettle", "6016": "Ġpalac", "6017": "Ġpalace", "6018": "Ġencourage", "6019": "Ġcree", "6020": "Ġtrail", "6021": "Ġminer", "6022": "Ġfalli", "6023": "Ġfallin", "6024": "Ġfalling", "6025": "Ġsilv", "6026": "Ġsilve", "6027": "Ġsilver", "6028": "Ġdiscovere", "6029": "Ġdiscovered", "6030": "Ġroare", "6031": "Ġstared", "6032": "Ġroared", "6033": "Ġmemo", "6034": "Ġmemor", "6035": "Ġexpec", "6036": "Ġexpect", "6037": "Ġrhinoc", "6038": "Ġrhinoce", "6039": "Ġrhinocer", "6040": "Ġrhinocero", "6041": "Ġbil", "6042": "Ġbill", "6043": "Ġrhinoceros", "6044": "Ġtoi", "6045": "Ġtoil", "6046": "Ġali", "6047": "Ġtoile", "6048": "Ġax", "6049": "Ġhut", "6050": "Ġhappier", "6051": "Ġtoilet", "6052": "Ġtaller", "6053": "Ġobj", "6054": "Ġobje", "6055": "Ġobjec", "6056": "Ġobject", "6057": "Ġoats", "6058": "Ġfisherma", "6059": "Ġfisherman", "6060": "Ġmusta", "6061": "Ġvalua", "6062": "Ġvaluab", "6063": "Ġvaluabl", "6064": "Ġvaluable", "6065": "Ġnatu", "6066": "Ġnatur", "6067": "Ġaxe", "6068": "Ġshamp", "6069": "Ġshampo", "6070": "Ġshampoo", "6071": "Ġholes", "6072": "ĠMil", "6073": "Ġoffere", "6074": "Ġoffered", "6075": "Ġboots", "6076": "Ġreplace", "6077": "ĠEn", "6078": "Ġnames", "6079": "Ġclimbi", "6080": "Ġclimbin", "6081": "Ġclimbing", "6082": "Ġstretched", "6083": "Ġexami", "6084": "Ġexamin", "6085": "Ġprovi", "6086": "ĠDav", "6087": "Ġshru", "6088": "Ġperfu", "6089": "Ġperfum", "6090": "Ġperfume", "6091": "Ġtelev", "6092": "Ġtelevi", "6093": "Ġtelevis", "6094": "Ġtelevisi", "6095": "Ġtelevisio", "6096": "Ġtelevision", "6097": "Ġspok", "6098": "Ġspoke", "6099": "Ġminera", "6100": "Ġmineral", "6101": "Ġlisteni", "6102": "Ġlistenin", "6103": "Ġlistening", "6104": "Ġjokes", "6105": "Ġdic", "6106": "Ġsym", "6107": "Ġjewelr", "6108": "Ġjewelry", "6109": "Ġneat", "6110": "ĠHere", "6111": "Ġcale", "6112": "Ġcalen", "6113": "Ġcalend", "6114": "Ġfue", "6115": "Ġfuel", "6116": "Ġcalenda", "6117": "Ġcalendar", "6118": "Ġstops", "6119": "Ġjumps", "6120": "ĠSusi", "6121": "ĠBee", "6122": "Ġprovid", "6123": "Ġsparkly", "6124": "ĠSusie", "6125": "ĠTob", "6126": "Ġmustac", "6127": "Ġmustach", "6128": "Ġmustache", "6129": "Ġshoulde", "6130": "Ġshoulder", "6131": "Ġraz", "6132": "Ġrazo", "6133": "Ġrazor", "6134": "Ġbury", "6135": "Ġobs", "6136": "Ġresto", "6137": "Ġlum", "6138": "Ġrestor", "6139": "Ġpressed", "6140": "Ġanywa", "6141": "Ġanyway", "6142": "ĠKim", "6143": "Ġsupe", "6144": "Ġsuper", "6145": "Ġporc", "6146": "Ġpoppe", "6147": "ĠToby", "6148": "Ġcreek", "6149": "ĠAre", "6150": "Ġpopped", "6151": "Ġgaspe", "6152": "Ġgasped", "6153": "Ġsymb", "6154": "Ġsymbo", "6155": "Ġsymbol", "6156": "Ġtuna", "6157": "Ġdict", "6158": "Ġdicti", "6159": "Ġdictio", "6160": "Ġdiction", "6161": "Ġdictiona", "6162": "Ġdictionar", "6163": "Ġpapers", "6164": "Ġfreezer", "6165": "Ġsubw", "6166": "Ġsubwa", "6167": "Ġsubway", "6168": "Ġdictionary", "6169": "Ġletters", "6170": "Ġrecei", "6171": "Ġporch", "6172": "ĠSha", "6173": "Ġala", "6174": "Ġbikes", "6175": "Ġpand", "6176": "Ġpanda", "6177": "Ġshaki", "6178": "Ġtightl", "6179": "Ġtightly", "6180": "Ġshakin", "6181": "Ġshaking", "6182": "Ġbookc", "6183": "Ġbookca", "6184": "Ġbookcas", "6185": "Ġbookcase", "6186": "Ġsandwiche", "6187": "Ġsandwiches", "6188": "Ġreceiv", "6189": "Ġresta", "6190": "Ġext", "6191": "Ġbillb", "6192": "Ġbillbo", "6193": "Ġbillboa", "6194": "Ġtug", "6195": "Ġbillboar", "6196": "Ġbillboard", "6197": "Ġagains", "6198": "Ġagainst", "6199": "Ġintr", "6200": "Ġstickers", "6201": "Ġrestau", "6202": "Ġrestaur", "6203": "Ġrestaura", "6204": "Ġrestauran", "6205": "Ġrestaurant", "6206": "Ġblou", "6207": "Ġblous", "6208": "Ġblouse", "6209": "Ġswingi", "6210": "Ġswingin", "6211": "Ġswinging", "6212": "Ġped", "6213": "Ġdisag", "6214": "Ġdisagr", "6215": "Ġdisagre", "6216": "Ġdisagree", "6217": "Ġnature", "6218": "Ġsquirrels", "6219": "Ġbelongs", "6220": "Ġappr", "6221": "Ġswamp", "6222": "Ġincl", "6223": "Ġbutterfli", "6224": "Ġbutterflie", "6225": "Ġbutterflies", "6226": "Ġinclu", "6227": "Ġstirre", "6228": "Ġadvi", "6229": "Ġgy", "6230": "Ġgym", "6231": "Ġinclud", "6232": "Ġgrowi", "6233": "Ġgrowin", "6234": "Ġgrowing", "6235": "Ġquiz", "6236": "Ġacti", "6237": "ĠDol", "6238": "ĠSq", "6239": "ĠSqu", "6240": "Ġrestore", "6241": "Ġlightn", "6242": "Ġstirred", "6243": "Ġpraye", "6244": "Ġbeep", "6245": "Ġalar", "6246": "Ġalarm", "6247": "Ġlightni", "6248": "Ġlightnin", "6249": "Ġlightning", "6250": "Ġlip", "6251": "Ġfes", "6252": "Ġfest", "6253": "Ġfesti", "6254": "Ġfestiv", "6255": "Ġobse", "6256": "Ġreceive", "6257": "Ġdistanc", "6258": "Ġdistance", "6259": "Ġtut", "6260": "Ġcards", "6261": "Ġobser", "6262": "Ġobserv", "6263": "Ġpeda", "6264": "Ġpedal", "6265": "Ġrubber", "6266": "Ġrecog", "6267": "Ġrecogn", "6268": "Ġrecogni", "6269": "ĠPan", "6270": "Ġsofa", "6271": "Ġfestiva", "6272": "Ġfestival", "6273": "Ġdoesn", "6274": "Ġmusici", "6275": "Ġmusicia", "6276": "Ġmusician", "6277": "Ġadvic", "6278": "Ġadvice", "6279": "ĠDoll", "6280": "Ġbeef", "6281": "Ġdrai", "6282": "Ġdrain", "6283": "Ġmodel", "6284": "Ġapr", "6285": "Ġah", "6286": "Ġtuto", "6287": "Ġtutor", "6288": "Ġsir", "6289": "Ġapro", "6290": "Ġcrib", "6291": "Ġblueberri", "6292": "Ġblueberrie", "6293": "Ġblueberries", "6294": "Ġapron", "6295": "Ġbooksh", "6296": "Ġcircles", "6297": "Ġbreakf", "6298": "Ġbreakfa", "6299": "Ġbreakfas", "6300": "Ġbreakfast", "6301": "Ġbookshe", "6302": "Ġbookshel", "6303": "Ġextr", "6304": "Ġlands", "6305": "Ġprinte", "6306": "ĠBub", "6307": "Ġshelt", "6308": "Ġshelte", "6309": "Ġshelter", "6310": "Ġoli", "6311": "Ġoliv", "6312": "Ġolive", "6313": "Ġairpo", "6314": "Ġairpor", "6315": "Ġairport", "6316": "ĠBig", "6317": "Ġshrug", "6318": "Ġplayer", "6319": "Ġprovide", "6320": "Ġrail", "6321": "ĠPand", "6322": "Ġbookshelf", "6323": "Ġthea", "6324": "Ġtheat", "6325": "Ġfrogs", "6326": "Ġridi", "6327": "Ġexamine", "6328": "Ġteasp", "6329": "Ġteaspo", "6330": "Ġteaspoo", "6331": "Ġteaspoon", "6332": "Ġton", "6333": "Ġjunk", "6334": "Ġridin", "6335": "Ġriding", "6336": "Ġree", "6337": "Ġrecogniz", "6338": "Ġpleased", "6339": "Ġpani", "6340": "Ġpanic", "6341": "ĠMrs", "6342": "Ġoas", "6343": "Ġshower", "6344": "Ġsoi", "6345": "Ġsoil", "6346": "Ġoasi", "6347": "Ġoasis", "6348": "Ġahe", "6349": "Ġahea", "6350": "Ġahead", "6351": "Ġleavi", "6352": "Ġleavin", "6353": "Ġleaving", "6354": "ĠTedd", "6355": "Ġchanc", "6356": "Ġchance", "6357": "Ġpainter", "6358": "Ġpoked", "6359": "Ġknob", "6360": "ĠTeddy", "6361": "Ġpeeke", "6362": "Ġlumb", "6363": "Ġlumbe", "6364": "Ġlumber", "6365": "Ġpeeked", "6366": "ĠR", "6367": "ĠRe", "6368": "ĠRo", "6369": "ĠRem", "6370": "ĠRemy", "6371": "ĠRex", "6372": "ĠRa", "6373": "ĠRos", "6374": "ĠRose", "6375": "ĠRu", "6376": "ĠRob", "6377": "Ġrecognize", "6378": "Ġtrains", "6379": "Ġextra", "6380": "Ġpaste", "6381": "Ġrefused", "6382": "ĠFrog", "6383": "Ġrules", "6384": "Ġhappens", "6385": "Ġsounde", "6386": "Ġsounded", "6387": "Ġwint", "6388": "Ġswu", "6389": "ĠAli", "6390": "Ġwinte", "6391": "Ġwinter", "6392": "Ġtip", "6393": "Ġbirdc", "6394": "Ġbirdca", "6395": "Ġbirdcag", "6396": "Ġbirdcage", "6397": "ĠDolly", "6398": "Ġsum", "6399": "Ġweat", "6400": "Ġweath", "6401": "Ġweathe", "6402": "Ġweather", "6403": "Ġtheate", "6404": "Ġtheater", "6405": "Ġreef", "6406": "Ġcarryi", "6407": "Ġlice", "6408": "Ġcarryin", "6409": "Ġcarrying", "6410": "Ġlicen", "6411": "Ġlicens", "6412": "Ġsumm", "6413": "Ġlicense", "6414": "Ġos", "6415": "Ġunif", "6416": "Ġost", "6417": "Ġostr", "6418": "Ġostri", "6419": "Ġostric", "6420": "Ġostrich", "6421": "Ġunifo", "6422": "Ġunifor", "6423": "Ġuniform", "6424": "Ġswun", "6425": "Ġswung", "6426": "ĠPat", "6427": "Ġclif", "6428": "Ġcliff", "6429": "Ġwig", "6430": "ĠLiz", "6431": "Ġgaz", "6432": "Ġlawn", "6433": "Ġleane", "6434": "Ġleaned", "6435": "ĠPandy", "6436": "Ġolde", "6437": "Ġaccidenta", "6438": "Ġaccidental", "6439": "Ġaccidentall", "6440": "Ġaccidentally", "6441": "Ġpastel", "6442": "Ġstom", "6443": "Ġstab", "6444": "Ġlang", "6445": "Ġlangu", "6446": "Ġlangua", "6447": "Ġlanguag", "6448": "Ġlanguage", "6449": "Ġsumme", "6450": "Ġsummer", "6451": "Ġsuf", "6452": "Ġtwir", "6453": "Ġtwirl", "6454": "Ġsuff", "6455": "Ġrip", "6456": "Ġblinke", "6457": "Ġcham", "6458": "Ġblinked", "6459": "Ġcei", "6460": "Ġceil", "6461": "Ġceili", "6462": "Ġceilin", "6463": "Ġceiling", "6464": "Ġsuffe", "6465": "Ġsuffer", "6466": "Ġstarts", "6467": "ĠLee", "6468": "Ġrefri", "6469": "Ġrefrig", "6470": "Ġrefrige", "6471": "Ġrefriger", "6472": "Ġrefrigera", "6473": "Ġrefrigerat", "6474": "Ġrefrigerato", "6475": "Ġrefrigerator", "6476": "Ġanywh", "6477": "Ġanywhe", "6478": "Ġanywher", "6479": "Ġanywhere", "6480": "Ġtherm", "6481": "Ġthermo", "6482": "!\".", "6483": "Ġdreami", "6484": "Ġimagined", "6485": "Ġdreamin", "6486": "Ġdreaming", "6487": "ĠHel", "6488": "Ġobserve", "6489": "Ġclassr", "6490": "Ġclassro", "6491": "Ġclassroo", "6492": "Ġclassroom", "6493": "Ġthermom", "6494": "Ġthermome", "6495": "Ġthermomet", "6496": "Ġthermomete", "6497": "Ġthermometer", "6498": "Ġcari", "6499": "Ġcarin", "6500": "Ġcaring", "6501": "Ġcru", "6502": "Ġmissin", "6503": "Ġmissing", "6504": "Ġstabl", "6505": "Ġstable", "6506": "Ġmonkeys", "6507": "Ġwarne", "6508": "Ġwarned", "6509": "ĠWhere", "6510": "ĠBubb", "6511": "Ġabov", "6512": "Ġabove", "6513": "Ġcud", "6514": "Ġcudd", "6515": "Ġcuddl", "6516": "ĠCarl", "6517": "Wo", "6518": "Wow", "6519": "ĠWo", "6520": "ĠG", "6521": "ĠGr", "6522": "ĠGra", "6523": "ĠGran", "6524": "ĠGrand", "6525": "ĠGrandm", "6526": "ĠGrandma", "6527": "ĠGo", "6528": "ĠGi", "6529": "ĠGiv", "6530": "ĠGive", "6531": "ĠGe", "6532": "ĠGrandp", "6533": "ĠGrandpa", "6534": "Ġprev", "6535": "Ġproblems", "6536": "Ġlabe", "6537": "Ġlabel", "6538": "Ġleak", "6539": "Ġrespectf", "6540": "Ġrespectfu", "6541": "Ġrespectful", "6542": "Ġstruggle", "6543": "Ġchasi", "6544": "Ġchasin", "6545": "Ġchasing", "6546": "Ġscor", "6547": "Ġsent", "6548": "Ġlawy", "6549": "Ġlawye", "6550": "Ġlawyer", "6551": "Ġlid", "6552": "ĠBin", "6553": "Ġbrighte", "6554": "Ġfurn", "6555": "Ġmeeti", "6556": "Ġmeetin", "6557": "Ġmeeting", "6558": "Ġfurni", "6559": "Ġfrowne", "6560": "Ġfurnit", "6561": "Ġfurnitu", "6562": "Ġfurnitur", "6563": "Ġfurniture", "6564": "Ġfrowned", "6565": "Ġlug", "6566": "Ġlugg", "6567": "Ġpages", "6568": "Ġpreve", "6569": "Ġpreven", "6570": "Ġprevent", "6571": "Ġpau", "6572": "Ġpaus", "6573": "Ġbent", "6574": "ĠEa", "6575": "Ġlugga", "6576": "Ġluggag", "6577": "Ġluggage", "6578": "Ġmistakes", "6579": "Ġchamb", "6580": "Ġchambe", "6581": "Ġchamber", "6582": "Ġsunse", "6583": "Ġsunset", "6584": "ĠSe", "6585": "Ġwindows", "6586": "Ġwine", "6587": "Ġsuggeste", "6588": "Ġsuggested", "6589": "Ġjai", "6590": "Ġjail", "6591": "ĠRed", "6592": "ĠSpe", "6593": "Ġpause", "6594": "Ġolder", "6595": "Ġshouts", "6596": "Ġwigg", "6597": "Ġwiggl", "6598": "Ġstruct", "6599": "Ġstructu", "6600": "Ġstructur", "6601": "Ġstructure", "6602": "ĠElli", "6603": "Ġfixi", "6604": "Ġfixin", "6605": "Ġfixing", "6606": "Ġcountr", "6607": "Ġlions", "6608": "Ġinsis", "6609": "Ġinsist", "6610": "Ġdela", "6611": "Ġdelay", "6612": "Ġfinds", "6613": "ĠSk", "6614": "Ġscore", "6615": "Ġchoi", "6616": "Ġhande", "6617": "Ġhanded", "6618": "Ġsearchi", "6619": "Ġsearchin", "6620": "Ġsearching", "6621": "Ġfoug", "6622": "Ġfough", "6623": "Ġfought", "6624": "ĠSta", "6625": "Ġpair", "6626": "Ġbrightl", "6627": "Ġbrightly", "6628": "Ġart", "6629": "Ġdai", "6630": "Ġchoic", "6631": "Ġchoice", "6632": "Ġsurprises", "6633": "Ġrele", "6634": "Ġdoors", "6635": "ĠEllie", "6636": "Ġspad", "6637": "Ġspade", "6638": "Ġfavou", "6639": "Ġfavour", "6640": "Ġsnu", "6641": "Ġstad", "6642": "Ġstadi", "6643": "Ġstadiu", "6644": "Ġstadium", "6645": "Ġranc", "6646": "Ġranch", "6647": "ĠBow", "6648": "Ġproudl", "6649": "Ġproudly", "6650": "Ġinclude", "6651": "Ġvete", "6652": "Ġveter", "6653": "Ġene", "6654": "Ġveteri", "6655": "Ġveterin", "6656": "Ġveterina", "6657": "Ġveterinar", "6658": "Ġveterinari", "6659": "Ġveterinaria", "6660": "Ġveterinarian", "6661": "Ġrelea", "6662": "Ġreleas", "6663": "Ġchairs", "6664": "Ġdear", "6665": "Ġfavouri", "6666": "Ġfavourit", "6667": "Ġfavourite", "6668": "Ġsadl", "6669": "Ġsadly", "6670": "Ġincrea", "6671": "Ġincreas", "6672": "ĠFox", "6673": "Ġpuddles", "6674": "Ġberry", "6675": "Ġintro", "6676": "Ġintrod", "6677": "Ġintrodu", "6678": "Ġintroduc", "6679": "ĠBou", "6680": "Ġflapp", "6681": "ĠBoun", "6682": "ĠBounc", "6683": "ĠSpee", "6684": "ĠSpeed", "6685": "Ġadmired", "6686": "Ġsteam", "6687": "Ġshov", "6688": "Your", "6689": "Ġrevea", "6690": "Ġreveal", "6691": "Ġinf", "6692": "Ġyi", "6693": "Ġsavi", "6694": "Ġexcitedl", "6695": "Ġexcitedly", "6696": "ĠFredd", "6697": "Ġgrabs", "6698": "Ġsavin", "6699": "Ġsaving", "6700": "Ġmal", "6701": "Ġhuma", "6702": "Ġhuman", "6703": "Ġshove", "6704": "Ġeveni", "6705": "Ġevenin", "6706": "Ġevening", "6707": "Ġrushe", "6708": "Ġpushi", "6709": "Ġpushin", "6710": "Ġpushing", "6711": "Ġyie", "6712": "Ġyiel", "6713": "Ġyield", "6714": "Ġcollecti", "6715": "Ġmall", "6716": "Ġreminded", "6717": "Ġputt", "6718": "Ġrecom", "6719": "Ġrecomm", "6720": "Ġrecomme", "6721": "Ġrecommen", "6722": "Ġrecommend", "6723": "Ġregr", "6724": "Ġregre", "6725": "Ġregret", "6726": "Ġsurre", "6727": "Ġsurren", "6728": "Ġsurrend", "6729": "Ġsurrende", "6730": "Ġsurrender", "6731": "Ġharb", "6732": "Ġharbo", "6733": "Ġapo", "6734": "Ġapol", "6735": "Ġapolo", "6736": "Ġapolog", "6737": "Ġweap", "6738": "Ġweapo", "6739": "Ġweapon", "6740": "Ġputti", "6741": "Ġputtin", "6742": "Ġputting", "6743": "ĠJaz", "6744": "Ġvall", "6745": "Ġvalle", "6746": "Ġvalley", "6747": "Ġrelease", "6748": "Ġdais", "6749": "Ġmatches", "6750": "Ġforga", "6751": "Ġforgav", "6752": "Ġforgave", "6753": "ĠJazz", "6754": "Ġsneezed", "6755": "Ġrushed", "6756": "Ġplas", "6757": "Ġplast", "6758": "Ġgaze", "6759": "Ġslipper", "6760": "Ġthum", "6761": "Ġdiscu", "6762": "Ġdiscus", "6763": "Ġdiscuss", "6764": "Ġplates", "6765": "Ġrow", "6766": "Ġharbor", "6767": "ĠMik", "6768": "Ġcountry", "6769": "ĠBuzzy", "6770": "Ġpulls", "6771": "Ġplasti", "6772": "Ġplastic", "6773": "Ġsupply", "6774": "Ġsniffe", "6775": "Ġsniffed", "6776": "Ġshovel", "6777": "Ġappla", "6778": "Ġapplau", "6779": "ĠBubbl", "6780": "Ġintroduce", "6781": "Ġcared", "6782": "Ġsocks", "6783": "Ġwre", "6784": "Ġmystery", "6785": "Ġlives", "6786": "ĠBubble", "6787": "Ġz", "6788": "Ġzo", "6789": "Ġzoo", "6790": "Ġzi", "6791": "Ġzoom", "6792": "Ġzip", "6793": "Ġze", "6794": "Ġzipp", "6795": "Ġzippe", "6796": "Ġzeb", "6797": "Ġzebr", "6798": "Ġzebra", "6799": "Ġzipper", "6800": "Ġzoome", "6801": "Ġzoomed", "6802": "Ġkinds", "6803": "Ġslippery", "6804": "ĠAlic", "6805": "Ġours", "6806": "Ġhopi", "6807": "Ġhopin", "6808": "Ġhoping", "6809": "ĠBink", "6810": "Ġshon", "6811": "Ġshone", "6812": "ĠMike", "6813": "ĠBinky", "6814": "Ġsuperh", "6815": "Ġsuperhe", "6816": "Ġsuperher", "6817": "Ġsuperhero", "6818": "Ġdelighte", "6819": "Ġdelighted", "6820": "ĠPu", "6821": "ĠAb", "6822": "Ġchickens", "6823": "Ġcolourf", "6824": "Ġcolourfu", "6825": "Ġcolourful", "6826": "Ġraine", "6827": "Ġrained", "6828": "ĠAlice", "6829": "Ġclaw", "6830": "ĠBubbles", "6831": "Ġsoftl", "6832": "Ġsoftly", "6833": "Ġfres", "6834": "ĠShar", "6835": "Ġfresh", "6836": "Ġsunr", "6837": "Ġport", "6838": "Ġsunri", "6839": "Ġsunris", "6840": "Ġsunrise", "6841": "Ġholi", "6842": "Ġholid", "6843": "Ġholida", "6844": "Ġholiday", "6845": "ĠâĢ", "6846": "Ġbarks", "6847": "Ġthrowi", "6848": "Ġthrowin", "6849": "Ġthrowing", "6850": "Ġincrease", "6851": "Ġplanes", "6852": "Ġbend", "6853": "ĠFreddy", "6854": "Ġende", "6855": "Ġshakes", "6856": "Ġmenu", "6857": "Ġinfa", "6858": "Ġinfan", "6859": "Ġinfant", "6860": "Ġended", "6861": "Ġshiveri", "6862": "Ġshiverin", "6863": "Ġshivering", "6864": "Ġkneel", "6865": "Ġpushes", "6866": "Ġthanks", "6867": "Ġimage", "6868": "Ġhurric", "6869": "Ġhurrica", "6870": "Ġhurrican", "6871": "Ġunh", "6872": "Ġhurricane", "6873": "Ġpoints", "6874": "Ġcopp", "6875": "Ġcoppe", "6876": "Ġcopper", "6877": "Ġplann", "6878": "Ġtremble", "6879": "ĠSpeedy", "6880": "Ġkeepi", "6881": "Ġkeepin", "6882": "Ġkeeping", "6883": "Ġdishe", "6884": "ĠWou", "6885": "ĠWoul", "6886": "ĠWould", "6887": "ĠMill", "6888": "Ġapologi", "6889": "Ġsmells", "6890": "Ġheads", "6891": "Ġbrai", "6892": "Ġmass", "6893": "Ġsnug", "6894": "Ġspraye", "6895": "Ġwarni", "6896": "Ġdishes", "6897": "Ġwarnin", "6898": "Ġwarning", "6899": "ĠEnd", "6900": "Ġapplaud", "6901": "Ġcherry", "6902": "Ġthumb", "6903": "Ġseco", "6904": "Ġsecon", "6905": "Ġmeowe", "6906": "Ġmeowed", "6907": "Ġsecond", "6908": "Ġbrighter", "6909": "Ġseas", "6910": "Ġsandc", "6911": "Ġsandca", "6912": "Ġmec", "6913": "Ġmech", "6914": "Ġmecha", "6915": "Ġmechan", "6916": "Ġmechani", "6917": "Ġsandcas", "6918": "Ġsandcast", "6919": "Ġsandcastl", "6920": "Ġsandcastle", "6921": "Ġmechanic", "6922": "Ġgreed", "6923": "Ġgrant", "6924": "Ġsprayed", "6925": "Ġletti", "6926": "Ġlettin", "6927": "Ġletting", "6928": "Ġunha", "6929": "Ġlaught", "6930": "Ġlaughte", "6931": "Ġlaughter", "6932": "Ġclappi", "6933": "Ġclappin", "6934": "Ġclapping", "6935": "Ġnav", "6936": "Ġfeelings", "6937": "Ġsplashi", "6938": "Ġsplashin", "6939": "Ġsplashing", "6940": "Ġcastles", "6941": "Ġmassa", "6942": "Ġmassag", "6943": "Ġuniverse", "6944": "Ġunhap", "6945": "Ġunhapp", "6946": "Ġflie", "6947": "ĠPin", "6948": "Ġnavy", "6949": "Ġmassage", "6950": "Ġdem", "6951": "Ġsticky", "6952": "Ġrooms", "6953": "ĠRi", "6954": "Ġflies", "6955": "Ġwrec", "6956": "Ġwreck", "6957": "ĠDave", "6958": "Ġunhappy", "6959": "Ġpermit", "6960": "Ġeate", "6961": "Ġjogge", "6962": "Ġgreedy", "6963": "Ġaliv", "6964": "Ġalive", "6965": "Ġbreaks", "6966": "Ġener", "6967": "Ġenerg", "6968": "Ġcoura", "6969": "Ġcourag", "6970": "Ġcourage", "6971": "Ġcrosse", "6972": "Ġdema", "6973": "Ġdeman", "6974": "Ġdemand", "6975": "Ġsomew", "6976": "Ġsomewh", "6977": "ĠHelp", "6978": "Ġment", "6979": "Ġtruste", "6980": "Ġtrusted", "6981": "Ġimagina", "6982": "Ġwiggle", "6983": "Ġsomewhe", "6984": "Ġsomewher", "6985": "Ġsomewhere", "6986": "Ġheat", "6987": "Ġnati", "6988": "Ġnatio", "6989": "Ġnation", "6990": "Ġskil", "6991": "Ġmenti", "6992": "Ġmentio", "6993": "Ġmention", "6994": "Ġgroc", "6995": "Ġgroce", "6996": "Ġgrocer", "6997": "Ġskill", "6998": "Ġtickl", "6999": "Ġparts", "7000": "Ġpric", "7001": "ĠSan", "7002": "Ġbrain", "7003": "ĠLuck", "7004": "Ġeaten", "7005": "Ġreq", "7006": "Ġrequ", "7007": "Ġraini", "7008": "Ġrainin", "7009": "Ġraining", "7010": "ĠKik", "7011": "Ġthrows", "7012": "Ġjogged", "7013": "ĠJohnn", "7014": "ĠHen", "7015": "Ġstarti", "7016": "Ġstartin", "7017": "Ġstarting", "7018": "Ġpois", "7019": "Ġchir", "7020": "Ġsnugg", "7021": "Ġbumpe", "7022": "Ġsnuggl", "7023": "Ġpoiso", "7024": "Ġpoison", "7025": "Ġshrugg", "7026": "Ġchirp", "7027": "Ġpirates", "7028": "Ġvac", "7029": "Ġconten", "7030": "Ġcontent", "7031": "Ġspor", "7032": "Ġatte", "7033": "ĠKiki", "7034": "Ġsport", "7035": "Ġflappe", "7036": "Ġflapped", "7037": "Ġdrops", "7038": "Ġrang", "7039": "Ġsparkled", "7040": "Ġgiven", "7041": "Ġstren", "7042": "Ġstreng", "7043": "Ġstrengt", "7044": "Ġstrength", "7045": "Ġsteel", "7046": "ĠLill", "7047": "Ġbumped", "7048": "Ġyawne", "7049": "Ġyawned", "7050": "ĠLol", "7051": "Ġcuddle", "7052": "Ġreque", "7053": "Ġreques", "7054": "Ġrequest", "7055": "Ġscol", "7056": "Ġscold", "7057": "Ġmyse", "7058": "Ġmysel", "7059": "Ġmyself", "7060": "Ġshrugge", "7061": "Ġshrugged", "7062": "Ġcoats", "7063": "Ġuniversi", "7064": "Ġuniversit", "7065": "Ġeq", "7066": "Ġequ", "7067": "Ġbeans", "7068": "ĠTa", "7069": "Ġupst", "7070": "Ġuniversity", "7071": "Ġpigs", "7072": "Ġpaid", "7073": "ĠJohnny", "7074": "Ġexe", "7075": "Ġbounci", "7076": "Ġexer", "7077": "Ġexerc", "7078": "Ġexerci", "7079": "Ġexercis", "7080": "Ġtracks", "7081": "Ġupsta", "7082": "Ġupstai", "7083": "Ġupstair", "7084": "Ġupstairs", "7085": "ĠSop", "7086": "ĠSoph", "7087": "Ġprayed", "7088": "Ġcrossed", "7089": "ĠMumm", "7090": "Ġsqueezed", "7091": "Ġimpresse", "7092": "Ġimpressed", "7093": "Ġflood", "7094": "ĠSophi", "7095": "Ġtide", "7096": "Ġbouncin", "7097": "Ġbouncing", "7098": "Ġbreathe", "7099": "Ġrhy", "7100": "Ġrabbits", "7101": "Ġbadl", "7102": "Ġbadly", "7103": "Ġleat", "7104": "Ġleath", "7105": "Ġleathe", "7106": "Ġleather", "7107": "Ġbuz", "7108": "Ġbuzz", "7109": "Ġvaca", "7110": "Ġvacat", "7111": "Ġvacati", "7112": "Ġvacatio", "7113": "Ġvacation", "7114": "Ġbears", "7115": "Ġclaws", "7116": "Ġtour", "7117": "Ġsweeth", "7118": "Ġsweethe", "7119": "Ġsweethea", "7120": "Ġsweethear", "7121": "Ġsweetheart", "7122": "ĠSm", "7123": "Ġcurl", "7124": "Ġimaginat", "7125": "Ġimaginati", "7126": "ĠGig", "7127": "ĠSl", "7128": "Ġhist", "7129": "Ġstrawberri", "7130": "Ġstrawberrie", "7131": "Ġhisto", "7132": "Ġhistor", "7133": "Ġstrawberries", "7134": "Ġexplored", "7135": "Ġhorses", "7136": "Ġhistory", "7137": "ĠLola", "7138": "ĠLilly", "7139": "Ġsnuggle", "7140": "Ġchecke", "7141": "Ġstrik", "7142": "ĠMummy", "7143": "Ġneighbou", "7144": "ĠSque", "7145": "Ġneighbour", "7146": "Ġbelieved", "7147": "Ġinsiste", "7148": "ĠMand", "7149": "Ġchecked", "7150": "ĠMandy", "7151": "Ġnetw", "7152": "Ġnetwo", "7153": "Ġnetwor", "7154": "Ġnetwork", "7155": "Ġbrushe", "7156": "Ġcheek", "7157": "Ġsnowb", "7158": "Ġsnowba", "7159": "Ġeasil", "7160": "Ġeasily", "7161": "Ġplaced", "7162": "Ġspots", "7163": "Ġsafa", "7164": "Ġsafar", "7165": "Ġsafari", "7166": "Ġsnowbal", "7167": "Ġsnowball", "7168": "Ġyuc", "7169": "Ġyuck", "7170": "Ġexercise", "7171": "Ġdecorati", "7172": "Ġenergy", "7173": "Ġimaginatio", "7174": "Ġimagination", "7175": "Ġblueberry", "7176": "Ġbetw", "7177": "Ġbetwe", "7178": "Ġbetwee", "7179": "Ġbetween", "7180": "Ġapologiz", "7181": "ĠGigi", "7182": "Ġdaisy", "7183": "Ġwavi", "7184": "Ġwavin", "7185": "Ġwaving", "7186": "Ġvr", "7187": "Ġvro", "7188": "Ġvroo", "7189": "Ġvroom", "7190": "Ġrhyt", "7191": "Ġrhyth", "7192": "Ġrhythm", "7193": "Ġtwiste", "7194": "Ġstoma", "7195": "Ġstomac", "7196": "Ġstomach", "7197": "Ġwriti", "7198": "Ġwritin", "7199": "Ġwriting", "7200": "Ġbaki", "7201": "Ġbakin", "7202": "Ġbaking", "7203": "Ġmusc", "7204": "Ġnightm", "7205": "Ġnightma", "7206": "Ġnightmar", "7207": "Ġnightmare", "7208": "ĠMari", "7209": "Ġinsisted", "7210": "Ġmuscl", "7211": "Ġblowi", "7212": "Ġblowin", "7213": "Ġblowing", "7214": "Ġmuscle", "7215": "Ġentere", "7216": "Ġentered", "7217": "Ġpalm", "7218": "Ġbeauty", "7219": "Ġtwisted", "7220": "Ġbothe", "7221": "Ġbother", "7222": "Ġscoop", "7223": "Ġprunes", "7224": "Ġhills", "7225": "ĠPen", "7226": "Ġing", "7227": "ĠSee", "7228": "Ġapologize", "7229": "Ġinvita", "7230": "Ġinvitat", "7231": "Ġinvitati", "7232": "Ġinvitatio", "7233": "Ġinvitation", "7234": "Ġpoppy", "7235": "Ġpitc", "7236": "Ġpitch", "7237": "Ġequi", "7238": "Ġburne", "7239": "Ġnob", "7240": "Ġequip", "7241": "Ġesp", "7242": "Ġaftern", "7243": "Ġafterno", "7244": "Ġafternoo", "7245": "Ġafternoon", "7246": "Ġespe", "7247": "Ġespec", "7248": "Ġespeci", "7249": "Ġespecia", "7250": "Ġespecial", "7251": "Ġespeciall", "7252": "Ġespecially", "7253": "Ġequipm", "7254": "Ġequipme", "7255": "Ġequipmen", "7256": "Ġequipment", "7257": "Ġpad", "7258": "Ġingr", "7259": "Ġingre", "7260": "Ġingred", "7261": "Ġingredi", "7262": "Ġcalls", "7263": "Ġingredie", "7264": "Ġingredien", "7265": "Ġingredient", "7266": "Ġearthq", "7267": "Ġearthqu", "7268": "Ġearthqua", "7269": "Ġearthquak", "7270": "Ġearthquake", "7271": "Ġignored", "7272": "ĠSnowy", "7273": "Ġburned", "7274": "Ġnobo", "7275": "Ġnobod", "7276": "Ġnobody", "7277": "Ġseaso", "7278": "Ġseason", "7279": "Ġsty", "7280": "Ġsew", "7281": "Ġstyl", "7282": "ĠGeo", "7283": "Ġexper", "7284": "Ġhearts", "7285": "Ġgli", "7286": "Ġmailm", "7287": "Ġlemona", "7288": "Ġlemonad", "7289": "Ġlemonade", "7290": "ĠJam", "7291": "Ġlearnt", "7292": "ĠGeor", "7293": "ĠGeorg", "7294": "Ġtickle", "7295": "Woo", "7296": "Ġshopk", "7297": "Ġshopke", "7298": "Ġshopkee", "7299": "Ġshopkeep", "7300": "Ġshopkeepe", "7301": "Ġshopkeeper", "7302": "Ġatten", "7303": "ĠSquea", "7304": "ĠGrac", "7305": "ĠSqueak", "7306": "Ġbackp", "7307": "Ġbackpa", "7308": "Ġbackpac", "7309": "Ġbackpack", "7310": "Ġmailma", "7311": "Ġmailman", "7312": "ĠSte", "7313": "Ġwhistled", "7314": "Ġyucky", "7315": "Ġmoves", "7316": "Ġhee", "7317": "Ġcape", "7318": "Ġlemons", "7319": "Ġspik", "7320": "Ġstit", "7321": "Ġstitc", "7322": "Ġstitch", "7323": "Ġmam", "7324": "Ġfloate", "7325": "Ġfloated", "7326": "ĠMe", "7327": "Ġplanne", "7328": "Welc", "7329": "Welco", "7330": "Welcom", "7331": "Welcome", "7332": "Ġstrike", "7333": "Ġplanned", "7334": "Ġtraf", "7335": "Ġtraff", "7336": "Ġtraffi", "7337": "Ġtraffic", "7338": "Ġexcl", "7339": "Ġraci", "7340": "Ġracin", "7341": "Ġracing", "7342": "ĠLucky", "7343": "Ġwisd", "7344": "Ġwisdo", "7345": "Ġwisdom", "7346": "Ġdigg", "7347": "Ġburi", "7348": "Ġwags", "7349": "ĠFinny", "7350": "Ġexcla", "7351": "Ġexclai", "7352": "Ġexclaim", "7353": "Ġchor", "7354": "ĠGeorge", "7355": "ĠAle", "7356": "Ġcapt", "7357": "Ġzig", "7358": "Ġmama", "7359": "Ġprice", "7360": "Ġfollowi", "7361": "Ġfollowin", "7362": "Ġfollowing", "7363": "Ġburie", "7364": "Ġstyle", "7365": "ĠWho", "7366": "Ġbelow", "7367": "ĠElly", "7368": "Ġweight", "7369": "Ġexclaime", "7370": "Ġexclaimed", "7371": "Ġburied", "7372": "Ġfollows", "7373": "ĠPr", "7374": "Ġingredients", "7375": "Ġfurt", "7376": "Ġfurth", "7377": "Ġfurthe", "7378": "Ġcandles", "7379": "Ġmarbles", "7380": "ĠPau", "7381": "Ġwink", "7382": "Ġteachi", "7383": "Ġteachin", "7384": "Ġteaching", "7385": "Ġdeepe", "7386": "Ġdrie", "7387": "ĠWed", "7388": "ĠAlex", "7389": "Ġgrowle", "7390": "Ġapa", "7391": "Ġapar", "7392": "Ġapart", "7393": "ĠWedn", "7394": "ĠWedne", "7395": "ĠWednes", "7396": "ĠWednesd", "7397": "ĠWednesda", "7398": "ĠWednesday", "7399": "Ġgrowled", "7400": "Ġsim", "7401": "Ġhopes", "7402": "Ġfolded", "7403": "ĠPaul", "7404": "Ġclosel", "7405": "Ġclosely", "7406": "Ġchore", "7407": "Ġheel", "7408": "ĠSund", "7409": "ĠSunda", "7410": "ĠSunday", "7411": "Ġzigz", "7412": "Ġzigza", "7413": "Ġzigzag", "7414": "Ġpulli", "7415": "Ġpullin", "7416": "Ġpulling", "7417": "Ġbouncy", "7418": "Ġchewe", "7419": "ĠMit", "7420": "Ġoperat", "7421": "Ġfurther", "7422": "Ġchewed", "7423": "Ġdiggi", "7424": "Ġdiggin", "7425": "Ġdigging", "7426": "Ġpurr", "7427": "Ġwinni", "7428": "Ġwinnin", "7429": "Ġwinning", "7430": "Ġquac", "7431": "Ġquack", "7432": "Woof", "7433": "ĠGoo", "7434": "Ġdresses", "7435": "Ġshouti", "7436": "ĠIs", "7437": "Ġshoutin", "7438": "Ġshouting", "7439": "Ġgrocery", "7440": "Ġtwisty", "7441": "Ġach", "7442": "Ġattent", "7443": "Ġattenti", "7444": "Ġpeanuts", "7445": "Ġpuzzles", "7446": "ĠTil", "7447": "Ġwors", "7448": "Ġoperati", "7449": "ĠFrogg", "7450": "Ġscratche", "7451": "Ġchores", "7452": "Ġoperatio", "7453": "Ġoperation", "7454": "Ġspike", "7455": "ĠFroggy", "7456": "Ġsnapp", "7457": "ĠTill", "7458": "ĠSi", "7459": "ĠSuz", "7460": "Ġsnai", "7461": "Ġsnail", "7462": "Ġacorns", "7463": "Ġworms", "7464": "Ġdeeper", "7465": "Ġsimp", "7466": "Ġsimpl", "7467": "ĠMitt", "7468": "ĠWhene", "7469": "ĠWhenev", "7470": "ĠWheneve", "7471": "ĠWhenever", "7472": "ĠTilly", "7473": "ĠSqueaky", "7474": "ĠPink", "7475": "Ġplante", "7476": "ĠGrace", "7477": "Ġplanted", "7478": "Ġattentio", "7479": "Ġattention", "7480": "Ġunderg", "7481": "ĠDann", "7482": "Ġundergr", "7483": "Ġundergro", "7484": "ĠMitte", "7485": "ĠMitten", "7486": "Ġlandsc", "7487": "Ġlandsca", "7488": "Ġlandscap", "7489": "Ġlandscape", "7490": "Ġcutt", "7491": "ĠDanny", "7492": "Ġexperi", "7493": "Ġundergrou", "7494": "Ġundergroun", "7495": "Ġunderground", "7496": "Ġquite", "7497": "Ġvanishe", "7498": "Ġcreatures", "7499": "Ġlec", "7500": "Ġlect", "7501": "Ġlectu", "7502": "Ġlectur", "7503": "Ġlecture", "7504": "ĠMittens", "7505": "Ġblood", "7506": "Ġworker", "7507": "ĠDe", "7508": "ĠShari", "7509": "Ġwashi", "7510": "Ġwashin", "7511": "Ġwashing", "7512": "Ġhurti", "7513": "Ġhurtin", "7514": "Ġhurting", "7515": "Ġgifts", "7516": "Ġvanished", "7517": "Ġdressed", "7518": "Ġsolved", "7519": "Ġsile", "7520": "Ġsilen", "7521": "Ġexi", "7522": "ĠSharin", "7523": "Ġjaz", "7524": "Ġjazz", "7525": "Ġlicks", "7526": "Ġsnuggled", "7527": "ĠSharing", "7528": "Ġmarria", "7529": "Ġmarriag", "7530": "Ġmarriage", "7531": "Ġcounter", "7532": "Ġawe", "7533": "Ġpeta", "7534": "Ġpetal", "7535": "Ġquietl", "7536": "Ġquietly", "7537": "ĠRoc", "7538": "Ġwinne", "7539": "Ġwinner", "7540": "Ġpinche", "7541": "Ġelephants", "7542": "ĠBoo", "7543": "Ġappre", "7544": "Ġsizes", "7545": "Ġfalle", "7546": "Ġdried", "7547": "Ġfallen", "7548": "Ġsprink", "7549": "Ġsprinkl", "7550": "Ġbang", "7551": "Ġmice", "7552": "ĠDr", "7553": "Ġapprec", "7554": "Ġappreci", "7555": "Ġapprecia", "7556": "Ġappreciat", "7557": "ĠSophie", "7558": "Ġwort", "7559": "Ġworth", "7560": "ĠJoey", "7561": "ĠâĢĵ", "7562": "Ġeagerl", "7563": "Ġeagerly", "7564": "Ġsaili", "7565": "Ġsailin", "7566": "Ġsailing", "7567": "ĠBounce", "7568": "Ġox", "7569": "Ġpaused", "7570": "ĠPenn", "7571": "ĠGood", "7572": "ĠPenny", "7573": "ĠRock", "7574": "Ġoxy", "7575": "Ġoxyg", "7576": "Ġoxyge", "7577": "Ġoxygen", "7578": "Not", "7579": "Ġshined", "7580": "Ġreaches", "7581": "Ġsprinkle", "7582": "ĠFa", "7583": "Ġplays", "7584": "Ġoh", "7585": "Ġkisses", "7586": "Ġbricks", "7587": "ĠTue", "7588": "ĠTues", "7589": "ĠTuesd", "7590": "ĠTuesda", "7591": "ĠTuesday", "7592": "Ġideas", "7593": "Ġwob", "7594": "Ġwobb", "7595": "Ġwobbl", "7596": "ĠPap", "7597": "Ġfireworks", "7598": "ĠSpa", "7599": "Ġseei", "7600": "Ġseein", "7601": "Ġseeing", "7602": "Ġexit", "7603": "Ġaccepte", "7604": "Ġaccepted", "7605": "Ġhiss", "7606": "Ġmudd", "7607": "ĠEveryt", "7608": "ĠAnni", "7609": "Ġweb", "7610": "Ġmarrie", "7611": "Ġmuddy", "7612": "Ġhonk", "7613": "Ġmemory", "7614": "Ġtomatoe", "7615": "Ġmarried", "7616": "Ġtomatoes", "7617": "Ok", "7618": "Oka", "7619": "Okay", "7620": "ĠAnnie", "7621": "Ġwaggi", "7622": "Ġwaggin", "7623": "Ġwagging", "7624": "Ġfash", "7625": "Ġfashi", "7626": "Ġfashio", "7627": "Ġfashion", "7628": "Ġwandere", "7629": "Ġwandered", "7630": "Ġsip", "7631": "Ġdur", "7632": "Ġcaus", "7633": "Ġgloves", "7634": "Ġcapta", "7635": "Ġcaptai", "7636": "Ġcaptain", "7637": "Ġduri", "7638": "Ġpillows", "7639": "ĠEvent", "7640": "Ġrespo", "7641": "Ġrespon", "7642": "ĠPinky", "7643": "Ġdurin", "7644": "Ġduring", "7645": "ĠEveryth", "7646": "ĠEverythi", "7647": "ĠEverythin", "7648": "ĠEverything", "7649": "Ġpetals", "7650": "Ġwatere", "7651": "Ġwatered", "7652": "ĠEventu", "7653": "ĠEventua", "7654": "ĠEventual", "7655": "ĠEventuall", "7656": "ĠEventually", "7657": "Ġguesse", "7658": "Ġcracke", "7659": "ĠRub", "7660": "Ġpinched", "7661": "Ġbrings", "7662": "ĠDin", "7663": "Ġdestroye", "7664": "Ġcakes", "7665": "Ġlung", "7666": "ĠBluey", "7667": "Ġprinter", "7668": "ĠMaria", "7669": "Ġlips", "7670": "ĠSmi", "7671": "Ġmemori", "7672": "Ġdestroyed", "7673": "Ġtreasures", "7674": "Ġworse", "7675": "ĠFif", "7676": "Ġhadn", "7677": "Ġvel", "7678": "ĠFifi", "7679": "Ġhits", "7680": "Ġexperie", "7681": "Ġexperien", "7682": "Ġexperienc", "7683": "Ġvelv", "7684": "Ġvelve", "7685": "Ġvelvet", "7686": "ĠPapa", "7687": "Ġscattere", "7688": "Ġcatchi", "7689": "Ġcatchin", "7690": "Ġcatching", "7691": "Ġscattered", "7692": "Ġmemorie", "7693": "Ġmemories", "7694": "Ġsorts", "7695": "Ġscolde", "7696": "Ġscolded", "7697": "Ġsigns", "7698": "Ġpears", "7699": "Ġoranges", "7700": "Ġbones", "7701": "ĠFir", "7702": "Ġsnappe", "7703": "ĠKin", "7704": "Ġsnapped", "7705": "Ġsits", "7706": "Ġseats", "7707": "ĠTon", "7708": "Ġexperience", "7709": "Ġgazed", "7710": "Ġraised", "7711": "Ġeasie", "7712": "Ġzipped", "7713": "Ġpies", "7714": "Ġprints", "7715": "Ġshot", "7716": "Ġslidi", "7717": "Ġslidin", "7718": "Ġsliding", "7719": "ĠGod", "7720": "Ġeasier", "7721": "ĠSand", "7722": "Ġskills", "7723": "Ġdese", "7724": "Ġdeser", "7725": "Ġclimbs", "7726": "Ġtwirle", "7727": "Ġstrai", "7728": "Ġtwirled", "7729": "Ġfet", "7730": "Ġfetc", "7731": "Ġfetch", "7732": "ĠHenr", "7733": "Ġpadd", "7734": "Ġblankets", "7735": "Ġforgott", "7736": "Ġforgotte", "7737": "Ġforgotten", "7738": "Ġbaked", "7739": "Ġlux", "7740": "Ġdifferenc", "7741": "Ġdifference", "7742": "Ġluxu", "7743": "Ġluxur", "7744": "Ġgolde", "7745": "Ġgolden", "7746": "Ġfroz", "7747": "Ġfroze", "7748": "Ġkitty", "7749": "Ġcutti", "7750": "Ġcuttin", "7751": "Ġcutting", "7752": "Ġbeam", "7753": "Ġnowh", "7754": "Ġnowhe", "7755": "Ġnowher", "7756": "Ġnowhere", "7757": "Ġsquea", "7758": "Ġsocc", "7759": "Ġsocce", "7760": "Ġsoccer", "7761": "Ġdared", "7762": "Ġbites", "7763": "ĠHenry", "7764": "Ġcelebrated", "7765": "Ġfloati", "7766": "Co", "7767": "Com", "7768": "Come", "7769": "ĠCome", "7770": "ĠCo", "7771": "ĠCoc", "7772": "ĠCoco", "7773": "Ġstraig", "7774": "Ġstraigh", "7775": "Ġstraight", "7776": "ĠDar", "7777": "Ġunlocke", "7778": "Ġunlocked", "7779": "Ġtuc", "7780": "Ġtuck", "7781": "Ġpaddl", "7782": "Ġsorti", "7783": "Ġsortin", "7784": "Ġsorting", "7785": "Ġblee", "7786": "'r", "7787": "'re", "7788": "Ġcollecte", "7789": "Ġcollected", "7790": "Ġbleed", "7791": "Ġwelcomed", "7792": "Ġvisite", "7793": "Ġeme", "7794": "Ġemer", "7795": "Ġattache", "7796": "Ġvisited", "7797": "Ġspoons", "7798": "Ġjoggi", "7799": "Ġjoggin", "7800": "ĠSpar", "7801": "Ġjogging", "7802": "Ġemerg", "7803": "Ġsimple", "7804": "Ġdecoratio", "7805": "Ġdecoration", "7806": "Oh", "7807": "ĠSpark", "7808": "Ġisn", "7809": "Ġtong", "7810": "Ġparti", "7811": "Ġsinc", "7812": "Ġsince", "7813": "Ġtongu", "7814": "Ġtongue", "7815": "Ġzer", "7816": "Ġzero", "7817": "Ġemerge", "7818": "Ġpretti", "7819": "Ġresu", "7820": "Ġtrapp", "7821": "Ġprettie", "7822": "Ġgrin", "7823": "ĠBab", "7824": "Ġcollectio", "7825": "Ġcollection", "7826": "ĠTony", "7827": "Ġattached", "7828": "Ġweepi", "7829": "Ġweepin", "7830": "Ġweeping", "7831": "Ġbeds", "7832": "Ġslic", "7833": "Ġmarchi", "7834": "Ġmarchin", "7835": "Ġmarching", "7836": "Ġluxury", "7837": "ĠEac", "7838": "ĠEach", "7839": "Ġshouldn", "7840": "Ġguessed", "7841": "ĠJes", "7842": "Ġcreated", "7843": "Ġstuffe", "7844": "Ġstuffed", "7845": "ĠStar", "7846": "Ġpets", "7847": "Ġnapp", "7848": "Ġslice", "7849": "Ġwais", "7850": "Ġwaist", "7851": "Ġbowe", "7852": "Ġurged", "7853": "Ġfamili", "7854": "Ġinch", "7855": "Ġbowed", "7856": "Ġselli", "7857": "Ġsellin", "7858": "Ġselling", "7859": "Ġvic", "7860": "ĠSmit", "7861": "Ġfloatin", "7862": "Ġfloating", "7863": "ĠKing", "7864": "ĠSmith", "7865": "Ġbye", "7866": "Ġvict", "7867": "Ġkingd", "7868": "Ġkingdo", "7869": "Ġkingdom", "7870": "Ġpunishe", "7871": "Ġolives", "7872": "Ġkicki", "7873": "Ġkickin", "7874": "Ġkicking", "7875": "Ġpunished", "7876": "Ġvicto", "7877": "Ġnoo", "7878": "Ġvictor", "7879": "ĠBaby", "7880": "Ġtoes", "7881": "ĠRosi", "7882": "ĠBy", "7883": "Ġmuscles", "7884": "ĠRosie", "7885": "Ġjewels", "7886": "Ġmelte", "7887": "Ġmelted", "7888": "Ġslapp", "7889": "Ġbegg", "7890": "Ġdip", "7891": "Ġunderstandi", "7892": "Ġunderstandin", "7893": "Ġunderstanding", "7894": "Ġtore", "7895": "Ġmeasured", "7896": "Wi", "7897": "ĠWi", "7898": "ĠWit", "7899": "ĠWith", "7900": "ĠWil", "7901": "ĠWill", "7902": "Wil", "7903": "Will", "7904": "Wit", "7905": "With", "7906": "ĠWig", "7907": "ĠWigg", "7908": "ĠWiggl", "7909": "ĠWiggly", "7910": "Ġtrappe", "7911": "Ho", "7912": "ĠHo", "7913": "ĠHow", "7914": "How", "7915": "ĠHop", "7916": "ĠHopp", "7917": "ĠHoppy", "7918": "Ġtrapped", "7919": "Ġlined", "7920": "ĠLizz", "7921": "Ġacte", "7922": "Ġacted", "7923": "Ġencouraged", "7924": "Ġbree", "7925": "ĠSandy", "7926": "Ġreceived", "7927": "Ġwaffles", "7928": "ĠBef", "7929": "ĠBefo", "7930": "ĠBefor", "7931": "ĠBefore", "7932": "ĠJess", "7933": "Ġwes", "7934": "Ġwest", "7935": "Ġbreez", "7936": "Ġstudi", "7937": "Ġpatterns", "7938": "Ġappreciate", "7939": "Ġbreeze", "7940": "Ġmouths", "7941": "Ġnon", "7942": "ĠPep", "7943": "Ġinve", "7944": "Ġofficer", "7945": "Ġpeache", "7946": "Ġpeaches", "7947": "Ġresul", "7948": "Ġresult", "7949": "Cat", "7950": "ĠMilli", "7951": "Ġposs", "7952": "Ġripp", "7953": "Ġprinted", "7954": "Ġsoldiers", "7955": "Ġsomed", "7956": "Ġsomeda", "7957": "Ġsomeday", "7958": "Ġpotatoe", "7959": "Ġpotatoes", "7960": "Ġpupi", "7961": "Ġpupil", "7962": "ĠTun", "7963": "Ġworks", "7964": "Ġspit", "7965": "ĠMillie", "7966": "Ġdrinks", "7967": "Ġshed", "7968": "Ġrelaxe", "7969": "Ġlil", "7970": "ĠTuna", "7971": "Ġnone", "7972": "Ġpresents", "7973": "Ġfiref", "7974": "Ġhurrie", "7975": "ĠRuby", "7976": "Ġsurro", "7977": "Ġsurrou", "7978": "Ġsurroun", "7979": "Ġsurround", "7980": "Ġvoices", "7981": "Ġimm", "7982": "Ġdrinki", "7983": "Ġdrinkin", "7984": "Ġdrinking", "7985": "Ġimme", "7986": "Ġflat", "7987": "Ġappro", "7988": "Ġrelaxed", "7989": "Ġpaints", "7990": "Ġvictory", "7991": "ĠHi", "7992": "Ġcause", "7993": "Ġbreaki", "7994": "Ġbreakin", "7995": "Ġbreaking", "7996": "Ġhurried", "7997": "ĠJul", "7998": "Ġtwink", "7999": "Ġtwinkl", "8000": "Ġtale", "8001": "Ġrecorde", "8002": "Ġcostumes", "8003": "Ġmentione", "8004": "Ġmentioned", "8005": "Ġbaker", "8006": "Ġbegge", "8007": "Ġbegged", "8008": "Ġteasi", "8009": "Ġteasin", "8010": "Ġteasing", "8011": "Ġwhistli", "8012": "Ġwhistlin", "8013": "Ġwhistling", "8014": "Ġpermis", "8015": "Ġpermiss", "8016": "Ġpermissi", "8017": "Ġpermissio", "8018": "Ġpermission", "8019": "Ġdisagreed", "8020": "Ġpearl", "8021": "Ġpaddle", "8022": "ĠFol", "8023": "Ġsix", "8024": "Ġstudie", "8025": "ĠThes", "8026": "ĠThese", "8027": "Ġskippi", "8028": "Ġsorte", "8029": "Ġskippin", "8030": "Ġfishi", "8031": "Ġskipping", "8032": "Ġfishin", "8033": "Ġfishing", "8034": "Ġsidew", "8035": "Ġsidewa", "8036": "ĠMag", "8037": "Ġhighes", "8038": "Ġhighest", "8039": "Ġwatches", "8040": "Ġsorted", "8041": "Ġringi", "8042": "Ġringin", "8043": "Ġringing", "8044": "Ġprai", "8045": "Ġtoni", "8046": "Ġtonig", "8047": "Ġtonigh", "8048": "Ġtonight", "8049": "Ġopi", "8050": "Ġopin", "8051": "Ġopini", "8052": "Ġopinio", "8053": "Ġopinion", "8054": "Ġlets", "8055": "Ġprais", "8056": "Ġimmed", "8057": "Ġimmedi", "8058": "Ġsuppos", "8059": "Ġsuppose", "8060": "Ġimmedia", "8061": "Ġimmediat", "8062": "Ġimmediate", "8063": "Ġperfectl", "8064": "Ġperfectly", "8065": "Ġshadows", "8066": "ĠTho", "8067": "Ġimmediatel", "8068": "Ġimmediately", "8069": "Ġcrun", "8070": "Ġcrunc", "8071": "Ġcrunch", "8072": "Ġscru", "8073": "Ġwarmt", "8074": "Ġherbs", "8075": "Ġwarmth", "8076": "ĠMin", "8077": "Ġremaine", "8078": "Ġremained", "8079": "Ġpraise", "8080": "ĠIts", "8081": "Ġden", "8082": "Ġbeat", "8083": "ĠPepp", "8084": "ĠFoll", "8085": "Ġkneele", "8086": "Ġkneeled", "8087": "Ġcontes", "8088": "Ġcontest", "8089": "Ġago", "8090": "Ġusu", "8091": "Ġusua", "8092": "Ġusual", "8093": "Ġspaces", "8094": "ĠTot", "8095": "Ġcartoons", "8096": "Ġsidewal", "8097": "Ġsidewalk", "8098": "Ġcolours", "8099": "Ġstamps", "8100": "ĠToto", "8101": "ĠFollo", "8102": "ĠFollow", "8103": "Ġeast", "8104": "Ġheade", "8105": "Ġheaded", "8106": "Ġladyb", "8107": "Ġfed", "8108": "Ġsupposed", "8109": "Ġroots", "8110": "Ġmixi", "8111": "Ġmixin", "8112": "Ġmixing", "8113": "ĠLea", "8114": "Ġlai", "8115": "Ġdecorations", "8116": "Ġmelti", "8117": "Ġmeltin", "8118": "Ġmelting", "8119": "Ġknown", "8120": "Ġemergen", "8121": "Ġemergenc", "8122": "Ġreste", "8123": "Ġrested", "8124": "Ġlines", "8125": "ĠSuzy", "8126": "Ġlily", "8127": "Ġinstr", "8128": "Ġinstru", "8129": "Ġsetti", "8130": "Ġsettin", "8131": "Ġsetting", "8132": "ĠJuli", "8133": "ĠSlo", "8134": "Ġlaid", "8135": "ĠBot", "8136": "Ġsucceede", "8137": "Ġsucceeded", "8138": "Ġcones", "8139": "Ġapproa", "8140": "Ġapproac", "8141": "Ġapproach", "8142": "ĠSlow", "8143": "Ġstol", "8144": "Ġstole", "8145": "ĠSti", "8146": "Ġstudied", "8147": "Ġstrangers", "8148": "ĠRocky", "8149": "ĠGre", "8150": "Ġtwigs", "8151": "Ġrespons", "8152": "Ġplayt", "8153": "ĠMat", "8154": "Ġtheirs", "8155": "Ġgirls", "8156": "!\",", "8157": "Ġscreams", "8158": "Ġordere", "8159": "Ġordered", "8160": "ĠWin", "8161": "Ġstirri", "8162": "Ġstirrin", "8163": "Ġstirring", "8164": "Ġmoments", "8165": "Ġfields", "8166": "ĠMoo", "8167": "Ġalri", "8168": "Ġalrig", "8169": "Ġalrigh", "8170": "Ġalright", "8171": "Ġsteali", "8172": "Ġstealin", "8173": "Ġstealing", "8174": "Ch", "8175": "ĠCh", "8176": "ĠChi", "8177": "ĠChir", "8178": "ĠChirp", "8179": "ĠChirpy", "8180": "ĠCha", "8181": "ĠChar", "8182": "ĠCharl", "8183": "ĠCharli", "8184": "ĠCharlie", "8185": "ĠChic", "8186": "ĠChick", "8187": "ĠChe", "8188": "Ġachi", "8189": "Ġplayti", "8190": "Ġplaytim", "8191": "Ġplaytime", "8192": "Ġtucke", "8193": "Ġbravel", "8194": "Ġbravely", "8195": "Ġmiste", "8196": "ĠBoth", "8197": "Ġthreat", "8198": "Ġmister", "8199": "ĠSto", "8200": "ĠSky", "8201": "Ġinves", "8202": "Ġinvest", "8203": "ĠPri", "8204": "Ġarea", "8205": "Ġscratched", "8206": "Ġrippe", "8207": "Ġripped", "8208": "Ġinvesti", "8209": "Ġresti", "8210": "Ġinvestig", "8211": "Ġinvestiga", "8212": "Ġinvestigat", "8213": "Ġtucked", "8214": "Ġrestin", "8215": "Ġburni", "8216": "Ġburnin", "8217": "Ġresting", "8218": "Ġburning", "8219": "Ġflip", "8220": "Ġdie", "8221": "Ġturni", "8222": "ĠChicky", "8223": "Ġbridges", "8224": "Ġtex", "8225": "Ġtext", "8226": "Ġbroo", "8227": "Ġtextu", "8228": "Ġtextur", "8229": "Ġtexture", "8230": "Ġsettled", "8231": "Ġmatched", "8232": "Ġachie", "8233": "Ġachiev", "8234": "Ġcreatio", "8235": "Ġcreation", "8236": "Ġinvestigate", "8237": "Ġturnin", "8238": "Ġturning", "8239": "Ġwaits", "8240": "ĠDino", "8241": "ĠAbi", "8242": "ĠFri", "8243": "Ġpossi", "8244": "Ġpossib", "8245": "ĠPeppe", "8246": "Ġtrembli", "8247": "Ġtremblin", "8248": "Ġtrembling", "8249": "ĠPepper", "8250": "Ġnails", "8251": "ĠJame", "8252": "Ġdecis", "8253": "Ġdecisi", "8254": "ĠSomeo", "8255": "ĠSomeon", "8256": "ĠSomeone", "8257": "Ġmuffins", "8258": "Ġmoti", "8259": "Ġdecisio", "8260": "Ġdecision", "8261": "Ġsore", "8262": "Ġstin", "8263": "Ġescaped", "8264": "ĠJames", "8265": "Ġpiles", "8266": "Ġbroom", "8267": "ĠWis", "8268": "Ġladybu", "8269": "Ġladybug", "8270": "Ġsilenc", "8271": "Ġsilence", "8272": "Ġbabi", "8273": "Ġbabie", "8274": "Ġbabies", "8275": "Ġsisters", "8276": "Ġemergency", "8277": "Ġdads", "8278": "Ġanswers", "8279": "Ġkeys", "8280": "Ġscari", "8281": "Ġchewi", "8282": "Ġchewin", "8283": "Ġchewing", "8284": "Ġslappe", "8285": "ĠLat", "8286": "Ġslapped", "8287": "Ġwiz", "8288": "Ġimportanc", "8289": "Ġimportance", "8290": "Ġwiza", "8291": "Ġwizar", "8292": "Ġwizard", "8293": "Ġserved", "8294": "Ġsafet", "8295": "Ġsafety", "8296": "Ġchip", "8297": "ĠLate", "8298": "Wou", "8299": "Woul", "8300": "Would", "8301": "Ġhisse", "8302": "Ġwobble", "8303": "ĠRobb", "8304": "Ġmotio", "8305": "Ġmotion", "8306": "Ġtouchi", "8307": "Ġtouchin", "8308": "Ġtouching", "8309": "Ġsoare", "8310": "ĠLater", "8311": "Ġsoared", "8312": "Ġhen", "8313": "Ġsings", "8314": "Ġplu", "8315": "Ġshopp", "8316": "Ġloos", "8317": "Ġloose", "8318": "Ġachieve", "8319": "Ġkeeps", "8320": "Ġamazem", "8321": "Ġamazeme", "8322": "Ġamazemen", "8323": "Ġamazement", "8324": "Ġchall", "8325": "Ġchalle", "8326": "Ġchallen", "8327": "Ġchalleng", "8328": "Ġhes", "8329": "Ġhesi", "8330": "Ġhesit", "8331": "Ġhesita", "8332": "Ġreveale", "8333": "Ġrevealed", "8334": "Ġite", "8335": "Ġitem", "8336": "Ġdire", "8337": "Ġsoake", "8338": "Ġsoaked", "8339": "Ġdirec", "8340": "Ġdirect", "8341": "ĠAbb", "8342": "Ġtugg", "8343": "Ġrott", "8344": "Ġfoods", "8345": "ĠYes", "8346": "Ġrides", "8347": "Ġdinosaurs", "8348": "Ġtalen", "8349": "Ġtalent", "8350": "Ġruler", "8351": "Ġrecorded", "8352": "Ġspacesh", "8353": "Ġspaceshi", "8354": "Ġspaceship", "8355": "Ġfart", "8356": "Ġleade", "8357": "Ġglowe", "8358": "Ġtrips", "8359": "Ġdowns", "8360": "Ġgus", "8361": "Ġglowed", "8362": "Ġleader", "8363": "Ġgoodn", "8364": "Ġonw", "8365": "Ġonwa", "8366": "Ġonwar", "8367": "Ġonward", "8368": "Ġdownst", "8369": "Ġbeame", "8370": "Ġbeamed", "8371": "Ġcurle", "8372": "Ġcurled", "8373": "Ġhated", "8374": "ĠRac", "8375": "Ġwoode", "8376": "Ġscrub", "8377": "Chi", "8378": "Ġuntie", "8379": "Ġfarth", "8380": "Ġfarthe", "8381": "Ġshoppi", "8382": "Ġshoppin", "8383": "Ġshopping", "8384": "Ġeats", "8385": "ĠBug", "8386": "Ġpraised", "8387": "Ġcrashe", "8388": "ĠStev", "8389": "ĠRol", "8390": "Ġwooden", "8391": "Ġpec", "8392": "Ġdogg", "8393": "Ġbringi", "8394": "Ġbringin", "8395": "Ġbringing", "8396": "Ġthri", "8397": "Ġmittens", "8398": "Ġstudyi", "8399": "Ġstudyin", "8400": "Ġstudying", "8401": "Ġguy", "8402": "ĠAu", "8403": "Ġbrushes", "8404": "Ġcrawli", "8405": "ĠFra", "8406": "Ġgust", "8407": "Ġcrawlin", "8408": "Ġcrawling", "8409": "ĠSometh", "8410": "ĠSomethi", "8411": "ĠSomethin", "8412": "ĠSomething", "8413": "Ġflav", "8414": "Ġflavo", "8415": "Ġdownsta", "8416": "Ġdownstai", "8417": "Ġdownstair", "8418": "Ġdownstairs", "8419": "OK", "8420": "ĠOK", "8421": "Ġshooti", "8422": "Ġshootin", "8423": "Ġshooting", "8424": "Ġtastes", "8425": "Ġnappi", "8426": "Ġnappin", "8427": "Ġnapping", "8428": "Ġsprinkles", "8429": "Ġmarks", "8430": "Ġcuddled", "8431": "Ġdot", "8432": "Ġfut", "8433": "ĠRab", "8434": "Ġfutu", "8435": "Ġfutur", "8436": "Ġfuture", "8437": "Ġmonsters", "8438": "Ġcollectin", "8439": "Ġcollecting", "8440": "Ġactio", "8441": "Ġaction", "8442": "Ġmeasuri", "8443": "Ġmeasurin", "8444": "Ġmeasuring", "8445": "ĠRabb", "8446": "Ġfamilie", "8447": "ĠSteve", "8448": "ĠJon", "8449": "Ġfamilies", "8450": "ĠRabbi", "8451": "ĠFirs", "8452": "ĠFirst", "8453": "Ġthril", "8454": "Ġthrill", "8455": "Ġchallenge", "8456": "Ġslim", "8457": "Ġapproache", "8458": "Ġgrinn", "8459": "Ġapproached", "8460": "ĠRabbit", "8461": "ĠPrin", "8462": "Ġpossibl", "8463": "Ġrubbi", "8464": "Ġcrunchy", "8465": "Ġsneake", "8466": "Ġstripe", "8467": "Ġpett", "8468": "Ġbleedi", "8469": "Ġbleedin", "8470": "Ġbleeding", "8471": "Ġremembers", "8472": "Ġnicer", "8473": "Ġsev", "8474": "Ġseve", "8475": "Ġsneaky", "8476": "Ġdirecti", "8477": "Ġdisturbe", "8478": "Ġdisturbed", "8479": "Ġdirectio", "8480": "Ġdirection", "8481": "ĠHope", "8482": "ĠBec", "8483": "Ġscarin", "8484": "Ġscaring", "8485": "ĠNot", "8486": "ĠFlo", "8487": "ĠFran", "8488": "Ġcoug", "8489": "Ġboom", "8490": "Ġnoon", "8491": "Ġpeel", "8492": "Ġsting", "8493": "Ġbehavi", "8494": "Ġfireme", "8495": "Ġfiremen", "8496": "Ġcough", "8497": "Ġneighborh", "8498": "Ġneighborho", "8499": "Ġneighborhoo", "8500": "Ġneighborhood", "8501": "Ġgrey", "8502": "Ġprop", "8503": "Ġscu", "8504": "Ġpossible", "8505": "Ġweighe", "8506": "Ġapologized", "8507": "Ġzook", "8508": "Ġzooke", "8509": "Ġzookee", "8510": "Ġzookeep", "8511": "Ġzookeepe", "8512": "Ġzookeeper", "8513": "Ġweighed", "8514": "ĠDid", "8515": "Ġtickets", "8516": "Ġnaps", "8517": "Ġprid", "8518": "Ġpride", "8519": "Ġyout", "8520": "Ġyouth", "8521": "ĠRoll", "8522": "Ġswims", "8523": "Ġcrum", "8524": "Ġstrings", "8525": "Ġslowe", "8526": "Ġrecognized", "8527": "Ġbud", "8528": "Ġsire", "8529": "Ġpoki", "8530": "Ġpokin", "8531": "Ġsiren", "8532": "Ġpoking", "8533": "Ġtricke", "8534": "Ġwonders", "8535": "Ġtricked", "8536": "Ġgaine", "8537": "Ġgained", "8538": "Ġwanti", "8539": "Ġwantin", "8540": "Ġwanting", "8541": "Ġcrashed", "8542": "Ġobey", "8543": "Ġseesa", "8544": "Ġseesaw", "8545": "Ġzoomi", "8546": "Ġzoomin", "8547": "Ġef", "8548": "Ġeff", "8549": "ĠZ", "8550": "ĠZo", "8551": "ĠZoo", "8552": "ĠZoom", "8553": "ĠZi", "8554": "ĠZip", "8555": "ĠZoomy", "8556": "ĠZa", "8557": "ĠZig", "8558": "ĠZar", "8559": "ĠZara", "8560": "ĠZe", "8561": "ĠZoe", "8562": "ĠZigz", "8563": "ĠZigza", "8564": "ĠZigzag", "8565": "Ġscoope", "8566": "Ġdraws", "8567": "Ġprec", "8568": "Ġscooped", "8569": "Ġzooming", "8570": "Ġglit", "8571": "Ġyelli", "8572": "Ġyellin", "8573": "Ġyelling", "8574": "Ġpeck", "8575": "Ġglitt", "8576": "Ġglitte", "8577": "Ġglitter", "8578": "Ġprepared", "8579": "Ġgrinne", "8580": "Ġgrinned", "8581": "ĠSlowl", "8582": "ĠSlowly", "8583": "Ġpoems", "8584": "Ġdoggy", "8585": "ĠBli", "8586": "Ġactin", "8587": "Ġacting", "8588": "ĠBeep", "8589": "Ġkeepe", "8590": "Ġkeeper", "8591": "Ġhappies", "8592": "Ġhappiest", "8593": "Ġchef", "8594": "Ġsneaked", "8595": "Ġresponsi", "8596": "ĠMou", "8597": "Ġresponsib", "8598": "ĠAlw", "8599": "ĠAlwa", "8600": "ĠAlway", "8601": "ĠAlways", "8602": "Ġbunni", "8603": "Ġbunnie", "8604": "ĠLizzy", "8605": "Ġowned", "8606": "Ġbunnies", "8607": "Ġlap", "8608": "Ġanyti", "8609": "Ġanytim", "8610": "Ġanytime", "8611": "ĠJessi", "8612": "Ġstruck", "8613": "Ġknel", "8614": "Ġpedals", "8615": "ĠBre", "8616": "Ġknelt", "8617": "Ġconta", "8618": "Ġsecrets", "8619": "ĠBlin", "8620": "ĠBlink", "8621": "Ġdecorated", "8622": "Ġtravele", "8623": "Ġhorns", "8624": "Ġpreci", "8625": "Ġagreem", "8626": "Ġagreeme", "8627": "Ġagreemen", "8628": "Ġagreement", "8629": "Ġfros", "8630": "Ġfrost", "8631": "Ġtalles", "8632": "Ġtallest", "8633": "ĠStop", "8634": "Ġcons", "8635": "Car", "8636": "Ġcelebrati", "8637": "Ġdecides", "8638": "Ġsparkli", "8639": "ĠOnce", "8640": "Ġbehaved", "8641": "Ġcrumb", "8642": "Ġtugge", "8643": "Ġtugged", "8644": "Ġsides", "8645": "Ġpolishe", "8646": "Ġwoof", "8647": "Ġcatche", "8648": "Ġsparklin", "8649": "Ġgoodni", "8650": "Ġgoodnig", "8651": "Ġgoodnigh", "8652": "Ġgoodnight", "8653": "ĠWel", "8654": "Ġsparkling", "8655": "Ġchirpe", "8656": "Ġchirped", "8657": "Ġprecio", "8658": "Ġpreciou", "8659": "Ġprecious", "8660": "ĠWoo", "8661": "Ġrepeate", "8662": "Ġrepeated", "8663": "Ġclaps", "8664": "Ġsnowballs", "8665": "Ġcontai", "8666": "Ġcontain", "8667": "ĠMous", "8668": "ĠRay", "8669": "ĠPrinc", "8670": "Ġkindl", "8671": "Ġourse", "8672": "Ġoursel", "8673": "ĠPrince", "8674": "Ġourselv", "8675": "Ġourselve", "8676": "Ġourselves", "8677": "ĠFrie", "8678": "Ġdivi", "8679": "Ġgiraffes", "8680": "ĠMagg", "8681": "Ġcompan", "8682": "Ġbalanci", "8683": "Ġbalancin", "8684": "Ġbalancing", "8685": "ĠFrien", "8686": "ĠFriend", "8687": "Ġkindly", "8688": "Ġalie", "8689": "Ġalien", "8690": "Ġspendi", "8691": "Ġspendin", "8692": "Ġspending", "8693": "Ġwrites", "8694": "Ġactiv", "8695": "ĠAv", "8696": "ĠLik", "8697": "ĠLike", "8698": "Ġ-", "8699": "Ġhissed", "8700": "Ġfrozen", "8701": "Ġfrosti", "8702": "Ġfrostin", "8703": "Ġfrosting", "8704": "ĠGree", "8705": "Ġbesi", "8706": "Ġeffo", "8707": "Ġeffor", "8708": "Ġeffort", "8709": "Ġbesid", "8710": "Ġbeside", "8711": "Ġflavor", "8712": "Ġbuzzi", "8713": "Ġbuzzin", "8714": "Ġbuzzing", "8715": "Ġstruggled", "8716": "Ġadmiri", "8717": "Ġadmirin", "8718": "Ġadmiring", "8719": "Ġsweeties", "8720": "Ġslimy", "8721": "Ġtos", "8722": "Ġcircu", "8723": "ĠSpr", "8724": "ĠBal", "8725": "Ġbrushed", "8726": "Ġtoss", "8727": "Ġbloome", "8728": "Ġbloomed", "8729": "Ġpolished", "8730": "Ġrocki", "8731": "Ġrockin", "8732": "Ġcomfy", "8733": "Ġstayi", "8734": "Ġstayin", "8735": "Ġstaying", "8736": "Ġrubbin", "8737": "Ġprayer", "8738": "Ġmate", "8739": "Ġrubbing", "8740": "Ġrocking", "8741": "Ġpockets", "8742": "Ġthrille", "8743": "Ġthrilled", "8744": "Ġpeer", "8745": "ĠHoo", "8746": "ĠAun", "8747": "ĠAunt", "8748": "Ġearli", "8749": "Ġearlie", "8750": "Ġdragg", "8751": "ĠMaggi", "8752": "ĠMaggie", "8753": "Ġeig", "8754": "Ġeigh", "8755": "Ġeight", "8756": "Ġmachines", "8757": "Ġearlier", "8758": "Ġyest", "8759": "Ġyeste", "8760": "Ġyester", "8761": "Ġyesterd", "8762": "Ġyesterda", "8763": "Ġyesterday", "8764": "Ġseems", "8765": "Ġsqueak", "8766": "Ġrust", "8767": "Ġtraveled", "8768": "Ġfoldi", "8769": "Ġfoldin", "8770": "Ġfolding", "8771": "Ġcontr", "8772": "Ġdarke", "8773": "ĠRach", "8774": "Ġopeni", "8775": "Ġopenin", "8776": "Ġopening", "8777": "Ġprotecti", "8778": "Ġcracked", "8779": "Ġhuggi", "8780": "Ġhuggin", "8781": "Ġhugging", "8782": "Ġcurios", "8783": "Ġloade", "8784": "ĠDavi", "8785": "ĠStit", "8786": "ĠStitc", "8787": "ĠStitch", "8788": "Ġradishe", "8789": "Ġradishes", "8790": "Ġcuriosi", "8791": "Ġcuriosit", "8792": "Ġlovi", "8793": "Ġcircus", "8794": "Ġlovin", "8795": "Ġloving", "8796": "Ġsurrounde", "8797": "Ġsurrounded", "8798": "Ġsprayi", "8799": "Ġcuriosity", "8800": "Ġsuppli", "8801": "Ġsprayin", "8802": "ĠRache", "8803": "ĠRachel", "8804": "Ġsupplie", "8805": "Ġspraying", "8806": "Ġdemande", "8807": "Ġdemanded", "8808": "Ġpaintings", "8809": "ĠGreen", "8810": "Ġremoved", "8811": "Ġpebbles", "8812": "Ġhardl", "8813": "Ġhardly", "8814": "Ġcatches", "8815": "Ġdipp", "8816": "Ġstripes", "8817": "Ġpowers", "8818": "Ġloaded", "8819": "ĠPippa", "8820": "Ġsplashes", "8821": "Ġpots", "8822": "ĠBree", "8823": "Ġpette", "8824": "Ġpetted", "8825": "Ġmatchi", "8826": "Ġmatchin", "8827": "Ġmatching", "8828": "ĠDavid", "8829": "Ġbelly", "8830": "Ġcomforte", "8831": "Ġwhate", "8832": "Ġwhatev", "8833": "Ġwhateve", "8834": "Ġwhatever", "8835": "Ġrocked", "8836": "Ġcomforted", "8837": "Ġpartie", "8838": "ĠFor", "8839": "Ġty", "8840": "Ġeagl", "8841": "Ġeagle", "8842": "Ġribbons", "8843": "Ġprope", "8844": "ĠJoy", "8845": "ĠBirdi", "8846": "ĠBirdie", "8847": "Ġsled", "8848": "Ġstruggli", "8849": "Ġstrugglin", "8850": "Ġmer", "8851": "Ġwed", "8852": "Ġstruggling", "8853": "Ġbraver", "8854": "ĠFriends", "8855": "Ġexpecte", "8856": "Ġexpected", "8857": "ĠFu", "8858": "Ġreas", "8859": "Ġsteep", "8860": "Ġprotecte", "8861": "Ġprotected", "8862": "Ġneighbors", "8863": "Ġsmiley", "8864": "Ġchases", "8865": "Ġdivin", "8866": "Ġgrante", "8867": "Ġgranted", "8868": "Ġroads", "8869": "Ġpurre", "8870": "Ġpurred", "8871": "Ġdiving", "8872": "Ġunf", "8873": "Ġsunl", "8874": "Ġsunli", "8875": "Ġsadn", "8876": "Ġsadne", "8877": "Ġsadnes", "8878": "Ġsadness", "8879": "Ġdippe", "8880": "Ġorganizi", "8881": "Ġorganizin", "8882": "Ġorganizing", "8883": "ĠLen", "8884": "ĠAbig", "8885": "ĠAbiga", "8886": "Ġheroe", "8887": "Ġheroes", "8888": "Ġdipped", "8889": "Ġsunlig", "8890": "Ġsunligh", "8891": "Ġsunlight", "8892": "Ġlied", "8893": "Ġpastels", "8894": "Ġlowe", "8895": "ĠFrank", "8896": "Ġbeard", "8897": "Ġsafer", "8898": "ĠSpl", "8899": "Ġscrubb", "8900": "Ġargued", "8901": "ĠMilly", "8902": "Ġdam", "8903": "Ol", "8904": "ĠOl", "8905": "ĠOll", "8906": "ĠOlli", "8907": "ĠOllie", "8908": "ĠOli", "8909": "ĠOliv", "8910": "ĠOlive", "8911": "Oll", "8912": "Olli", "8913": "Ollie", "8914": "Ġsinge", "8915": "ĠTwi", "8916": "Ġgoals", "8917": "Ġwedd", "8918": "Ġweddi", "8919": "Ġweddin", "8920": "Ġwedding", "8921": "Ġstrok", "8922": "Ġdiscovery", "8923": "Ġbackw", "8924": "Ġbackwa", "8925": "Ġbackwar", "8926": "Ġbackward", "8927": "ĠAbigai", "8928": "ĠAbigail", "8929": "Ġvillager", "8930": "Ġpeere", "8931": "Ġpeered", "8932": "Ġchop", "8933": "ĠBouncy", "8934": "Ġsinger", "8935": "ĠChr", "8936": "Ġdragons", "8937": "Ġbuildings", "8938": "Ġbuckets", "8939": "Ġparties", "8940": "Ġsob", "8941": "Ġflutt", "8942": "Ġflutte", "8943": "Ġflutter", "8944": "Ġann", "8945": "Ġplanets", "8946": "Ġdarl", "8947": "Ġdarli", "8948": "Ġdarlin", "8949": "Ġdarling", "8950": "ĠGog", "8951": "ĠRobby", "8952": "Ġpolishi", "8953": "Ġpolishin", "8954": "Ġpolishing", "8955": "Ġfasc", "8956": "Ġfasci", "8957": "Ġfascin", "8958": "Ġfascina", "8959": "Ġfascinat", "8960": "ĠChri", "8961": "Ġreleased", "8962": "Ġdeserv", "8963": "ĠChris", "8964": "Ġdeserve", "8965": "Ġcrabs", "8966": "ĠGogo", "8967": "Ġtails", "8968": "ĠGa", "8969": "ĠSpri", "8970": "ĠJos", "8971": "Ġsausages", "8972": "Ġcontro", "8973": "Ġcontrol", "8974": "Ġbottles", "8975": "Ġwiggled", "8976": "Ġteased", "8977": "Ġbadg", "8978": "Ġbadge", "8979": "Ġargui", "8980": "Ġarguin", "8981": "Ġarguing", "8982": "Ġdragge", "8983": "Ġdragged", "8984": "Ġroari", "8985": "Ġroarin", "8986": "Ġroaring", "8987": "Ġcleari", "8988": "Ġclearin", "8989": "Ġclearing", "8990": "Ġtune", "8991": "Ġgatheri", "8992": "Ġgatherin", "8993": "Ġgathering", "8994": "Ġshirts", "8995": "Ġmovies", "8996": "Ġactu", "8997": "Ġactua", "8998": "Ġactual", "8999": "ĠSprin", "9000": "Ġairpl", "9001": "Ġairpla", "9002": "Ġairplan", "9003": "Ġairplane", "9004": "Ġbead", "9005": "Ġmane", "9006": "ĠSpla", "9007": "Ġteaches", "9008": "Ġspiders", "9009": "ĠSplas", "9010": "ĠSplash", "9011": "ĠReme", "9012": "ĠRemem", "9013": "ĠRememb", "9014": "Ġlimes", "9015": "Ġrefre", "9016": "Ġrefres", "9017": "Ġrefresh", "9018": "Ġoverj", "9019": "Ġoverjo", "9020": "Ġoverjoy", "9021": "ĠRemembe", "9022": "ĠRemember", "9023": "ĠDare", "9024": "Ġexplorer", "9025": "Ġoverjoye", "9026": "Ġoverjoyed", "9027": "Ġactuall", "9028": "ĠBall", "9029": "Ġactually", "9030": "Ġsighs", "9031": "Ġsoari", "9032": "Ġsoarin", "9033": "Ġsoaring", "9034": "Ġsmalles", "9035": "Ġsmallest", "9036": "Ġdrives", "9037": "Ġlower", "9038": "Ġsparkles", "9039": "Ġsitu", "9040": "Ġsitua", "9041": "Ġsituat", "9042": "Ġcubes", "9043": "Ġgrandmo", "9044": "ĠPup", "9045": "ĠOlly", "9046": "Ġproper", "9047": "Ġsituati", "9048": "Ġsituatio", "9049": "Ġsituation", "9050": "Ġgrandmot", "9051": "Ġgrandmoth", "9052": "Ġgrandmothe", "9053": "Ġgrandmother", "9054": "Ġpouri", "9055": "Ġpourin", "9056": "Ġpouring", "9057": "ĠPea", "9058": "Ġpretends", "9059": "Ġbank", "9060": "ĠHip", "9061": "Ġcuts", "9062": "Ġquarreli", "9063": "Ġquarrelin", "9064": "ĠHipp", "9065": "Ġquarreling", "9066": "Ġpeppers", "9067": "Ġshivere", "9068": "Ġshivered", "9069": "ĠBar", "9070": "ĠHol", "9071": "Ġdusty", "9072": "ĠEar", "9073": "ĠFis", "9074": "Ġstretchi", "9075": "Ġwonderi", "9076": "Ġwonderin", "9077": "Ġwondering", "9078": "Ġvillagers", "9079": "Ġstroke", "9080": "Ġstretchin", "9081": "Ġstretching", "9082": "ĠMic", "9083": "Ġweeks", "9084": "'l", "9085": "'ll", "9086": "Ġresponsibl", "9087": "Ġwherev", "9088": "Ġwhereve", "9089": "Ġwherever", "9090": "Ġdarker", "9091": "Ġyounge", "9092": "Ġsmarte", "9093": "Ġrings", "9094": "Ġonwards", "9095": "Ġbegi", "9096": "Ġbegin", "9097": "ĠFish", "9098": "Ġunited", "9099": "Ġpretties", "9100": "ĠEveryd", "9101": "ĠEveryda", "9102": "ĠEveryday", "9103": "ĠBei", "9104": "ĠBein", "9105": "ĠBeing", "9106": "Ġprettiest", "9107": "Ġcaut", "9108": "Ġcauti", "9109": "Ġcautio", "9110": "Ġmarker", "9111": "Ġstomp", "9112": "Ġdesti", "9113": "Ġdestin", "9114": "Ġcompany", "9115": "Ġpenguins", "9116": "Ġanno", "9117": "ĠSpring", "9118": "ĠLeav", "9119": "Ġbedt", "9120": "Ġbedti", "9121": "Ġbedtim", "9122": "Ġbedtime", "9123": "Ġcompleted", "9124": "ĠWisd", "9125": "ĠWisdo", "9126": "ĠWisdom", "9127": "Ġperc", "9128": "Ġgott", "9129": "ĠLeave", "9130": "Ġperch", "9131": "âĢĿ.", "9132": "Ġknights", "9133": "Ġinstruc", "9134": "Ġinstruct", "9135": "Ġflags", "9136": "ĠBeca", "9137": "ĠBecau", "9138": "ĠBecaus", "9139": "ĠBecause", "9140": "Ġtwinkle", "9141": "Ġplayr", "9142": "Ġplayro", "9143": "Ġplayroo", "9144": "Ġplayroom", "9145": "Ġactions", "9146": "ĠZer", "9147": "ĠZero", "9148": "Ġlearns", "9149": "Ġheale", "9150": "ĠLin", "9151": "Ġgotte", "9152": "Ġgotten", "9153": "ĠAva", "9154": "Ġpatienc", "9155": "Ġpatience", "9156": "Ġtwe", "9157": "Ġreminder", "9158": "Ġsobb", "9159": "Ġkites", "9160": "Ġconfi", "9161": "ĠRic", "9162": "Ġresponsible", "9163": "Ġfears", "9164": "Ġdestina", "9165": "Ġdestinat", "9166": "Ġdestinati", "9167": "Ġdestinatio", "9168": "Ġdestination", "9169": "Ġfaul", "9170": "Ġfault", "9171": "Ġwires", "9172": "Ġreply", "9173": "Ġmountains", "9174": "ĠSur", "9175": "Ġwris", "9176": "Ġwrist", "9177": "Ġpacki", "9178": "Ġpackin", "9179": "Ġpacking", "9180": "Ġapplaude", "9181": "Ġapplauded", "9182": "Ġscrubbe", "9183": "Ġscrubbed", "9184": "Ġcrep", "9185": "Ġcrept", "9186": "ĠEart", "9187": "ĠEarth", "9188": "Ġsticki", "9189": "Ġsati", "9190": "Ġsatis", "9191": "ĠSqui", "9192": "Ġsatisf", "9193": "Ġclic", "9194": "Ġclick", "9195": "ĠLou", "9196": "Ġawak", "9197": "Ġawake", "9198": "ĠSna", "9199": "Ġpassi", "9200": "Ġthird", "9201": "Ġacco", "9202": "Ġpencils", "9203": "Ġwins", "9204": "Ġstickin", "9205": "Ġconfid", "9206": "Ġsticking", "9207": "Ġconfide", "9208": "Ġvisiti", "9209": "Ġvisitin", "9210": "Ġvisiting", "9211": "Ġconfiden", "9212": "Ġwoun", "9213": "Ġwound", "9214": "Ġuses", "9215": "Ġpeas", "9216": "Ġsens", "9217": "Ġhitt", "9218": "ĠPut", "9219": "Ġjoki", "9220": "Ġjokin", "9221": "Ġjoking", "9222": "Ġstari", "9223": "Ġstarin", "9224": "Ġdent", "9225": "Ġstaring", "9226": "Ġhealed", "9227": "Chir", "9228": "Chirp", "9229": "Ġunic", "9230": "Ġhitti", "9231": "Ġhittin", "9232": "Ġhitting", "9233": "ĠBeh", "9234": "Ġscreami", "9235": "Ġscreamin", "9236": "Ġscreaming", "9237": "Ġbene", "9238": "Ġrum", "9239": "Ġscur", "9240": "Ġdiscoveri", "9241": "Ġcrowd", "9242": "Ġclue", "9243": "Ġswoo", "9244": "ĠTre", "9245": "Cha", "9246": "Ġhelmets", "9247": "Ġunico", "9248": "Ġunicor", "9249": "Ġunicorn", "9250": "Ġcopy", "9251": "Ġseven", "9252": "Ġtowels", "9253": "Ġscurr", "9254": "Ġchips", "9255": "Ġchat", "9256": "Ġwasted", "9257": "Ġguns", "9258": "ĠJulie", "9259": "ĠBehi", "9260": "ĠBehin", "9261": "ĠBehind", "9262": "Ġoutd", "9263": "Ġmasks", "9264": "Ġoutdo", "9265": "Ġitems", "9266": "Ġinstructi", "9267": "Ġfirefi", "9268": "Ġfirefig", "9269": "Ġfirefigh", "9270": "Ġfirefight", "9271": "ĠAd", "9272": "Ġlollipops", "9273": "Ġinstructio", "9274": "Ġinstruction", "9275": "Ġheavi", "9276": "Ġhesitat", "9277": "Ġfirefighte", "9278": "Ġfirefighter", "9279": "Ġdied", "9280": "ĠHippy", "9281": "Ġdama", "9282": "Ġdamag", "9283": "Yea", "9284": "Ġperche", "9285": "Ġcloses", "9286": "Ġweren", "9287": "Whist", "9288": "Whistl", "9289": "Ġscales", "9290": "Whee", "9291": "Ġperched", "9292": "Ġaccom", "9293": "Ġpractici", "9294": "Ġlogs", "9295": "Ġwhos", "9296": "Ġpracticin", "9297": "Ġpracticing", "9298": "Ġaccomp", "9299": "Ġwhose", "9300": "Ġcandi", "9301": "ĊĠ", "9302": "Ġpumpkins", "9303": "Ġproj", "9304": "Ġproje", "9305": "Ġprojec", "9306": "Ġproject", "9307": "Ġinstructions", "9308": "Ġcandie", "9309": "Ġswoop", "9310": "Ġbatteri", "9311": "Ġbatterie", "9312": "Ġbatteries", "9313": "Hen", "9314": "Ġdrums", "9315": "Ġcandies", "9316": "Ġagrees", "9317": "Ġsnakes", "9318": "Ġchirpi", "9319": "Ġchirpin", "9320": "Ġchirping", "9321": "Ġdamage", "9322": "Ġoutdoo", "9323": "Ġoutdoor", "9324": "Ġshelv", "9325": "Ġshelve", "9326": "Ġshelves", "9327": "Ġprotectin", "9328": "Ġprotecting", "9329": "Ġexac", "9330": "Ġparke", "9331": "Ġparked", "9332": "Ġexact", "9333": "Ġstude", "9334": "Ġstuden", "9335": "Ġstudent", "9336": "Ġpatientl", "9337": "Ġpatiently", "9338": "Ġvideos", "9339": "Ġshoulders", "9340": "ĠMon", "9341": "ĠGru", "9342": "ĠSke", "9343": "ĠSkel", "9344": "Ġblows", "9345": "Ġpromises", "9346": "Ġuns", "9347": "ĠSc", "9348": "Ġamo", "9349": "ĠBop", "9350": "Ġexamined", "9351": "Ġroses", "9352": "Ġbunc", "9353": "Ġbunch", "9354": "Ġaccompl", "9355": "Ġaccompli", "9356": "Ġaccomplis", "9357": "Ġaccomplish", "9358": "ĠSor", "9359": "Ġtasks", "9360": "ĠLov", "9361": "Ġaddi", "9362": "ĠHoot", "9363": "ĠToo", "9364": "ĠSquir", "9365": "Ġbeads", "9366": "ĠCatt", "9367": "Ġbowls", "9368": "Ġcheeri", "9369": "Ġcrumbs", "9370": "Ġperforme", "9371": "ĠLove", "9372": "Ġstun", "9373": "Ġlistens", "9374": "Ha", "9375": "ĠHa", "9376": "ĠHav", "9377": "ĠHave", "9378": "ĠHar", "9379": "ĠHarr", "9380": "ĠHarry", "9381": "Hap", "9382": "Happ", "9383": "Happy", "9384": "ĠHap", "9385": "ĠHapp", "9386": "ĠHappy", "9387": "Hav", "9388": "Have", "9389": "ĠHan", "9390": "ĠCatty", "9391": "ĠBrowni", "9392": "ĠBrownie", "9393": "Ġdolphins", "9394": "Ġguest", "9395": "Ġremot", "9396": "Ġremote", "9397": "Ġtapp", "9398": "Ġrequeste", "9399": "Ġrequested", "9400": "Ġpolicem", "9401": "Ġimproved", "9402": "Ġreachi", "9403": "Ġreachin", "9404": "Ġreaching", "9405": "Ġbrand", "9406": "Ġactivi", "9407": "Ġactivit", "9408": "ĠBye", "9409": "Ġphotos", "9410": "Ġcheerin", "9411": "Ġcheering", "9412": "Hol", "9413": "Ġrobb", "9414": "ĠChew", "9415": "Ġrobbe", "9416": "Ġster", "9417": "Ġcans", "9418": "ĠSquirr", "9419": "ĠSquirre", "9420": "ĠSquirrel", "9421": "Whistle", "9422": "Ġtimer", "9423": "Ġstern", "9424": "Ġreplaced", "9425": "ĠBigg", "9426": "Ġworkers", "9427": "Ġadu", "9428": "Ġadul", "9429": "Ġadult", "9430": "ĠEnj", "9431": "ĠEnjo", "9432": "ĠEnjoy", "9433": "Ġmissio", "9434": "Ġmission", "9435": "Of", "9436": "Ġneit", "9437": "Ġneith", "9438": "Ġneithe", "9439": "Ġneither", "9440": "Ġaim", "9441": "Ġrecordi", "9442": "Ġrecordin", "9443": "Ġrecording", "9444": "Ġpaj", "9445": "Ġpaja", "9446": "Ġpajam", "9447": "Ġpajama", "9448": "ĠWink", "9449": "Ġpuppe", "9450": "Ġsquis", "9451": "Ġsquish", "9452": "Ġsofte", "9453": "Ġpuppet", "9454": "Ġpassin", "9455": "Ġpassing", "9456": "Ġmisses", "9457": "Ġcurtains", "9458": "Ġdrip", "9459": "Ġconfl", "9460": "Ġconfli", "9461": "Ġconflic", "9462": "Ġconflict", "9463": "Chirpy", "9464": "Ġrainbows", "9465": "ĠThom", "9466": "Ġrubs", "9467": "ĠPrinces", "9468": "ĠPrincess", "9469": "Ġrolls", "9470": "Ġpatted", "9471": "ĠGrum", "9472": "Ġpajamas", "9473": "Ġoutdoors", "9474": "Ġcomplaini", "9475": "Ġcomplainin", "9476": "Ġcomplaining", "9477": "Ġawes", "9478": "Ġstead", "9479": "Ġfilli", "9480": "Ġfillin", "9481": "Ġfilling", "9482": "Ġbenea", "9483": "Ġbeneat", "9484": "Ġbeneath", "9485": "Ġwarme", "9486": "Ġbare", "9487": "ĠBeth", "9488": "ĠMouse", "9489": "ĠSorr", "9490": "ĠSorry", "9491": "Ġfaced", "9492": "Ġrobber", "9493": "Ġbalanced", "9494": "Ġquacke", "9495": "ĠDot", "9496": "Ġcheat", "9497": "Ġrescued", "9498": "Ġquacked", "9499": "ĠAbby", "9500": "Ġrumb", "9501": "Ġrumbl", "9502": "Ġvent", "9503": "Ġaweso", "9504": "Ġawesom", "9505": "Ġawesome", "9506": "ĠHowe", "9507": "ĠHowev", "9508": "ĠHoweve", "9509": "ĠHowever", "9510": "Ġrelu", "9511": "Ġreluc", "9512": "Ġreluct", "9513": "Ġrelucta", "9514": "Ġreluctan", "9515": "Ġguys", "9516": "Ġcautiou", "9517": "Ġcautious", "9518": "Ġobserved", "9519": "ĠThoma", "9520": "ĠThomas", "9521": "Ġcracker", "9522": "Ġpastri", "9523": "Ġpastrie", "9524": "Ġpastries", "9525": "Ġdesert", "9526": "Ġbuzze", "9527": "Ġreluctant", "9528": "ĠGrump", "9529": "Ġexactl", "9530": "Ġexactly", "9531": "Ġdoctors", "9532": "Ġbecomi", "9533": "Ġbecomin", "9534": "Ġbecoming", "9535": "Ġpolicema", "9536": "Ġpoliceman", "9537": "Ġventu", "9538": "Ġventur", "9539": "Ġrockets", "9540": "Ġfairi", "9541": "Ġfairie", "9542": "ĠTak", "9543": "Char", "9544": "Ġthor", "9545": "Ġfairies", "9546": "Ġpout", "9547": "Ġtang", "9548": "Ġtract", "9549": "Ġbloomi", "9550": "Ġbloomin", "9551": "Ġblooming", "9552": "Ġtracto", "9553": "Ġtractor", "9554": "Ġfarther", "9555": "Ġcomm", "9556": "ĠSad", "9557": "Henr", "9558": "Ġrememberi", "9559": "Ġrememberin", "9560": "Ġremembering", "9561": "Ġincluded", "9562": "Ġcurly", "9563": "Ġfirm", "9564": "Ġteamw", "9565": "Ġteamwo", "9566": "Ġteamwor", "9567": "Ġteamwork", "9568": "Ġsights", "9569": "Ġfascinate", "9570": "Ġfascinated", "9571": "Ġwobbled", "9572": "Ġslam", "9573": "Ġtrul", "9574": "Ġtruly", "9575": "Charl", "9576": "Ġhelpers", "9577": "ĠMatt", "9578": "Ġstarf", "9579": "Henry", "9580": "Ġspon", "9581": "ĠJilly", "9582": "ĠDee", "9583": "Ġcaused", "9584": "Ġventure", "9585": "Ġast", "9586": "Ġspong", "9587": "Hop", "9588": "ĠStr", "9589": "ĠBon", "9590": "Ġstarfi", "9591": "Ġstarfis", "9592": "Ġstarfish", "9593": "Ġtraded", "9594": "Ġsupplies", "9595": "Ġsponge", "9596": "Ġtables", "9597": "Ġthroa", "9598": "Ġthroat", "9599": "Ġthorn", "9600": "Ġpointy", "9601": "Ġinviti", "9602": "Ġinvitin", "9603": "Ġinviting", "9604": "ĠBlo", "9605": "Ġneighbourh", "9606": "Ġneighbourho", "9607": "Ġneighbourhoo", "9608": "Ġneighbourhood", "9609": "Ġeveryd", "9610": "Ġeveryda", "9611": "Ġeveryday", "9612": "Ġornaments", "9613": "ĠAlly", "9614": "Ġvow", "9615": "Ġvalued", "9616": "Ġaddin", "9617": "Ġadding", "9618": "ĠLas", "9619": "Ġreluctantl", "9620": "Ġreluctantly", "9621": "Ġgems", "9622": "Ġdots", "9623": "Ġstays", "9624": "Ġprettier", "9625": "ĠKid", "9626": "ĠJami", "9627": "Ġsnowme", "9628": "Ġsnowmen", "9629": "ĠAsh", "9630": "Ġsteady", "9631": "Ġminerals", "9632": "Ġglasse", "9633": "Ġglasses", "9634": "Ġfara", "9635": "Ġfaraw", "9636": "Ġfarawa", "9637": "Ġfaraway", "9638": "ĠWelc", "9639": "ĠWelco", "9640": "Ġwinke", "9641": "Ġdolla", "9642": "Ġdollar", "9643": "ĠGet", "9644": "ĠFoxy", "9645": "ĠChl", "9646": "ĠChlo", "9647": "Ġfoc", "9648": "Ġfocu", "9649": "Ġfocus", "9650": "Ġswoope", "9651": "Ġswooped", "9652": "ĠWelcom", "9653": "ĠWelcome", "9654": "ĠTwo", "9655": "ĠSure", "9656": "Ġnin", "9657": "Ġforks", "9658": "ĠGin", "9659": "Ġusuall", "9660": "Ġusually", "9661": "ĠJamie", "9662": "Ġwinked", "9663": "Ġsneezi", "9664": "Ġsneezin", "9665": "Ġsneezing", "9666": "Ġsolu", "9667": "Ġsolut", "9668": "Ġsoluti", "9669": "Ġsolutio", "9670": "Ġsolution", "9671": "Ġloadi", "9672": "Ġloadin", "9673": "Ġloading", "9674": "Ġinsects", "9675": "Ġcen", "9676": "Ġcent", "9677": "Ġpans", "9678": "ĠSant", "9679": "Ġlibrari", "9680": "Ġstartl", "9681": "Ġheavie", "9682": "Ġsobbe", "9683": "Ġsobbed", "9684": "ĠSanta", "9685": "Ġgrowli", "9686": "Ġgrowlin", "9687": "Ġgrowling", "9688": "ĠChloe", "9689": "Ġsurfa", "9690": "Ġsurfac", "9691": "Ġnoses", "9692": "ĠJosh", "9693": "Ġsurface", "9694": "Ġhomew", "9695": "Ġscarv", "9696": "Ġscarve", "9697": "Ġnine", "9698": "ĠDiz", "9699": "ĠDizz", "9700": "ĠDizzy", "9701": "Ġscarves", "9702": "Ġconfident", "9703": "ĠJud", "9704": "Ġyourselv", "9705": "Ġyourselve", "9706": "Ġyourselves", "9707": "Ġhomewo", "9708": "Ġhomewor", "9709": "Ġhomework", "9710": "Ġsuperheroe", "9711": "Ġsuperheroes", "9712": "ĠStay", "9713": "Ġmast", "9714": "ĠSw", "9715": "ĠTree", "9716": "Ġsmarter", "9717": "Ġwindy", "9718": "Ġlibraria", "9719": "Ġlibrarian", "9720": "ĠLio", "9721": "ĠLion", "9722": "ĠKids", "9723": "Ġdef", "9724": "Wa", "9725": "ĠWa", "9726": "Wai", "9727": "Wait", "9728": "ĠWat", "9729": "ĠWal", "9730": "ĠWall", "9731": "ĠWally", "9732": "ĠWate", "9733": "ĠWater", "9734": "ĠWatc", "9735": "ĠWatch", "9736": "Wat", "9737": "Watc", "9738": "Watch", "9739": "ĠWan", "9740": "ĠWant", "9741": "..\"", "9742": "Ġundern", "9743": "Ġunderne", "9744": "Ġundernea", "9745": "Ġunderneat", "9746": "Ġunderneath", "9747": "Ġkicks", "9748": "Ġknowl", "9749": "Ġknowle", "9750": "Ġsnat", "9751": "Ġsnatc", "9752": "Ġsnatch", "9753": "Ġknowled", "9754": "Ġknowledg", "9755": "Ġitchy", "9756": "Ġknowledge", "9757": "Ġjackets", "9758": "...\"", "9759": "Ġtangl", "9760": "ĠPaw", "9761": "Ġdesp", "9762": "ĠSkell", "9763": "ĠSkelly", "9764": "Ġtangle", "9765": "Yeah", "9766": "Ġstartle", "9767": "Ġdelivere", "9768": "ĠWhistle", "9769": "Ġprincesse", "9770": "Ġprincesses", "9771": "Ġrisk", "9772": "Hold", "9773": "Ġsquares", "9774": "ĠHenn", "9775": "ĠHenny", "9776": "Ġwarnings", "9777": "Ġgiggli", "9778": "Ġgigglin", "9779": "Ġgiggling", "9780": "Ġreads", "9781": "Ġyounger", "9782": "Ġswal", "9783": "Ġswall", "9784": "Ġswallo", "9785": "Ġswallow", "9786": "Ġclowns", "9787": "ĠMix", "9788": "Ġropes", "9789": "Ġlighte", "9790": "Ġcalme", "9791": "Ġconv", "9792": "Ġbiti", "9793": "Ġbitin", "9794": "Ġbiting", "9795": "Ġwhin", "9796": "Ġexh", "9797": "Ġdeal", "9798": "Ġseag", "9799": "Ġseagu", "9800": "Ġseagul", "9801": "Ġseagull", "9802": "Ġpaddled", "9803": "Ġwears", "9804": "ĠJone", "9805": "Ġpigg", "9806": "Ġdelivered", "9807": "Ġonions", "9808": "Ġcomplaine", "9809": "Ġbuzzed", "9810": "Ġcomplained", "9811": "ĠJum", "9812": "ĠAnne", "9813": "Ġbumpy", "9814": "Ġstem", "9815": "Ġsteer", "9816": "Ġpiggy", "9817": "Ġfirefl", "9818": "Ġdived", "9819": "Ġtangled", "9820": "Ġstartled", "9821": "ĠSki", "9822": "ĠJones", "9823": "Ġleani", "9824": "Ġleanin", "9825": "Ġleaning", "9826": "ĠAnt", "9827": "Ġtoaste", "9828": "Ġripe", "9829": "Ġflipp", "9830": "Har", "9831": "ĠFe", "9832": "Ġleap", "9833": "Ġvowe", "9834": "ĠSho", "9835": "Ġvowed", "9836": "Ġsqueal", "9837": "Ġage", "9838": "Ġnapkins", "9839": "Ġtickled", "9840": "ĠSkip", "9841": "Ġcovers", "9842": "ĠSusa", "9843": "ĠPla", "9844": "Ġyells", "9845": "ĠSusan", "9846": "ĠMir", "9847": "Ġsatisfi", "9848": "Ġsatisfie", "9849": "Ġsatisfied", "9850": "Ġrefreshe", "9851": "Ġknocks", "9852": "Ġrefreshed", "9853": "Ġrange", "9854": "Ġrotte", "9855": "Ġcous", "9856": "Ġsigne", "9857": "Ġcousi", "9858": "Ġcousin", "9859": "Ġarrows", "9860": "Ġsnor", "9861": "Ġhops", "9862": "Ġdesigne", "9863": "ĠDod", "9864": "ĠFla", "9865": "Ġwipes", "9866": "Ġspeaki", "9867": "Ġspeakin", "9868": "Ġspeaking", "9869": "Ġlettu", "9870": "Ġlettuc", "9871": "Ġlettuce", "9872": "Ġguessi", "9873": "Ġguessin", "9874": "Ġguessing", "9875": "Ġchoices", "9876": "Ġseeke", "9877": "Ġseeker", "9878": "Ġhides", "9879": "ĠDodo", "9880": "ĠRov", "9881": "ĠRove", "9882": "ĠRover", "9883": "Ġsigned", "9884": "Ġslower", "9885": "Ġfab", "9886": "Ġintroduced", "9887": "ĠAda", "9888": "Ġcreatin", "9889": "Ġcreating", "9890": "ĠJump", "9891": "Ġcompetitio", "9892": "Ġcompetition", "9893": "Ġjoked", "9894": "Ġhider", "9895": "Ġtoaster", "9896": "Ġexplorers", "9897": "Ġwanderi", "9898": "Ġwanderin", "9899": "Ġwandering", "9900": "Ġavoi", "9901": "Ġavoid", "9902": "Ġrefl", "9903": "Ġrefle", "9904": "Ġprayi", "9905": "Ġprayin", "9906": "Ġpraying", "9907": "ĠSnu", "9908": "Ġwritt", "9909": "Ġwritte", "9910": "Ġwritten", "9911": "Ġdiscoverin", "9912": "Ġdiscovering", "9913": "Ġprovided", "9914": "ĠDara", "9915": "Ġreflec", "9916": "Ġreflect", "9917": "ĠJef", "9918": "ĠMel", "9919": "Ġmushrooms", "9920": "Ġhesitate", "9921": "ĠJeff", "9922": "Charli", "9923": "ĠPaws", "9924": "Ġpayi", "9925": "Ġpayin", "9926": "Ġpaying", "9927": "Ġknees", "9928": "Ġpanc", "9929": "ĠCop", "9930": "Ġpanca", "9931": "Ġpancak", "9932": "ĠSnug", "9933": "Ġpancake", "9934": "Ġimages", "9935": "ĠSnugg", "9936": "Charlie", "9937": "Ġstung", "9938": "Ġmagnets", "9939": "Ġbarel", "9940": "Ġbarely", "9941": "Ġchuc", "9942": "Ġchuck", "9943": "ĠSnuggl", "9944": "Ġbehavin", "9945": "Ġbehaving", "9946": "Ġtipt", "9947": "Ġtipto", "9948": "ĠSnuggle", "9949": "?\",", "9950": "Ġtiptoe", "9951": "Ġmarked", "9952": "Ġrestored", "9953": "Ġleadi", "9954": "Ġleadin", "9955": "Ġleading", "9956": "Ġranger", "9957": "ĠLind", "9958": "Ġguid", "9959": "Ġgreet", "9960": "Ġconse", "9961": "Ġoutf", "9962": "Ġchuckl", "9963": "Ġsce", "9964": "Ġgears", "9965": "Ġfad", "9966": "Ġbravery", "9967": "Ġoutfi", "9968": "ĠSnuggles", "9969": "Ġoutfit", "9970": "ĠToot", "9971": "ĠMira", "9972": "Ġwishi", "9973": "Ġwishin", "9974": "Ġwishing", "9975": "Ġproperl", "9976": "Ġproperly", "9977": "ĠBets", "9978": "Ġventured", "9979": "Ġdances", "9980": "Ġsalty", "9981": "Ġpens", "9982": "ĠBetsy", "9983": "ĠZigg", "9984": "ĠZiggy", "9985": "ĠLuk", "9986": "Ġenti", "9987": "Ġhowe", "9988": "Ġhowev", "9989": "Ġhoweve", "9990": "Ġhowever", "9991": "Ġtravell", "9992": "Ġmatters", "9993": "Ġdarkn", "9994": "Ġdarkne", "9995": "Ġdarknes", "9996": "Ġdarkness", "9997": "Ġburs", "9998": "Ġrainc", "9999": "Ġchuckle"}, "merges": [["Ġ", "t"], ["Ġt", "h"], ["Ġth", "e"], ["Ġt", "o"], ["Ġ", "a"], ["Ġa", "n"], ["Ġan", "d"], ["Ġthe", "y"], ["Ġt", "r"], ["Ġth", "a"], ["Ġt", "i"], ["Ġa", "l"], ["Ġtha", "t"], ["Ġti", "m"], ["Ġtim", "e"], ["Ġthe", "r"], ["Ġther", "e"], ["Ġ", "s"], ["Ġs", "a"], ["Ġs", "h"], ["Ġs", "o"], ["Ġsa", "i"], ["Ġsai", "d"], ["Ġs", "t"], ["Ġsa", "w"], ["Ġsh", "e"], ["Ġs", "m"], ["Ġ", "w"], ["Ġw", "a"], ["Ġwa", "s"], ["Ġw", "i"], ["Ġw", "e"], ["Ġwi", "t"], ["Ġwit", "h"], ["Ġwa", "n"], ["Ġwan", "t"], ["Ġw", "h"], ["Ġw", "o"], ["Ġwe", "r"], ["Ġwer", "e"], ["Ġwant", "e"], ["Ġwante", "d"], ["Ġa", "r"], ["Ġto", "o"], ["Ġwe", "n"], ["Ġwen", "t"], ["Ġ", "h"], ["Ġh", "e"], ["Ġh", "a"], ["Ġh", "i"], ["Ġhe", "r"], ["Ġhi", "s"], ["Ġha", "p"], ["Ġhap", "p"], ["Ġha", "d"], ["Ġh", "o"], ["Ġhapp", "y"], ["Ġhe", "l"], ["Ġal", "l"], ["Ġhel", "p"], ["Ġs", "e"], ["Ġto", "y"], ["Ġa", "s"], ["Ġa", "t"], ["Ġso", "m"], ["Ġsom", "e"], ["Ġst", "a"], ["Ġto", "g"], ["Ġtog", "e"], ["Ġtoge", "t"], ["Ġtoget", "h"], ["Ġtogeth", "e"], ["Ġtogethe", "r"], ["Ġth", "i"], ["Ġ", "b"], ["Ġb", "i"], ["Ġb", "e"], ["Ġbi", "g"], ["Ġb", "a"], ["Ġb", "o"], ["Ġb", "u"], ["Ġbu", "t"], ["Ġbi", "r"], ["Ġbir", "d"], ["Ġtr", "e"], ["Ġt", "a"], ["Ġs", "u"], ["Ġba", "l"], ["Ġthe", "i"], ["Ġthei", "r"], ["Ġha", "v"], ["Ġhi", "m"], ["Ġtre", "e"], ["Ġbal", "l"], ["Ġb", "r"], ["Ġar", "e"], ["Ġthe", "m"], ["Ġsa", "d"], ["Ġbo", "y"], ["Ġse", "e"], ["Ġhav", "e"], ["Ġsh", "o"], ["Ġ", "f"], ["Ġf", "o"], ["Ġf", "r"], ["Ġfr", "i"], ["Ġfri", "e"], ["Ġfrie", "n"], ["Ġfrien", "d"], ["Ġfo", "r"], ["Ġf", "i"], ["Ġfriend", "s"], ["Ġf", "u"], ["Ġf", "e"], ["Ġf", "a"], ["Ġfu", "n"], ["Ġf", "l"], ["Ġfo", "u"], ["Ġfou", "n"], ["Ġs", "c"], ["Ġfe", "l"], ["Ġfoun", "d"], ["Ġ", "T"], ["ĠT", "h"], ["ĠTh", "e"], ["ĠThe", "y"], ["ĠT", "i"], ["ĠTi", "m"], ["ĠT", "o"], ["ĠTo", "m"], ["Ġs", "p"], ["Ġsm", "i"], ["Ġsmi", "l"], ["Ġas", "k"], ["Ġsta", "r"], ["Ġsmil", "e"], ["Ġba", "c"], ["Ġbac", "k"], ["Ġfr", "o"], ["Ġh", "u"], ["Ġbe", "c"], ["Ġfi", "n"], ["Ġthi", "n"], ["Ġbec", "a"], ["Ġst", "o"], ["Ġstar", "t"], ["Ġwo", "u"], ["Ġwou", "l"], ["Ġwoul", "d"], ["Ġfel", "t"], ["Ġsm", "a"], ["Ġask", "e"], ["Ġaske", "d"], ["Ġ", "l"], ["Ġl", "i"], ["Ġl", "o"], ["Ġli", "t"], ["Ġlit", "t"], ["Ġlitt", "l"], ["Ġlittl", "e"], ["Ġli", "k"], ["Ġlik", "e"], ["Ġlo", "o"], ["Ġl", "e"], ["Ġloo", "k"], ["Ġlo", "v"], ["Ġlov", "e"], ["Ġl", "a"], ["Ġlove", "d"], ["Ġlook", "e"], ["Ġlooke", "d"], ["Ġle", "a"], ["Ġlike", "d"], ["Ġstart", "e"], ["Ġstarte", "d"], ["Ġ", "i"], ["Ġi", "t"], ["Ġi", "n"], ["Ġi", "s"], ["Ġsc", "a"], ["Ġ", "d"], ["Ġd", "a"], ["Ġda", "y"], ["Ġd", "o"], ["Ġd", "i"], ["Ġdi", "d"], ["Ġdo", "g"], ["Ġd", "e"], ["Ġd", "r"], ["Ġwh", "e"], ["Ġ", "c"], ["Ġc", "a"], ["Ġc", "o"], ["Ġco", "u"], ["Ġca", "r"], ["Ġc", "l"], ["Ġca", "t"], ["Ġca", "n"], ["Ġcou", "l"], ["Ġcoul", "d"], ["Ġc", "r"], ["Ġca", "m"], ["Ġcam", "e"], ["Ġc", "h"], ["Ġsome", "t"], ["Ġa", "g"], ["Ġsma", "l"], ["Ġsmal", "l"], ["Ġwa", "l"], ["Ġsca", "r"], ["Ġwa", "t"], ["Ġ", "p"], ["Ġp", "l"], ["Ġpl", "a"], ["Ġpla", "y"], ["Ġp", "a"], ["Ġp", "u"], ["Ġp", "r"], ["Ġplay", "e"], ["Ġplaye", "d"], ["Ġpa", "r"], ["Ġp", "i"], ["Ġpar", "k"], ["Ġwo", "r"], ["Ġsmile", "d"], ["Ġsa", "y"], ["Ġp", "o"], ["Ġhe", "a"], ["Ġth", "o"], ["Ġs", "i"], ["Ġp", "e"], ["Ġsh", "a"], ["Ġtho", "u"], ["Ġthou", "g"], ["Ġthoug", "h"], ["Ġwh", "a"], ["Ġthin", "g"], ["Ġa", "w"], ["Ġfin", "d"], ["Ġaw", "a"], ["Ġho", "m"], ["Ġhom", "e"], ["Ġawa", "y"], ["Ġpu", "t"], ["Ġwha", "t"], ["Ġsomet", "h"], ["Ġsometh", "i"], ["Ġsomethi", "n"], ["Ġsomethin", "g"], ["Ġfro", "m"], ["Ġthough", "t"], ["Ġplay", "i"], ["Ġplayi", "n"], ["Ġplayin", "g"], ["Ġli", "v"], ["Ġ", "m"], ["Ġm", "o"], ["Ġm", "a"], ["Ġmo", "m"], ["Ġm", "e"], ["Ġma", "n"], ["Ġma", "k"], ["Ġmak", "e"], ["Ġm", "u"], ["Ġma", "d"], ["Ġmad", "e"], ["Ġbe", "a"], ["Ġb", "l"], ["Ġwal", "k"], ["Ġtr", "i"], ["Ġmo", "r"], ["Ġwi", "l"], ["Ġla", "u"], ["Ġscar", "e"], ["Ġho", "u"], ["Ġag", "a"], ["Ġaga", "i"], ["Ġagai", "n"], ["Ġliv", "e"], ["Ġlau", "g"], ["Ġlaug", "h"], ["Ġ", "o"], ["Ġo", "n"], ["Ġo", "f"], ["Ġo", "u"], ["Ġou", "t"], ["Ġo", "t"], ["Ġot", "h"], ["Ġoth", "e"], ["Ġothe", "r"], ["Ġhou", "s"], ["Ġhous", "e"], ["Ġdo", "w"], ["Ġdow", "n"], ["Ġtoo", "k"], ["Ġscare", "d"], ["Ġlea", "r"], ["Ġlear", "n"], ["Ġm", "i"], ["Ġtoy", "s"], ["Ġwil", "l"], ["Ġbo", "x"], ["Ġm", "y"], ["Ġar", "o"], ["Ġaro", "u"], ["Ġarou", "n"], ["Ġaroun", "d"], ["Ġthing", "s"], ["Ġpi", "c"], ["Ġwhe", "n"], ["Ġlive", "d"], ["Ġthe", "n"], ["Ġsu", "n"], ["Ġs", "w"], ["Ġ", "n"], ["Ġn", "o"], ["Ġno", "t"], ["Ġn", "a"], ["Ġn", "e"], ["Ġna", "m"], ["Ġnam", "e"], ["Ġname", "d"], ["Ġne", "w"], ["Ġpr", "e"], ["Ġcl", "o"], ["Ġa", "b"], ["Ġt", "e"], ["Ġsha", "r"], ["Ġtri", "e"], ["Ġco", "m"], ["Ġn", "i"], ["Ġlo", "t"], ["Ġtrie", "d"], ["Ġsay", "s"], ["Ġwh", "o"], ["Ġbo", "t"], ["Ġs", "l"], ["Ġst", "r"], ["Ġman", "y"], ["Ġab", "o"], ["Ġsu", "r"], ["Ġin", "t"], ["Ġabo", "u"], ["Ġabou", "t"], ["Ġpre", "t"], ["Ġde", "c"], ["Ġan", "y"], ["Ġst", "i"], ["Ġ", "g"], ["Ġg", "o"], ["Ġg", "i"], ["Ġg", "r"], ["Ġgi", "r"], ["Ġgir", "l"], ["Ġg", "a"], ["Ġgo", "o"], ["Ġgoo", "d"], ["Ġg", "e"], ["Ġge", "t"], ["Ġgo", "t"], ["Ġfl", "o"], ["Ġcar", "e"], ["Ġmor", "e"], ["Ġ", "S"], ["ĠS", "h"], ["ĠSh", "e"], ["ĠS", "a"], ["ĠS", "u"], ["ĠSu", "e"], ["ĠSa", "m"], ["ĠS", "p"], ["ĠSp", "o"], ["ĠSpo", "t"], ["ĠS", "o"], ["Ġhu", "g"], ["Ġlearn", "e"], ["Ġlearne", "d"], ["Ġdec", "i"], ["Ġhea", "r"], ["Ġwat", "e"], ["Ġwate", "r"], ["Ġbe", "s"], ["Ġin", "s"], ["Ġwi", "n"], ["Ġpr", "o"], ["Ġlo", "n"], ["Ġbeca", "m"], ["Ġbecam", "e"], ["Ġdeci", "d"], ["Ġdecid", "e"], ["Ġbes", "t"], ["Ġo", "p"], ["Ġfe", "e"], ["Ġgr", "e"], ["Ġtha", "n"], ["Ġgr", "a"], ["Ġout", "s"], ["Ġouts", "i"], ["Ġoutsi", "d"], ["Ġoutsid", "e"], ["Ġlaugh", "e"], ["Ġlaughe", "d"], ["Ġop", "e"], ["Ġal", "w"], ["Ġalw", "a"], ["Ġalwa", "y"], ["Ġalway", "s"], ["Ġsho", "w"], ["Ġco", "l"], ["Ġsh", "i"], ["Ġsto", "r"], ["Ġdecide", "d"], ["Ġbeca", "u"], ["Ġbecau", "s"], ["Ġbecaus", "e"], ["Ġbot", "h"], ["Ġint", "o"], ["Ġon", "e"], ["Ġope", "n"], ["Ġta", "k"], ["Ġc", "u"], ["Ġshar", "e"], ["Ġda", "d"], ["Ġbr", "o"], ["Ġt", "u"], ["Ġfa", "s"], ["Ġni", "c"], ["Ġnic", "e"], ["Ġthi", "s"], ["Ġfas", "t"], ["Ġs", "k"], ["Ġfee", "l"], ["Ġlon", "g"], ["Ġta", "l"], ["Ġins", "i"], ["Ġgr", "o"], ["Ġto", "l"], ["Ġtol", "d"], ["Ġa", "m"], ["Ġtak", "e"], ["Ġinsi", "d"], ["Ġinsid", "e"], ["Ġwh", "i"], ["Ġpret", "t"], ["Ġsur", "p"], ["Ġsurp", "r"], ["Ġsurpr", "i"], ["Ġsurpri", "s"], ["Ġsp", "e"], ["Ġsurpris", "e"], ["Ġprett", "y"], ["Ġso", "r"], ["Ġhapp", "e"], ["Ġhappe", "n"], ["Ġpic", "k"], ["Ġfo", "o"], ["Ġdo", "n"], ["Ġga", "v"], ["Ġgav", "e"], ["Ġmu", "c"], ["Ġmuc", "h"], ["Ġho", "w"], ["Ġha", "n"], ["Ġan", "i"], ["Ġani", "m"], ["Ġanim", "a"], ["Ġanima", "l"], ["Ġne", "e"], ["Ġnee", "d"], ["Ġo", "l"], ["Ġto", "w"], ["Ġo", "r"], ["Ġ", "r"], ["Ġr", "e"], ["Ġr", "a"], ["Ġr", "o"], ["Ġra", "n"], ["Ġre", "a"], ["Ġr", "u"], ["Ġre", "d"], ["Ġro", "o"], ["Ġroo", "m"], ["Ġr", "i"], ["Ġru", "n"], ["Ġro", "c"], ["Ġroc", "k"], ["Ġcare", "f"], ["Ġcaref", "u"], ["Ġcarefu", "l"], ["Ġfi", "s"], ["Ġfis", "h"], ["Ġsho", "u"], ["Ġle", "t"], ["Ġol", "d"], ["H", "e"], ["Ġ", "He"], ["Ġsor", "r"], ["Ġsorr", "y"], ["Ġshi", "n"], ["Ġth", "r"], ["Ġthan", "k"], ["Ġcl", "e"], ["Ġwalk", "e"], ["Ġwalke", "d"], ["Ġbea", "r"], ["Ġhan", "d"], ["Ġne", "a"], ["Ġfl", "e"], ["Ġwor", "k"], ["Ġsto", "p"], ["Ġtu", "r"], ["Ġflo", "w"], ["Ġhappen", "e"], ["Ġhappene", "d"], ["Ġfoo", "d"], ["Ġli", "s"], ["Ġlis", "t"], ["Ġbe", "t"], ["Ġflow", "e"], ["Ġit", "s"], ["Ġflowe", "r"], ["Ġdid", "n"], ["Ġanimal", "s"], ["Ġlist", "e"], ["Ġliste", "n"], ["Ġhi", "g"], ["Ġhig", "h"], ["Ġnea", "r"], ["Ġha", "r"], ["Ġwat", "c"], ["Ġwatc", "h"], ["Ġi", "d"], ["Ġid", "e"], ["Ġide", "a"], ["Ġtr", "y"], ["Ġsk", "y"], ["Ġs", "n"], ["Ġclo", "s"], ["Ġclos", "e"], ["Ġcom", "e"], ["Ġbet", "t"], ["Ġbett", "e"], ["Ġbette", "r"], ["Ġbr", "a"], ["Ġbu", "g"], ["Ġhear", "d"], ["Ġt", "w"], ["Ġcle", "a"], ["Ġch", "a"], ["Ġo", "v"], ["Ġov", "e"], ["Ġ", "\""], ["Ġbo", "o"], ["Ġtr", "u"], ["Ġmo", "u"], ["Ġho", "l"], ["Ġi", "f"], ["Ġa", "f"], ["Ġfl", "y"], ["Ġfle", "w"], ["Ġany", "m"], ["Ġanym", "o"], ["Ġanymo", "r"], ["Ġanymor", "e"], ["Ġspe", "c"], ["Ġsa", "f"], ["Ġca", "l"], ["Ġspec", "i"], ["Ġspeci", "a"], ["Ġspecia", "l"], ["Ġsw", "i"], ["Ġlot", "s"], ["Ġne", "v"], ["Ġnev", "e"], ["Ġneve", "r"], ["Ġb", "y"], ["Ġda", "n"], ["Ġco", "o"], ["Ġhu", "r"], ["Ġfi", "r"], ["Ġsaf", "e"], ["Ġwin", "d"], ["Ġ", "u"], ["Ġu", "p"], ["Ġup", "o"], ["Ġupo", "n"], ["Ġu", "n"], ["Ġu", "s"], ["Ġun", "d"], ["Ġund", "e"], ["Ġunde", "r"], ["Ġus", "e"], ["Ġgro", "u"], ["Ġclea", "n"], ["Ġga", "m"], ["Ġgam", "e"], ["Ġwi", "s"], ["Ġga", "r"], ["ĠThe", "n"], ["Ġdr", "e"], ["Ġgi", "v"], ["Ġtal", "k"], ["Ġch", "e"], ["Ġma", "g"], ["O", "n"], ["On", "e"], ["On", "c"], ["Onc", "e"], ["Ġ", "One"], ["Ġhar", "d"], ["Ġshin", "y"], ["Ġcl", "i"], ["Ġ", "y"], ["Ġy", "o"], ["Ġyo", "u"], ["Ġyou", "r"], ["Ġy", "e"], ["Ġfor", "e"], ["Ġove", "r"], ["Ġca", "k"], ["Ġcak", "e"], ["Ġboo", "k"], ["Ġbr", "i"], ["Ġcol", "o"], ["Ġtur", "n"], ["Ġfa", "m"], ["Ġba", "d"], ["Ġaf", "t"], ["Ġaft", "e"], ["Ġafte", "r"], ["Ġpe", "o"], ["Ġpeo", "p"], ["Ġpeop", "l"], ["Ġpeopl", "e"], ["Ġpro", "u"], ["Ġprou", "d"], ["Ġsurprise", "d"], ["Ġhur", "t"], ["Ġgiv", "e"], ["Ġsl", "i"], ["Ġdo", "o"], ["Ġdoo", "r"], ["Ġgar", "d"], ["Ġgard", "e"], ["Ġgarde", "n"], ["Ġ", "e"], ["Ġe", "v"], ["Ġev", "e"], ["Ġe", "a"], ["Ġeve", "r"], ["Ġe", "x"], ["Ġever", "y"], ["Ġe", "n"], ["Ġex", "c"], ["Ġexc", "i"], ["Ġexci", "t"], ["Ġea", "t"], ["Ġexcit", "e"], ["Ġexcite", "d"], ["Ġea", "c"], ["Ġeac", "h"], ["Ġeve", "n"], ["Ġen", "d"], ["Ġopen", "e"], ["Ġgrou", "n"], ["Ġgroun", "d"], ["Ġopene", "d"], ["Ġpick", "e"], ["Ġpicke", "d"], ["Ġlo", "u"], ["Ġlou", "d"], ["Ġcli", "m"], ["Ġclim", "b"], ["Ġg", "l"], ["ĠHe", "r"], ["Ġun", "e"], ["Ġune", "x"], ["Ġunex", "p"], ["Ġunexp", "e"], ["Ġunexpe", "c"], ["Ġunexpec", "t"], ["Ġunexpect", "e"], ["Ġunexpecte", "d"], ["Ġme", "a"], ["Ġi", "m"], ["Ġso", "u"], ["Ġwa", "y"], ["Ġbl", "u"], ["Ġ", "I"], ["ĠI", "t"], ["Ġhug", "g"], ["Ġthank", "e"], ["Ġthanke", "d"], ["Ġcolo", "r"], ["Ġblu", "e"], ["Ġno", "i"], ["Ġnoi", "s"], ["Ġsti", "l"], ["Ġstil", "l"], ["Ġfa", "r"], ["Ġhugg", "e"], ["Ġhugge", "d"], ["Ġpla", "n"], ["Ġcal", "l"], ["Ġhapp", "i"], ["Ġwa", "i"], ["ĠSa", "r"], ["ĠSar", "a"], ["Ġs", "q"], ["Ġsq", "u"], ["Ġtr", "a"], ["Ġof", "f"], ["Ġo", "w"], ["Ġmag", "i"], ["Ġmagi", "c"], ["Ġfam", "i"], ["Ġfami", "l"], ["Ġwai", "t"], ["Ġbo", "a"], ["Ġho", "p"], ["Ġpla", "c"], ["Ġplac", "e"], ["Ġhi", "d"], ["Ġrea", "d"], ["Ġa", "p"], ["Ġdr", "a"], ["Ġshou", "l"], ["Ġshoul", "d"], ["Ġfamil", "y"], ["Ġwa", "r"], ["Ġmo", "v"], ["Ġra", "i"], ["Ġcr", "a"], ["Ġa", "d"], ["Ġstr", "o"], ["ĠI", "n"], ["Ġno", "w"], ["Ġgre", "a"], ["Ġgrea", "t"], ["Ġstro", "n"], ["Ġstron", "g"], ["Ġsta", "y"], ["Ġbe", "e"], ["Ġun", "t"], ["Ġfore", "s"], ["Ġhelp", "e"], ["Ġte", "a"], ["Ġunt", "i"], ["Ġfores", "t"], ["Ġdan", "c"], ["Ġnois", "e"], ["Ġfro", "g"], ["Ġshow", "e"], ["Ġunti", "l"], ["Ġbea", "u"], ["Ġbeau", "t"], ["Ġlo", "s"], ["Ġsti", "c"], ["Ġstic", "k"], ["Ġne", "x"], ["Ġnex", "t"], ["Ġboa", "t"], ["Ġrea", "l"], ["Ġmu", "s"], ["Ġd", "u"], ["Ġan", "g"], ["Ġex", "p"], ["Ġhappi", "l"], ["Ġhappil", "y"], ["Ġbeaut", "i"], ["Ġbeauti", "f"], ["Ġbeautif", "u"], ["Ġbeautifu", "l"], ["Ġst", "u"], ["Ġw", "r"], ["Ġdi", "s"], ["Ġap", "p"], ["Ġhelpe", "d"], ["Ġsa", "n"], ["Ġshowe", "d"], ["Ġsli", "d"], ["Ġim", "p"], ["Ġstor", "y"], ["Ġno", "d"], ["Ġse", "a"], ["Ġwhi", "l"], ["Ġwhil", "e"], ["Ġrai", "n"], ["Ġtow", "n"], ["Ġcr", "e"], ["Ġrea", "c"], ["Ġpic", "t"], ["Ġpict", "u"], ["Ġpictu", "r"], ["Ġpictur", "e"], ["Ġre", "s"], ["Ġreac", "h"], ["Ġha", "t"], ["Ġso", "f"], ["Ġdo", "l"], ["Ġbe", "i"], ["Ġbei", "n"], ["Ġbein", "g"], ["Ġre", "m"], ["Ġevery", "o"], ["Ġeveryo", "n"], ["Ġeveryon", "e"], ["Ġbl", "o"], ["Ġy", "u"], ["Ġcall", "e"], ["Ġcalle", "d"], ["Ġstop", "p"], ["Ġfa", "c"], ["Ġbro", "k"], ["Ġbrok", "e"], ["Ġ", "v"], ["Ġv", "e"], ["Ġve", "r"], ["Ġver", "y"], ["Ġme", "t"], ["Ġstopp", "e"], ["Ġstoppe", "d"], ["Ġto", "u"], ["Ġwor", "r"], ["Ġdanc", "e"], ["Ġv", "i"], ["Ġpar", "t"], ["Ġmo", "n"], ["Ġang", "r"], ["Ġbut", "t"], ["Ġ", "L"], ["ĠL", "i"], ["ĠLi", "l"], ["ĠLil", "y"], ["ĠL", "u"], ["ĠLu", "c"], ["ĠLuc", "y"], ["ĠL", "e"], ["Ġlea", "v"], ["Ġangr", "y"], ["Ġyu", "m"], ["Ġthr", "e"], ["Ġsof", "t"], ["Ġy", "a"], ["Ġgre", "e"], ["Ġyum", "m"], ["Ġtru", "c"], ["Ġtruc", "k"], ["Ġmov", "e"], ["Ġsi", "n"], ["Ġcr", "y"], ["Ġyumm", "y"], ["Ġbra", "v"], ["Ġbrav", "e"], ["Ġlos", "t"], ["ĠSa", "l"], ["Ġbe", "d"], ["ĠLe", "t"], ["ĠSal", "l"], ["ĠSall", "y"], ["Ġwar", "m"], ["Ġcre", "a"], ["Ġsp", "o"], ["Ġslid", "e"], ["Ġcl", "a"], ["Ġmou", "s"], ["Ġmous", "e"], ["Ġat", "e"], ["Ġwo", "n"], ["Ġhol", "e"], ["Ġdol", "l"], ["Ġcould", "n"], ["Ġbi", "t"], ["Ġfac", "e"], ["Ġleav", "e"], ["Ġpa", "i"], ["Ġbe", "l"], ["Ġal", "s"], ["Ġals", "o"], ["Ġfel", "l"], ["Ġcoo", "k"], ["Ġgree", "n"], ["Ġtw", "o"], ["Ġwis", "h"], ["Ġflower", "s"], ["Ġsp", "i"], ["Ġwe", "a"], ["Ġwhe", "r"], ["Ġwher", "e"], ["Ġti", "r"], ["Ġso", "o"], ["Ġdr", "i"], ["Ġtir", "e"], ["Ġsoo", "n"], ["He", "l"], ["Ġfo", "l"], ["Ġ", "B"], ["ĠB", "u"], ["ĠB", "e"], ["ĠBu", "t"], ["ĠBe", "n"], ["ĠB", "o"], ["ĠBo", "b"], ["Ġsqu", "i"], ["Ġra", "c"], ["Ġra", "b"], ["Ġrab", "b"], ["Ġrabb", "i"], ["Ġrabbi", "t"], ["Ġthin", "k"], ["Ġco", "n"], ["Ġbe", "f"], ["Ġbef", "o"], ["Ġbefo", "r"], ["Ġbefor", "e"], ["Ġpu", "s"], ["Ġpus", "h"], ["Ġmea", "n"], ["Ġsa", "t"], ["Ġi", "c"], ["Ġpo", "n"], ["Ġsqui", "r"], ["Ġcr", "i"], ["Ġcu", "r"], ["Ġnod", "d"], ["Ġsquir", "r"], ["Ġsquirr", "e"], ["Ġsquirre", "l"], ["Ġnodd", "e"], ["Ġnodde", "d"], ["Ġstor", "e"], ["Ġ", "k"], ["Ġk", "n"], ["Ġk", "i"], ["Ġkn", "o"], ["Ġkno", "w"], ["Ġkn", "e"], ["Ġkne", "w"], ["Ġk", "e"], ["Ġki", "n"], ["Ġkin", "d"], ["Ġki", "t"], ["Ġki", "d"], ["Ġkid", "s"], ["Ġke", "e"], ["Ġkee", "p"], ["Ġke", "p"], ["Ġkep", "t"], ["Ġtou", "c"], ["Ġsin", "g"], ["Ġtouc", "h"], ["Ġexp", "l"], ["Ġswi", "n"], ["Ġswin", "g"], ["Ġhand", "s"], ["Ġbird", "s"], ["Ġpai", "n"], ["Ġbu", "n"], ["Ġcat", "c"], ["Ġcatc", "h"], ["Ġpe", "r"], ["Ġfor", "g"], ["Ġbr", "e"], ["Ġrac", "e"], ["Ġgo", "i"], ["Ġgoi", "n"], ["Ġgoin", "g"], ["Ġfun", "n"], ["Ġapp", "l"], ["Ġfunn", "y"], ["Ġhav", "i"], ["Ġhavi", "n"], ["Ġhavin", "g"], ["Ġye", "l"], ["Ġch", "i"], ["Ġ", "M"], ["ĠM", "a"], ["ĠMa", "x"], ["ĠM", "i"], ["ĠMi", "a"], ["ĠM", "o"], ["ĠMo", "m"], ["Ġbun", "n"], ["Ġe", "y"], ["Ġey", "e"], ["Ġte", "l"], ["Ġba", "r"], ["Ġyel", "l"], ["Ġe", "l"], ["Ġya", "r"], ["Ġbu", "s"], ["Ġfi", "x"], ["Ġbre", "a"], ["'", "s"], ["ĠTh", "a"], ["Ġtire", "d"], ["Ġbunn", "y"], ["Ġuse", "d"], ["Ġthr", "o"], ["Ġsi", "t"], ["Ġlook", "i"], ["Ġlooki", "n"], ["Ġlookin", "g"], ["Ġsl", "e"], ["Ġla", "d"], ["Ġwa", "v"], ["Ġou", "r"], ["Ġpu", "l"], ["Ġpul", "l"], ["Ġpi", "e"], ["Ġo", "k"], ["Ġappl", "e"], ["Ġsou", "n"], ["Ġsoun", "d"], ["Ġha", "s"], ["Ġpon", "d"], ["Ġmi", "s"], ["Ġbe", "h"], ["Ġad", "v"], ["Ġsun", "n"], ["Ġsunn", "y"], ["Ġother", "s"], ["Ġsn", "a"], ["Ġpr", "i"], ["Ġkit", "c"], ["Ġkitc", "h"], ["Ġkitch", "e"], ["Ġkitche", "n"], ["Ġrem", "e"], ["Ġreme", "m"], ["Ġremem", "b"], ["Ġrememb", "e"], ["Ġremembe", "r"], ["Ġtre", "a"], ["Ġimp", "o"], ["Ġmom", "m"], ["Ġdi", "f"], ["Ġdif", "f"], ["Ġhu", "n"], ["Ġhea", "d"], ["Ġag", "r"], ["Ġagr", "e"], ["Ġagre", "e"], ["Ġwav", "e"], ["Ġfir", "s"], ["Ġfirs", "t"], ["Ġme", "s"], ["Ġmomm", "y"], ["Ġeye", "s"], ["Ġv", "o"], ["Ġimpo", "r"], ["Ġimpor", "t"], ["Ġimport", "a"], ["Ġimporta", "n"], ["Hel", "l"], ["Hell", "o"], ["Ġfa", "v"], ["Ġfav", "o"], ["Ġda", "r"], ["Ġsw", "e"], ["Ġwork", "e"], ["Ġdre", "s"], ["Ġdres", "s"], ["Ġmes", "s"], ["Ġbe", "g"], ["Ġri", "g"], ["Ġrig", "h"], ["Ġrigh", "t"], ["Ġpart", "y"], ["Ġcol", "d"], ["Ġsan", "d"], ["Ġcur", "i"], ["Ġcuri", "o"], ["Ġdu", "c"], ["Ġduc", "k"], ["Ġimportan", "t"], ["Ġpl", "e"], ["Ġpain", "t"], ["Ġdi", "r"], ["Ġmor", "a"], ["Ġmora", "l"], ["Ġshare", "d"], ["Ġa", "c"], ["Ġcri", "e"], ["Ġbl", "a"], ["Ġic", "e"], ["Ġple", "a"], ["Ġadv", "e"], ["Ġok", "a"], ["Ġoka", "y"], ["Ġadve", "n"], ["Ġadven", "t"], ["Ġadvent", "u"], ["Ġadventu", "r"], ["Ġg", "u"], ["Ġst", "e"], ["Ġworke", "d"], ["Ġen", "j"], ["Ġenj", "o"], ["Ġenjo", "y"], ["Ġbri", "g"], ["Ġbrig", "h"], ["Ġmak", "i"], ["Ġbrigh", "t"], ["Ġmaki", "n"], ["Ġmakin", "g"], ["Ġcurio", "u"], ["Ġcuriou", "s"], [".", "\""], ["Ġplea", "s"], ["Ġow", "n"], ["Ġre", "p"], ["Ġwo", "o"], ["Ġfr", "u"], ["Ġfi", "l"], ["Ġpi", "n"], ["Ġtal", "l"], ["Ġdir", "t"], ["Ġso", "n"], ["Ġwatch", "e"], ["Ġsle", "e"], ["Ġfavo", "r"], ["Ġpleas", "e"], ["Ġfavor", "i"], ["Ġfavori", "t"], ["Ġfavorit", "e"], ["Ġche", "e"], ["Ġslee", "p"], ["Ġbeg", "a"], ["Ġbega", "n"], ["Ġba", "g"], ["Ġhi", "l"], ["Ġhil", "l"], ["Ġfir", "e"], ["Ġdra", "w"], ["Ġres", "t"], ["Ġher", "e"], ["Ġma", "r"], ["Ġyar", "d"], ["Ġta", "s"], ["Ġflo", "o"], ["Ġtel", "l"], ["Ġmi", "n"], ["Ġwatche", "d"], ["Ġfol", "l"], ["Ġfoll", "o"], ["Ġfollo", "w"], ["Ġexpl", "o"], ["Ġwe", "l"], ["Ġblo", "c"], ["Ġbloc", "k"], ["Ġgl", "a"], ["Ġcu", "t"], ["Ġni", "g"], ["Ġnig", "h"], ["Ġnigh", "t"], ["Ġagree", "d"], ["Ġexplo", "r"], ["Ġl", "u"], ["ĠTh", "i"], ["Ġhun", "g"], ["Ġpa", "p"], ["Ġbeh", "i"], ["Ġbehi", "n"], ["Ġbehin", "d"], ["Ġpap", "e"], ["Ġpape", "r"], ["ĠThi", "s"], ["Ġho", "t"], ["Ġgra", "s"], ["Ġgras", "s"], ["Ġta", "b"], ["Ġtab", "l"], ["Ġtabl", "e"], ["Ġworr", "y"], ["Ġdar", "k"], ["Ġwalk", "i"], ["Ġtree", "s"], ["Ġto", "p"], ["Ġvo", "i"], ["Ġvoi", "c"], ["Ġvoic", "e"], ["Ġwalki", "n"], ["Ġwalkin", "g"], ["Ġclo", "t"], ["Ġclot", "h"], ["Ġtw", "i"], ["Ġgra", "b"], ["Ġfar", "m"], ["Ġfloo", "r"], ["Ġli", "o"], ["Ġlio", "n"], ["Ġswe", "e"], ["Ġdiff", "e"], ["Ġdiffe", "r"], ["Ġdiffer", "e"], ["Ġdiffere", "n"], ["Ġfeel", "i"], ["Ġfeeli", "n"], ["Ġfeelin", "g"], ["Ġson", "g"], ["Ġbutt", "e"], ["Ġbutte", "r"], ["Ġta", "i"], ["Ġtai", "l"], ["Ġcar", "r"], ["Ġswee", "t"], ["Ġshou", "t"], ["Ġcolor", "s"], ["Ġlad", "y"], ["Ġcla", "p"], ["Ġcook", "i"], ["!", "\""], ["Ġleave", "s"], ["Ġclose", "r"], ["Ġcar", "s"], ["ĠB", "i"], ["Ġturn", "e"], ["Ġturne", "d"], ["Ġneed", "e"], ["Ġneede", "d"], ["Ġfi", "g"], ["Ġtas", "t"], ["Ġwoo", "d"], ["Ġcrie", "d"], ["Ġgro", "w"], ["Ġdifferen", "t"], ["Ġpa", "t"], ["Ġde", "l"], ["Ġpie", "c"], ["Ġbo", "w"], ["Ġpiec", "e"], ["Ġtra", "i"], ["Ġha", "i"], ["Ġro", "l"], ["Ġhai", "r"], ["ĠM", "r"], ["Ġrol", "l"], ["Ġadventur", "e"], ["Ġdo", "e"], ["Ġdoe", "s"], ["Ġhung", "r"], ["Ġtow", "e"], ["Ġhungr", "y"], ["ĠSu", "d"], ["ĠSud", "d"], ["ĠSudd", "e"], ["ĠSudde", "n"], ["ĠSudden", "l"], ["ĠSuddenl", "y"], ["Ġsw", "a"], ["Ġfu", "l"], ["Ġyell", "o"], ["Ġyello", "w"], ["Ġful", "l"], ["Ġpri", "n"], ["Ġal", "o"], ["Ġwe", "t"], ["Ġfriend", "l"], ["Ġalo", "n"], ["Ġdr", "o"], ["Ġfriendl", "y"], ["Ġbu", "i"], ["Ġbui", "l"], ["Ġpa", "s"], ["Ġpi", "l"], ["Ġfru", "i"], ["Ġfrui", "t"], ["Ġge", "n"], ["Ġbroke", "n"], ["Ġba", "t"], ["Ġwish", "e"], ["Ġread", "y"], ["Ġv", "a"], ["Ġpro", "m"], ["ĠTha", "t"], ["Ġprom", "i"], ["Ġpromi", "s"], ["Ġan", "o"], ["Ġano", "t"], ["Ġanot", "h"], ["Ġanoth", "e"], ["Ġanothe", "r"], ["Ġclimb", "e"], ["Ġli", "g"], ["Ġlig", "h"], ["Ġligh", "t"], ["Ġpret", "e"], ["Ġprete", "n"], ["Ġpreten", "d"], ["Ġpromis", "e"], ["Ġlisten", "e"], ["Ġn", "u"], ["Ġrun", "n"], ["Ġcooki", "e"], ["Ġclimbe", "d"], ["Ġlistene", "d"], ["Ġsi", "g"], ["Ġreach", "e"], ["Ġpush", "e"], ["ĠBob", "o"], ["Ġdel", "i"], ["Ġgo", "n"], ["Ġon", "l"], ["Ġrunn", "i"], ["Ġrunni", "n"], ["Ġrunnin", "g"], ["Ġonl", "y"], ["Ġgon", "e"], ["Ġswi", "m"], ["Ġrep", "l"], ["Ġtrai", "n"], ["Ġsm", "e"], ["Ġma", "t"], ["Ġsme", "l"], ["Ġpe", "a"], ["Ġde", "e"], ["Ġsmel", "l"], ["Ġsc", "r"], ["Ġexplor", "e"], ["Ġcha", "i"], ["Ġam", "a"], ["Ġama", "z"], ["Ġstr", "a"], ["Ġwon", "d"], ["Ġhol", "d"], ["Ġwond", "e"], ["Ġwonde", "r"], ["Ġblock", "s"], ["ĠTim", "m"], ["ĠTimm", "y"], ["Ġ", "A"], ["ĠA", "n"], ["ĠAn", "d"], ["ĠA", "m"], ["ĠAm", "y"], ["ĠAn", "n"], ["ĠAnn", "a"], ["ĠA", "l"], ["ĠA", "s"], ["ĠAl", "l"], ["Ġhid", "e"], ["Ġbutter", "f"], ["Ġbutterf", "l"], ["Ġsee", "s"], ["Ġfa", "i"], ["Ġreache", "d"], ["Ġsl", "o"], ["Ġwal", "l"], ["Ġbig", "g"], ["Ġbigg", "e"], ["Ġhelp", "i"], ["Ġhelpi", "n"], ["Ġhelpin", "g"], ["Ġslo", "w"], ["Ġcoo", "l"], ["Ġstr", "e"], ["Ġcrea", "m"], ["Ġgood", "b"], ["Ġgoodb", "y"], ["Ġgoodby", "e"], ["Ġgla", "d"], ["Ġti", "g"], ["Ġba", "b"], ["Ġan", "t"], ["Ġle", "s"], ["Ġles", "s"], ["Ġla", "n"], ["Ġbee", "n"], ["He", "r"], ["Ġfin", "i"], ["Ġfini", "s"], ["Ġfinis", "h"], ["Ġshe", "l"], ["Ġwea", "r"], ["Ġfig", "h"], ["Ġfigh", "t"], ["Ġca", "s"], ["Ġpushe", "d"], ["Ġsn", "o"], ["Ġfai", "r"], ["Ġmus", "t"], ["Ġhop", "p"], ["Ġchi", "l"], ["Ġtea", "c"], ["Ġteac", "h"], ["Ġmom", "e"], ["Ġmome", "n"], ["Ġmomen", "t"], ["Ġwind", "o"], ["Ġwindo", "w"], ["Ġro", "u"], ["Ġwr", "o"], ["Ġball", "o"], ["Ġballo", "o"], ["Ġballoo", "n"], ["Ġsno", "w"], ["Ġchil", "d"], ["Ġclap", "p"], ["Ġwishe", "d"], ["Ġbab", "y"], ["Ġdon", "e"], ["Ġwa", "g"], ["Ġbu", "y"], ["Ġstu", "c"], ["Ġstuc", "k"], ["Ġper", "f"], ["Ġro", "a"], ["Ġmi", "g"], ["Ġdri", "v"], ["Ġmig", "h"], ["Ġmigh", "t"], ["Ġbo", "u"], ["Ġtry", "i"], ["Ġtryi", "n"], ["Ġtryin", "g"], ["Ġcom", "i"], ["Ġsp", "a"], ["Ġcomi", "n"], ["Ġcomin", "g"], ["Ġri", "d"], ["Ġfa", "l"], ["Ġfal", "l"], ["Ġnot", "i"], ["Ġnoti", "c"], ["Ġplan", "t"], ["Ġa", "i"], ["Ġnotic", "e"], ["Ġdi", "n"], ["Ġ", "j"], ["Ġj", "u"], ["Ġju", "m"], ["Ġjum", "p"], ["Ġj",
[...]
